<unk>	0
<s>	0
</s>	0
..	-0
ᄏᄏ	-1
선수	-2
▁이	-3
흥민	-4
▁선수	-5
▁손	-6
▁진	-7
니다	-8
▁손흥민	-9
▁진짜	-10
!!	-11
경기	-12
▁아	-13
▁대	-14
ᄏᄏᄏᄏ	-15
▁그	-16
...	-17
▁다	-18
▁조	-19
▁잘	-20
▁"	-21
▁보	-22
▁우	-23
▁경기	-24
▁한	-25
는데	-26
▁선수들	-27
▁정	-28
으로	-29
호주	-30
너무	-31
▁1	-32
▁호주	-33
▁너무	-34
▁수	-35
▁양	-36
에서	-37
현우	-38
▁하	-39
▁황	-40
현준	-41
습니다	-42
▁골	-43
▁양현준	-44
희찬	-45
까지	-46
▁안	-47
▁있	-48
▁우리	-49
강인	-50
▁자	-51
▁감	-52
▁정말	-53
▁어	-54
▁기	-55
▁황희찬	-56
ᅲᅲ	-57
▁공	-58
프리	-59
▁나	-60
▁프리	-61
네요	-62
▁조현우	-63
~~	-64
▁프리킥	-65
▁이강인	-66
▁좋	-67
하고	-68
축구	-69
한민	-70
한민국	-71
▁고	-72
▁모	-73
▁미	-74
하는	-75
....	-76
▁대한민국	-77
▁최	-78
▁김	-79
▁전	-80
▁뛰	-81
들어	-82
▁사	-83
▁가	-84
▁수비	-85
▁없	-86
▁연	-87
▁""	-88
▁2	-89
으면	-90
▁저	-91
▁4	-92
지만	-93
▁축구	-94
▁패	-95
▁지	-96
▁상	-97
▁한국	-98
▁선	-99
▁와	-100
합니다	-101
▁넣	-102
▁멋	-103
▁국	-104
▁해	-105
▁주	-106
▁오	-107
▁개	-108
▁끝	-109
ᄏᄏᄏᄏᄏᄏᄏᄏ	-110
▁생	-111
▁같	-112
▁마	-113
는거	-114
규성	-115
▁못	-116
▁결	-117
▁많	-118
▁대단	-119
▁더	-120
▁시	-121
▁인	-122
▁만	-123
▁월	-124
ᄃᄃ	-125
▁생각	-126
!!!!	-127
나라	-128
▁빛	-129
어요	-130
더라	-131
▁실	-132
▁이번	-133
▁거	-134
▁왜	-135
▁아니	-136
▁힘	-137
▁조규성	-138
▁후	-139
▁막	-140
이라	-141
▁역	-142
이다	-143
▁않	-144
▁열	-145
▁연장	-146
▁눈	-147
하다	-148
리고	-149
▁공격	-150
▁ᄏᄏ	-151
▁알	-152
▁김태	-153
▁최고	-154
스럽	-155
▁자랑	-156
했다	-157
이팅	-158
▁우리나라	-159
▁클	-160
▁김태환	-161
하게	-162
▁고생	-163
▁심	-164
▁끝까지	-165
▁설	-166
봐도	-167
▁드	-168
렇게	-169
▁바	-170
니까	-171
▁슛	-172
▁것	-173
▁중	-174
심히	-175
는게	-176
면서	-177
▁제	-178
▁부	-179
▁화	-180
▁우승	-181
▁보고	-182
▁투	-183
▁열심히	-184
▁패스	-185
▁무	-186
영우	-187
▁후반	-188
스만	-189
적으로	-190
보다	-191
▁설영우	-192
▁올	-193
었다	-194
선수들	-195
▁소	-196
▁아시	-197
▁12	-198
어서	-199
▁상대	-200
▁미쳤	-201
레이	-202
▁다시	-203
▁감동	-204
▁내	-205
겠다	-206
▁선발	-207
▁볼	-208
▁손흥민이	-209
에게	-210
▁차	-211
해서	-212
▁화이팅	-213
▁승	-214
▁월드	-215
▁크	-216
▁체	-217
▁되	-218
▁요	-219
인데	-220
▁자랑스럽	-221
??	-222
표팀	-223
널티	-224
▁감사	-225
하지	-226
▁돌	-227
▁그냥	-228
▁들어	-229
▁눈물	-230
▁체력	-231
플레이	-232
계속	-233
키퍼	-234
▁멋있	-235
▁때	-236
▁10	-237
▁선수가	-238
르단	-239
응원	-240
▁잘해	-241
▁포	-242
▁스	-243
▁살	-244
▁누	-245
!!!	-246
입니다	-247
▁모두	-248
▁빛현우	-249
:3	-250
▁응원	-251
▁느	-252
▁여	-253
▁기회	-254
민재	-255
▁계속	-256
린스만	-257
▁몇	-258
▁했	-259
▁풀	-260
▁맞	-261
▁넘	-262
▁말	-263
▁두	-264
▁골키퍼	-265
▁클린스만	-266
▁요르단	-267
▁장	-268
부터	-269
▁잘하	-270
▁ᅲᅲ	-271
▁피	-272
다고	-273
▁남	-274
▁또	-275
▁본	-276
었는데	-277
▁최선	-278
▁손흥민은	-279
▁좀	-280
▁예	-281
▁어제	-282
▁봐도	-283
▁포기	-284
로스	-285
ᄒᄒ	-286
▁심판	-287
▁박	-288
▁사랑	-289
^^	-290
▁유	-291
기가	-292
▁그리고	-293
▁재	-294
▁ᄏᄏᄏᄏ	-295
▁나오	-296
▁사람	-297
▁먹	-298
▁플레이	-299
▁p	-300
▁3	-301
하면	-302
▁모든	-303
."	-304
▁얻	-305
엄청	-306
▁월드컵	-307
▁발	-308
▁만들어	-309
▁20	-310
▁할	-311
주고	-312
▁아시안	-313
▁8	-314
▁크로스	-315
셨습니다	-316
▁많이	-317
▁세	-318
▁진심	-319
▁감사합니다	-320
리는	-321
떻게	-322
▁ᄃᄃ	-323
▁어떻게	-324
▁수고	-325
▁위	-326
▁미친	-327
▁일	-328
▁성	-329
▁앞	-330
▁명	-331
라고	-332
▁신	-333
▁봤	-334
▁처	-335
▁고맙	-336
▁상황	-337
▁받	-338
였다	-339
▁오늘	-340
▁엄청	-341
:0	-342
:1	-343
▁쓰	-344
▁최선을	-345
▁pk	-346
하는거	-347
▁투지	-348
주는	-349
한테	-350
▁다들	-351
지막	-352
인범	-353
널티킥	-354
▁대표팀	-355
:5	-356
▁국대	-357
▁보여	-358
한다	-359
▁6	-360
▁교	-361
▁있는	-362
▁선방	-363
▁>	-364
🇰🇷	-365
텐데	-366
▁감독	-367
▁아시안컵	-368
▁뛰어	-369
▁페	-370
▁존	-371
전에	-372
▁국가	-373
세요	-374
보고	-375
솔직	-376
손흥민	-377
▁하는	-378
▁영	-379
▁잡	-380
▁새	-381
▁김민재	-382
하네	-383
▁역시	-384
▁선수들이	-385
▁반	-386
▁올라	-387
▁결승	-388
▁마지막	-389
▁근	-390
라마	-391
아서	-392
▁골을	-393
▁교체	-394
처럼	-395
▁제발	-396
▁월클	-397
▁P	-398
▁몸	-399
▁ᄌ	-400
▁숨	-401
▁예술	-402
▁흥민	-403
솔직히	-404
▁그래	-405
했어요	-406
을때	-407
▁비	-408
,,	-409
▁경	-410
ᄏᄏᄏᄏᄏᄏᄏᄏᄏᄏᄏᄏᄏᄏᄏᄏ	-411
▁9	-412
적인	-413
았다	-414
선수가	-415
ᅮᅮ	-416
▁얻어	-417
ᄏᄏᄏ	-418
▁아무	-419
은데	-420
▁힘들	-421
▁경기를	-422
▁드라마	-423
▁국가대	-424
▁이렇게	-425
▁게	-426
▁프리킥은	-427
▁팀	-428
▁솔직히	-429
ᅲᅲᅲᅲ	-430
▁황인범	-431
▁확	-432
나서	-433
▁안되	-434
▁️	-435
▁얼	-436
려고	-437
▁자랑스럽습니다	-438
▁매	-439
대로	-440
▁빼	-441
:2	-442
▁잘했	-443
▁간	-444
시간	-445
▁강	-446
들이	-447
▁이기	-448
출전	-449
▁처음	-450
▁날	-451
▁다음	-452
하셨습니다	-453
▁답	-454
▁당	-455
해주	-456
▁손흥민의	-457
이었	-458
▁이겨	-459
▁정도	-460
▁싶	-461
카드	-462
▁쉽	-463
▁헤	-464
▁국민	-465
▁믿	-466
능력	-467
▁11	-468
▁근데	-469
▁하고	-470
▁...	-471
~~~	-472
▁뒤	-473
▁이강인이	-474
구나	-475
▁인생	-476
▁불	-477
▁필	-478
가는	-479
▁완	-480
▁뛰는	-481
▁궤	-482
이고	-483
▁참	-484
▁꼭	-485
▁않고	-486
▁조현우가	-487
▁최고의	-488
▁큰	-489
▁전술	-490
▁12:3	-491
▁ᄏᄏᄏ	-492
▁빠	-493
▁PK	-494
▁치	-495
▁행	-496
▁행복	-497
재성	-498
▁태	-499
▁갈	-500
▁분	-501
▁포기하지	-502
▁저렇게	-503
▁ᄌᄂ	-504
▁앞으로	-505
없이	-506
▁16	-507
었으면	-508
▁그래도	-509
▁애	-510
에도	-511
▁소름	-512
▁파	-513
▁120	-514
▁승리	-515
▁자신	-516
▁관	-517
준희	-518
:4	-519
▁들	-520
▁숨은	-521
▁도	-522
▁좋겠다	-523
▁첫	-524
▁모습	-525
▁실수	-526
▁이건	-527
▁미쳤다	-528
명이	-529
▁노	-530
▁울	-531
시다	-532
▁이런	-533
▁배	-534
▁순	-535
다가	-536
마나	-537
와서	-538
▁얼마나	-539
▁레	-540
을텐데	-541
것도	-542
▁성공	-543
어도	-544
▁정신	-545
한거	-546
▁양현준이	-547
강전	-548
이네	-549
▁이긴	-550
▁다른	-551
▁한번	-552
했는데	-553
▁라	-554
▁선발로	-555
▁5	-556
▁추	-557
▁상황에서	-558
▁헤딩	-559
▁동	-560
▁좋아	-561
골을	-562
▁없는	-563
▁하나	-564
▁순간	-565
▁온	-566
▁깔	-567
▁덕	-568
▁심판이	-569
었던	-570
▁황희찬이	-571
▁같다	-572
▁원	-573
▁아쉬	-574
▁졌	-575
우디	-576
▁결과	-577
▁사우디	-578
▁난	-579
▁활	-580
수비	-581
▁아닌	-582
▁장면	-583
▁ᄅ	-584
▁목	-585
▁답답	-586
▁돌파	-587
▁국가대표	-588
▁수비수	-589
▁해설	-590
▁선수도	-591
▁많았	-592
▁마음	-593
▁천	-594
▁아시아	-595
▁내가	-596
▁추가	-597
▁대박	-598
▁모르	-599
▁보면서	-600
▁의	-601
▁떨	-602
▁대단하다	-603
가요	-604
기를	-605
이형	-606
던데	-607
보이	-608
▁능력	-609
▁주장	-610
▁아쉽	-611
▁패널티킥	-612
차기	-613
▁연속	-614
사람	-615
▁확실	-616
회수	-617
▁조회수	-618
같은	-619
▁바랍	-620
▁바랍니다	-621
▁요르단전	-622
▁움	-623
▁우리선수들	-624
▁특	-625
어나	-626
▁궤적	-627
밖에	-628
직임	-629
▁보면	-630
▁호주전	-631
▁실점	-632
▁안나	-633
▁투입	-634
▁줄	-635
▁언	-636
정도	-637
▁물	-638
▁악	-639
나요	-640
른쪽	-641
▁오른쪽	-642
▁..	-643
▁집	-644
▁질	-645
▁보이	-646
▁살아	-647
▁보는	-648
▁전반	-649
하는데	-650
▁들어오	-651
겠지만	-652
▁편	-653
▁그저	-654
▁있을	-655
리블	-656
▁드리블	-657
번째	-658
이트	-659
▁결국	-660
▁있다	-661
▁좋았	-662
▁M	-663
아아	-664
▁골대	-665
▁남은	-666
▁이재성	-667
▁0	-668
▁욕	-669
▁해야	-670
▁측	-671
분이	-672
타임	-673
▁대한민국의	-674
했음	-675
씨찬	-676
▁여러	-677
▁지금	-678
영권	-679
▁멋진	-680
▁경기였	-681
스트	-682
▁생각함	-683
도록	-684
다니	-685
해야	-686
▁유도	-687
......	-688
▁쿠	-689
▁월드클	-690
▁걍	-691
었고	-692
▁움직임	-693
▁문	-694
줘서	-695
▁자신감	-696
▁좋은	-697
▁연장전	-698
어야	-699
동안	-700
;;	-701
현규	-702
▁개잘	-703
▁공이	-704
▁얻어낸	-705
▁오현규	-706
▁흥	-707
훌륭	-708
▁시작	-709
▁김영권	-710
▁인생을	-711
▁ᄅᄋ	-712
▁저런	-713
▁선수들도	-714
▁이번경기	-715
▁희	-716
▁슈	-717
▁누구	-718
▁막아	-719
▁양현준은	-720
▁재밌	-721
▁약	-722
유도	-723
▁느껴	-724
이네요	-725
▁후반에	-726
▁갓	-727
진짜	-728
케이	-729
▁역사	-730
▁피케이	-731
창출	-732
▁실력	-733
▁씨찬	-734
▁아직	-735
▁이제	-736
▁만든	-737
였으면	-738
▁,	-739
▁침	-740
▁왔	-741
!!!!!!!!	-742
치는	-743
분에	-744
▁역전	-745
▁결정	-746
▁조규성은	-747
▁감탄	-748
▁둘	-749
▁떠	-750
▁거의	-751
▁아님	-752
▁체력이	-753
▁깔끔	-754
고있	-755
번을	-756
린트	-757
▁개인	-758
▁스프	-759
▁스프린트	-760
▁혼	-761
▁그걸	-762
▁극	-763
▁단	-764
▁리	-765
▁주전	-766
▁풀타임	-767
▁훨	-768
▁훨씬	-769
▁없고	-770
황희찬	-771
▁있었던	-772
즈아	-773
패스	-774
했고	-775
▁심장	-776
버리	-777
지않	-778
▁이강인은	-779
▁뭐	-780
리가	-781
이랑	-782
▁ᄒ	-783
▁토	-784
기에	-785
▁측면	-786
때까지	-787
을듯	-788
▁이야	-789
립니다	-790
이라이트	-791
▁7	-792
▁🇰🇷	-793
▁바로	-794
▁선수는	-795
▁10:2	-796
하며	-797
래스	-798
▁넣고	-799
▁완벽	-800
▁백	-801
▁이겼	-802
▁페널티킥	-803
▁손흥민선수	-804
▁따	-805
▁뭔	-806
▁운	-807
▁우리가	-808
이강인	-809
하더라	-810
▁벌	-811
▁이거	-812
▁진정	-813
▁추가시간	-814
지고	-815
▁등	-816
문에	-817
▁전기	-818
▁승부	-819
▁강인	-820
주세요	-821
분들	-822
사들	-823
▁누가	-824
전사들	-825
있게	-826
▁것도	-827
▁쉽게	-828
▁그렇	-829
▁나라	-830
▁새벽	-831
진출	-832
▁중앙	-833
▁한준희	-834
▁시간	-835
▁출전	-836
▁있었는데	-837
조건	-838
하시	-839
▁훌륭	-840
었네요	-841
▁봤는데	-842
▁싸	-843
▁캡	-844
보면	-845
▁캡틴	-846
가서	-847
아니	-848
▁막판	-849
▁쉬	-850
▁가슴	-851
▁고마	-852
▁넣는	-853
▁본인	-854
▁오늘도	-855
▁프리킥을	-856
▁홍	-857
▁떠나서	-858
에서도	-859
▁눈물나	-860
렸다	-861
▁기대	-862
▁이게	-863
▁필드	-864
▁같은	-865
되는	-866
▁카드	-867
▁짜	-868
해요	-869
▁동점	-870
▁특히	-871
▁함	-872
▁없네	-873
▁아니였으면	-874
봐라	-875
▁태극	-876
▁태극전사들	-877
on	-878
▁인상	-879
▁상대팀	-880
.....	-881
지는	-882
▁빨	-883
들은	-884
항상	-885
▁자랑스	-886
▁김태환은	-887
라도	-888
▁희찬	-889
▁좋겠	-890
▁안나오	-891
▁밀	-892
▁이란	-893
▁항상	-894
▁수고하셨습니다	-895
▁달	-896
▁문제	-897
▁터	-898
거나	-899
는지	-900
만큼	-901
▁연장전에	-902
▁기적	-903
▁잘해주	-904
압박	-905
최고	-906
♡♡	-907
워서	-908
▁한골	-909
그리고	-910
▁수비가	-911
▁놓	-912
▁변	-913
▁느낌	-914
골은	-915
▁주심	-916
▁이번에	-917
▁승부차기	-918
▁고생하셨습니다	-919
▁합	-920
는건	-921
▁게임	-922
▁혼자	-923
▁대단한	-924
▁존나	-925
▁축구를	-926
▁투지가	-927
▁설영우도	-928
이나	-929
▁표	-930
급이	-931
▁부상	-932
▁없다	-933
강진출	-934
▁했는데	-935
▁잘하고	-936
▁자랑스럽고	-937
▁뛰고	-938
▁스타	-939
▁조금	-940
지도	-941
▁역사상	-942
▁한국이	-943
▁절	-944
▁대표	-945
스럽고	-946
▁“	-947
▁독	-948
▁가장	-949
▁고맙다	-950
▁건	-951
였음	-952
▁빼고	-953
이드	-954
▁왼	-955
내서	-956
~~~~	-957
▁수준	-958
하네요	-959
장면	-960
▁고맙습니다	-961
▁방	-962
▁축	-963
▁높	-964
▁잠	-965
이브	-966
▁공간	-967
▁슈팅	-968
▁영화	-969
▁대단하고	-970
▁사랑합니다	-971
▁인정	-972
인지	-973
▁진정한	-974
심장	-975
친구	-976
▁떨어	-977
▁승패	-978
▁일본	-979
▁확실히	-980
치고	-981
▁넣을	-982
▁빠른	-983
▁합니다	-984
▁한국축구	-985
기서	-986
난다	-987
????	-988
게임	-989
▁마무	-990
▁뭔가	-991
▁과	-992
▁초	-993
▁퇴	-994
▁시원	-995
▁재미	-996
으면서	-997
이라도	-998
▁있어서	-999
▁패널티	-1000
종료	-1001
▁그런	-1002
▁신의	-1003
에서는	-1004
▁미쳤네	-1005
▁ᄏᄏᄏᄏᄏ	-1006
▁서	-1007
놓고	-1008
중에	-1009
였는데	-1010
▁6:0	-1011
▁아니라	-1012
▁증	-1013
이가	-1014
▁회	-1015
▁알았	-1016
▁퇴장	-1017
▁아직도	-1018
▁직	-1019
했던	-1020
▁겁	-1021
▁공을	-1022
▁새로	-1023
▁전방	-1024
▁100	-1025
▁하이라이트	-1026
▁얘	-1027
▁판	-1028
은거	-1029
ᄒᄒᄒᄒ	-1030
▁메	-1031
▁몰	-1032
▁힘이	-1033
▁잘하는	-1034
▁써	-1035
라인	-1036
수록	-1037
▁무조건	-1038
▁이정도	-1039
▁경기에서	-1040
▁폭	-1041
▁가즈아	-1042
▁공격수	-1043
▁뛰더라	-1044
려서	-1045
린다	-1046
▁90	-1047
▁같아	-1048
▁정도로	-1049
▁팬	-1050
보자	-1051
▁보유	-1052
▁짜릿	-1053
▁투혼	-1054
는데도	-1055
다는게	-1056
봅니다	-1057
ᄏᄏᄏᄏᄏᄏ	-1058
지다	-1059
▁좋다	-1060
▁해주	-1061
▁ᄏᄏᄏᄏᄏᄏᄏᄏ	-1062
치지	-1063
으니까	-1064
▁임	-1065
▁칭	-1066
▁현	-1067
었음	-1068
▁이후	-1069
▁칭찬	-1070
었지만	-1071
▁마지막에	-1072
▁준	-1073
을까	-1074
안하고	-1075
""	-1076
▁키	-1077
으니	-1078
▁분위	-1079
▁소리	-1080
▁않는	-1081
▁공격이	-1082
▁잘했다	-1083
▁쫄	-1084
강도	-1085
▁눈에	-1086
▁어렵	-1087
▁쿠팡	-1088
▁호주가	-1089
▁호주한테	-1090
▁옵	-1091
꾸역	-1092
▁절대	-1093
▁기용	-1094
▁다해	-1095
▁해준	-1096
보면서	-1097
▁응원합니다	-1098
▁야	-1099
▁시대	-1100
▁다시봐도	-1101
▁예술이다	-1102
▁아주	-1103
▁종료	-1104
▁클리	-1105
▁하지	-1106
이었다	-1107
었습니다	-1108
이는	-1109
▁자랑스럽다	-1110
▁그자	-1111
▁존경	-1112
▁아쉬운	-1113
셔서	-1114
할듯	-1115
ᄃᄃᄃ	-1116
........	-1117
VP	-1118
▁갑	-1119
▁알고	-1120
개인	-1121
전드	-1122
▁부담	-1123
▁자체	-1124
▁다치지	-1125
▁선수의	-1126
웠습니다	-1127
▁타	-1128
치에	-1129
▁폼	-1130
더니	-1131
해도	-1132
는거고	-1133
▁미쳤고	-1134
했습니다	-1135
▁개인적으로	-1136
▁탈	-1137
겠네	-1138
에는	-1139
▁넘어	-1140
▁강인이	-1141
▁그동안	-1142
▁막판에	-1143
대한민국	-1144
▁씨찬이형	-1145
▁조현우는	-1146
▁났	-1147
줘야	-1148
지가	-1149
▁자주	-1150
▁사람이	-1151
▁자기가	-1152
▁어떻게든	-1153
▁무슨	-1154
▁경기에	-1155
▁머	-1156
같이	-1157
할때	-1158
▁했다	-1159
▁그렇고	-1160
▁눈물이	-1161
▁설영우가	-1162
▁붙	-1163
▁언제	-1164
▁존재	-1165
▁친구	-1166
▁마무리	-1167
▁사랑해	-1168
▁저걸	-1169
▁조현우도	-1170
▁보물	-1171
▁애국	-1172
▁양팀	-1173
▁호주를	-1174
▁딱	-1175
▁맨	-1176
▁카	-1177
▁가만	-1178
▁ᄏ	-1179
였고	-1180
▁침투	-1181
▁경기가	-1182
▁보는데	-1183
▁보여서	-1184
▁짠	-1185
▁않았	-1186
▁선수분들	-1187
▁프리킥도	-1188
▁외	-1189
듯이	-1190
만에	-1191
이야	-1192
찬스	-1193
▁잡고	-1194
대표팀	-1195
▁창	-1196
줬다	-1197
▁그럼	-1198
▁한다	-1199
습니까	-1200
▁선수를	-1201
▁자랑스러	-1202
▁죽	-1203
▁슛을	-1204
▁같네요	-1205
▁댓	-1206
긴장	-1207
승규	-1208
한게	-1209
▁댓글	-1210
▁따라	-1211
▁멋졌	-1212
▁잘못	-1213
▁조커	-1214
이라고	-1215
▁김승규	-1216
▁체력적으로	-1217
▁끌	-1218
쏘니	-1219
▁믿음	-1220
▁영리	-1221
▁자꾸	-1222
▁그렇게	-1223
▁만들	-1224
▁어시	-1225
▁상대로	-1226
▁밤	-1227
타르	-1228
▁기회를	-1229
▁카타르	-1230
▁윙	-1231
▁코	-1232
할수	-1233
▁기억	-1234
▁몇개	-1235
▁슛이	-1236
▁이걸	-1237
▁이유	-1238
▁축하	-1239
들에게	-1240
▁탄	-1241
거같	-1242
여서	-1243
▁마지막까지	-1244
고문	-1245
라스	-1246
▁그자체	-1247
▁호주는	-1248
거라	-1249
준거	-1250
▁압박	-1251
▁황의	-1252
▁것을	-1253
▁볼을	-1254
▁본다	-1255
더라도	-1256
▁MVP	-1257
▁경기도	-1258
▁몇번을	-1259
연장	-1260
▁가자	-1261
▁내내	-1262
▁어찌	-1263
셨어요	-1264
▁슛팅	-1265
▁회복	-1266
▁4:5	-1267
▁경기는	-1268
▁다해주	-1269
▁아무도	-1270
▁ᅲᅲᅲᅲ	-1271
▁사우디전	-1272
▁웃	-1273
▁기다	-1274
▁돌았	-1275
▁있어	-1276
▁우승하	-1277
▁응원할	-1278
▁돌았습니까	-1279
▁돋	-1280
▁흔	-1281
▁장난	-1282
▁탈락	-1283
▁같은데	-1284
▁필드골	-1285
▁아니었으면	-1286
주길	-1287
▁끝날	-1288
▁마음이	-1289
▁점	-1290
심판	-1291
이기	-1292
▁경험	-1293
▁끝나	-1294
▁물건	-1295
▁경기력	-1296
있다	-1297
트넘	-1298
▁이길	-1299
▁올라오	-1300
▁토트넘	-1301
▁호주팀	-1302
▁월드클래스	-1303
▁환	-1304
는걸	-1305
마다	-1306
:35	-1307
:40	-1308
▁기운	-1309
▁드라마를	-1310
▁아쉽네요	-1311
▁될	-1312
▁티	-1313
▁쓰지	-1314
▁어린	-1315
▁전부	-1316
▁갑니다	-1317
▁레전드	-1318
▁선수인데	-1319
후반	-1320
▁넣어	-1321
▁가만히	-1322
▁멋있고	-1323
▁새로운	-1324
▁언급이	-1325
▁축구는	-1326
▁대한민국을	-1327
▁노력	-1328
▁없이	-1329
▁우승가	-1330
▁국가대표팀	-1331
애들	-1332
쳐서	-1333
보는데	-1334
▁안하고	-1335
▁~~~	-1336
▁보유국	-1337
▁제대로	-1338
▁~	-1339
▁졸	-1340
보는	-1341
▁"️	-1342
▁같음	-1343
▁탄탄	-1344
▁힘드	-1345
▁축구선수들	-1346
때도	-1347
물고	-1348
▁멋지다	-1349
mv	-1350
라는	-1351
말고	-1352
mvp	-1353
▁초반	-1354
강에서	-1355
▁mvp	-1356
▁모르는	-1357
▁ᆞ	-1358
▁뚫	-1359
▁먼	-1360
▁찔	-1361
드라	-1362
수를	-1363
▁ᅮᅮ	-1364
▁당신	-1365
▁말고	-1366
▁줘야	-1367
▁찔러	-1368
인가요	-1369
▁잘했음	-1370
▁하는지	-1371
▁힘들어	-1372
ᅲᅮ	-1373
▁적	-1374
▁간절	-1375
▁아니다	-1376
▁정신력	-1377
미스	-1378
▁연결	-1379
▁찬스	-1380
▁패스미스	-1381
▁금	-1382
▁극장	-1383
▁어떤	-1384
▁올려	-1385
▁2:1	-1386
▁뒤에서	-1387
▁한국팀	-1388
ᄏᄏᄏᄏᄏ	-1389
까요	-1390
보니	-1391
시킨	-1392
▁나의	-1393
▁나오고	-1394
내는	-1395
▁생각이	-1396
▁존재감	-1397
▁많은	-1398
▁좀비	-1399
▁지는	-1400
▁고마워	-1401
▁고맙고	-1402
▁얘기가	-1403
▁축구의	-1404
보이는데	-1405
🇰🇷🇰🇷	-1406
있는	-1407
▁미드	-1408
▁파이팅	-1409
▁굿	-1410
▁접	-1411
가지	-1412
▁멋짐	-1413
▁천재	-1414
겠다고	-1415
▁궤적이	-1416
▁보니까	-1417
▁시대에	-1418
▁차겠다고	-1419
▁우리나라는	-1420
빼고	-1421
▁났음	-1422
▁믿음직	-1423
▁미친듯이	-1424
▁첨	-1425
마라	-1426
인가	-1427
▁기본	-1428
▁양현준을	-1429
기만	-1430
마자	-1431
주의	-1432
▁말도	-1433
▁매너	-1434
번째골	-1435
자마자	-1436
▁기회창출	-1437
▁t	-1438
디어	-1439
이란	-1440
져서	-1441
▁알아	-1442
▁역대	-1443
▁욕먹	-1444
이라는	-1445
▁공격의	-1446
23	-1447
▁입	-1448
마크	-1449
을거	-1450
▁애들	-1451
▁결과를	-1452
▁결승전	-1453
▁뛰는거	-1454
▁없었으면	-1455
▁황희찬도	-1456
▁듯	-1457
났다	-1458
▁공만	-1459
▁하면	-1460
▁한명	-1461
김민재	-1462
려들어	-1463
▁여러분	-1464
▁생각하고	-1465
▁조현우선수	-1466
된다	-1467
프로	-1468
▁^^	-1469
▁주는	-1470
▁풀백	-1471
▁호주의	-1472
▁생각합니다	-1473
대회	-1474
상을	-1475
▁나서	-1476
▁사실	-1477
이었음	-1478
▁같아요	-1479
▁있다면	-1480
▁좋은데	-1481
▁잘하는거	-1482
▁왼쪽	-1483
▁잘함	-1484
▁지고있	-1485
▁태어나	-1486
▁전기고문	-1487
가네	-1488
▁넘치	-1489
▁중간	-1490
▁집중	-1491
▁감독이	-1492
▁분위기	-1493
▁뛰어다니	-1494
▁감동입니다	-1495
go	-1496
꿀잼	-1497
현석	-1498
▁go	-1499
▁되길	-1500
▁팬이	-1501
줬으면	-1502
▁200	-1503
▁능력은	-1504
▁하면서	-1505
▁골키퍼도	-1506
▁크로스도	-1507
▁선수들에게	-1508
▁손흥민선수가	-1509
▁황희찬선수가	-1510
▁갖	-1511
하하	-1512
!^^	-1513
▁박스	-1514
▁이러	-1515
▁자기	-1516
▁양현준선수	-1517
상황	-1518
▁긴장	-1519
▁꾸역	-1520
▁둘이	-1521
▁매우	-1522
▁지렸	-1523
▁터치	-1524
▁감동적	-1525
▁결과가	-1526
▁덕분에	-1527
▁안되는	-1528
▁했지만	-1529
▁힘들게	-1530
▁골키퍼가	-1531
▁조규성이	-1532
라리	-1533
리네	-1534
▁뒤에	-1535
▁연계	-1536
▁완전	-1537
▁표정	-1538
▁현우	-1539
하는지	-1540
▁사이드	-1541
▁쉽지않	-1542
▁드립니다	-1543
▁대한민국이	-1544
액션	-1545
했네	-1546
▁몸을	-1547
▁상당	-1548
▁몇골을	-1549
겠습니다	-1550
▁많았는데	-1551
▁이야기가	-1552
▁행복합니다	-1553
▁ᄏᄏᄏᄏᄏᄏ	-1554
▁길	-1555
▁퍼	-1556
던지	-1557
점이	-1558
캐리	-1559
팩트	-1560
▁가능	-1561
▁끌고	-1562
▁좋고	-1563
▁못하는	-1564
▁응원해	-1565
▁있기를	-1566
으셨습니다	-1567
▁뛴	-1568
▁뺀	-1569
▁탑	-1570
분을	-1571
▁맞다	-1572
▁물론	-1573
▁쫄깃	-1574
▁흥분	-1575
때문에	-1576
▁보여준	-1577
▁승패를	-1578
▁멋있어요	-1579
▁깊	-1580
감동	-1581
기도	-1582
상에	-1583
시고	-1584
한데	-1585
▁내려	-1586
▁장신	-1587
만으로	-1588
▁기회도	-1589
▁승리할	-1590
▁푹	-1591
▁골이	-1592
▁지나	-1593
았어요	-1594
▁역전골	-1595
▁이기고	-1596
▁희찬이	-1597
!!!!!	-1598
▁한국에서	-1599
▁!	-1600
▁용	-1601
없고	-1602
없는	-1603
커버	-1604
▁싸워	-1605
강까지	-1606
▁성공시킨	-1607
▁12:35	-1608
.......	-1609
▁ᅳ	-1610
넣어	-1611
돌아	-1612
휘슬	-1613
▁자세	-1614
▁패널	-1615
▁한방	-1616
이브로	-1617
▁드디어	-1618
▁라이브로	-1619
▁조규성을	-1620
▁측면에서	-1621
▁걸	-1622
▁득	-1623
같다	-1624
▁덕에	-1625
▁득점	-1626
▁윙백	-1627
선수를	-1628
▁올라가	-1629
▁좋았고	-1630
▁패스로	-1631
▁홍현석	-1632
▁다음경기	-1633
▁잘하더라	-1634
▁젊	-1635
용우	-1636
직전	-1637
:08	-1638
▁싶음	-1639
▁준희	-1640
하시고	-1641
▁ᄒᄃᄃ	-1642
▁박용우	-1643
▁상당히	-1644
▁우승컵	-1645
▁자체가	-1646
▁준희옹	-1647
▁최고다	-1648
▁클리스만	-1649
▁상대적으로	-1650
▁우리나라가	-1651
▁끊	-1652
▁복	-1653
셨고	-1654
▁넣은	-1655
▁불안	-1656
였지만	-1657
▁상황에	-1658
▁잘하네	-1659
▁상대팀이	-1660
▁s	-1661
▁든	-1662
,,,	-1663
▁되게	-1664
▁든든	-1665
는거냐	-1666
▁교체로	-1667
▁부분이	-1668
▁눈물난다	-1669
▁있는경기	-1670
▁버	-1671
▁별	-1672
▁작	-1673
른다	-1674
:55	-1675
▁남자	-1676
▁멋져	-1677
▁신들	-1678
▁옵사	-1679
▁외국	-1680
▁해외	-1681
황인범	-1682
▁개개인	-1683
▁크로스가	-1684
이었습니다	-1685
웠다	-1686
▁부족	-1687
▁비슷	-1688
▁페널	-1689
▁1:0	-1690
▁기회가	-1691
▁때문에	-1692
▁합시다	-1693
▁10:25	-1694
우리	-1695
하니	-1696
▁골기	-1697
▁대인	-1698
▁밤새	-1699
▁벌떡	-1700
▁조별	-1701
▁클럽	-1702
▁활용	-1703
▁동점골	-1704
▁공격까지	-1705
▁대인마크	-1706
▁빨려들어	-1707
▁핸	-1708
▁한수	-1709
있어서	-1710
▁추가시간에	-1711
▁ᅡ	-1712
▁똑	-1713
▁벽	-1714
▁에	-1715
부를	-1716
설의	-1717
버리네	-1718
▁아무리	-1719
경기에서	-1720
▁고생했다	-1721
▁아닌가요	-1722
▁이정도면	-1723
▁'	-1724
▁충	-1725
구요	-1726
나게	-1727
리그	-1728
아닌	-1729
트피	-1730
필더	-1731
▁다한	-1732
▁어려	-1733
▁역습	-1734
▁충분	-1735
트피스	-1736
▁세트피스	-1737
▁수비라인	-1738
▁조현우의	-1739
▁10:26	-1740
▁국민들에게	-1741
랐음	-1742
터뷰	-1743
한듯	-1744
▁잡아	-1745
▁활약	-1746
축구를	-1747
▁강심장	-1748
▁들어가	-1749
▁보다가	-1750
▁수비를	-1751
~~~~~	-1752
▁월드클라스	-1753
▁벤	-1754
아왔	-1755
앞에	-1756
었을	-1757
은게	-1758
▁또한	-1759
▁진출	-1760
안에서	-1761
▁G	-1762
들을	-1763
불가	-1764
싸움	-1765
아주	-1766
:30	-1767
▁나는	-1768
▁페널티	-1769
간다	-1770
▁!!	-1771
▁관심	-1772
▁대회	-1773
▁라인	-1774
▁아들	-1775
▁전체	-1776
▁쿠플	-1777
▁하늘	-1778
▁넘치게	-1779
▁모른다	-1780
▁보여주	-1781
▁보물이다	-1782
▁전체적으로	-1783
어내	-1784
중이	-1785
▁돌려	-1786
▁아름	-1787
▁이름	-1788
양현준	-1789
▁누워서	-1790
▁원하는	-1791
선수들이	-1792
▁늘	-1793
가막	-1794
건데	-1795
너먼	-1796
았음	-1797
▁강팀	-1798
▁레드	-1799
▁반칙	-1800
▁이미	-1801
너먼트	-1802
▁ᄃᄃᄃ	-1803
▁기가막	-1804
▁소름돋	-1805
▁일어나	-1806
▁2002	-1807
▁레드카드	-1808
▁토너먼트	-1809
인줄	-1810
일을	-1811
▁치명	-1812
▁임팩트	-1813
er	-1814
▁깡	-1815
▁던	-1816
없네	-1817
▁나이	-1818
▁여자	-1819
▁지쳐	-1820
▁창조	-1821
▁팀이	-1822
▁경기장	-1823
▁킥	-1824
▁필요	-1825
▁희생	-1826
이재성	-1827
▁것이다	-1828
▁느낌이	-1829
▁있다고	-1830
▁흔들어	-1831
▁빌	-1832
네여	-1833
수가	-1834
하자	-1835
▁가까	-1836
▁뒤로	-1837
▁인기	-1838
조현우	-1839
▁손흥민도	-1840
▁멀	-1841
▁빡	-1842
이지	-1843
▁건강	-1844
▁연습	-1845
▁이해	-1846
▁지키	-1847
하던데	-1848
▁라인업	-1849
▁살아나	-1850
▁이겨서	-1851
▁하지만	-1852
▁황희찬의	-1853
▁월드컵보다	-1854
EP	-1855
건가	-1856
느라	-1857
미어	-1858
운게	-1859
EPL	-1860
▁그림	-1861
▁살려	-1862
▁여기	-1863
▁졸라	-1864
▁EPL	-1865
▁짠하다	-1866
▁흥민이	-1867
▁손흥민을	-1868
▁있습니다	-1869
▁프리미어	-1870
??????	-1871
▁베	-1872
결승	-1873
이언	-1874
터치	-1875
▁겁나	-1876
▁골은	-1877
▁과정	-1878
▁매튜	-1879
▁빠르	-1880
▁아마	-1881
겠어요	-1882
프리킥	-1883
▁뛰는데	-1884
▁먹을때	-1885
▁우승은	-1886
▁잘한다	-1887
▁골키퍼들	-1888
▁까	-1889
▁멱	-1890
▁출	-1891
건지	-1892
야지	-1893
옆에	-1894
잘했	-1895
진섭	-1896
▁독일	-1897
▁멱살	-1898
▁인성	-1899
이더라	-1900
▁잘해줬	-1901
▁편하게	-1902
▁물건이더라	-1903
인생	-1904
▁기술	-1905
▁빼라	-1906
▁어케	-1907
▁저번	-1908
때마다	-1909
▁볼수록	-1910
▁진심이	-1911
▁황의조	-1912
▁선수들의	-1913
▁흥민이형	-1914
▁i	-1915
인이	-1916
지로	-1917
▁이악	-1918
▁중계	-1919
▁진다	-1920
▁크게	-1921
까지도	-1922
▁ᅲᅲᅲ	-1923
▁알았다	-1924
▁지린다	-1925
▁축하드	-1926
▁경기였다	-1927
▁이악물고	-1928
▁황인범이	-1929
▁축하드립니다	-1930
▁웅	-1931
▁찰	-1932
▁평	-1933
뛰고	-1934
부분	-1935
장해	-1936
트킥	-1937
▁다행	-1938
▁당연	-1939
▁침대	-1940
▁희망	-1941
리뛰고	-1942
살아왔	-1943
▁가슴이	-1944
▁웅장해	-1945
▁이겨주	-1946
▁호주도	-1947
▁쓰지마라	-1948
▁이강인도	-1949
살아왔다고	-1950
▁흐	-1951
나마	-1952
다시	-1953
버림	-1954
훈련	-1955
▁국내	-1956
▁살다	-1957
▁흐름	-1958
강부터	-1959
하면서	-1960
▁고생하	-1961
▁못하고	-1962
▁벤치에	-1963
▁생각은	-1964
▁입니다	-1965
았습니다	-1966
▁맞습니다	-1967
▁담	-1968
▁됨	-1969
일관	-1970
▁시종	-1971
▁사람들	-1972
▁풀리는	-1973
▁시종일관	-1974
▁배웠습니다	-1975
▁쭉	-1976
연속	-1977
한것	-1978
:52	-1979
▁개추	-1980
▁그게	-1981
▁기쁨	-1982
▁약간	-1983
쏘니가	-1984
하다고	-1985
▁극장골	-1986
▁나서서	-1987
▁않는다	-1988
▁인터뷰	-1989
▁있는거	-1990
▁조금만	-1991
▁했으면	-1992
▁주전으로	-1993
▁찔러주고	-1994
OM	-1995
▁Pk	-1996
▁규성	-1997
▁그리	-1998
▁키퍼	-1999
▁해서	-2000
▁힘내	-2001
긴해도	-2002
▁MOM	-2003
▁인상적	-2004
▁월드컵때	-2005
▁해주셔서	-2006
▁프리킥으로	-2007
넣고	-2008
뻔한	-2009
어로	-2010
우영	-2011
이로	-2012
줘라	-2013
▁나머	-2014
▁두번	-2015
▁결정적	-2016
▁전술이	-2017
▁정우영	-2018
▁하던데	-2019
▁만들어낸	-2020
▁꺼	-2021
되고	-2022
씨가	-2023
▁1.	-2024
▁감아	-2025
▁개지	-2026
▁메시	-2027
▁받아	-2028
▁세계	-2029
▁시켜	-2030
▁아저	-2031
▁악착	-2032
▁안씀	-2033
▁안주	-2034
▁표현	-2035
돌리고	-2036
▁아닌데	-2037
▁주심이	-2038
▁치명적	-2039
▁아저씨가	-2040
▁악착같이	-2041
▁안주려고	-2042
▁존경스럽	-2043
라니	-2044
정말	-2045
▁9.	-2046
▁많음	-2047
▁할지	-2048
리네요	-2049
▁뛰는게	-2050
▁재밌게	-2051
▁깔끔하게	-2052
▁보여주는	-2053
▁완벽하다	-2054
▁돕	-2055
감독	-2056
끄럽	-2057
럽다	-2058
▁가야	-2059
▁비교	-2060
년전에	-2061
버리니	-2062
▁멋져요	-2063
▁너무너무	-2064
▁돕는거냐	-2065
▁아니어도	-2066
▁알았는데	-2067
▁첫번째골	-2068
ᄏᄏᄏᄏᄏᄏᄏ	-2069
▁브	-2070
▁휴	-2071
이틀	-2072
줄은	-2073
하나	-2074
▁골로	-2075
▁국보	-2076
▁맞음	-2077
▁먹혔	-2078
▁미치	-2079
▁안될	-2080
▁없음	-2081
▁전진	-2082
▁치고	-2083
▁함께	-2084
▁황소	-2085
선수의	-2086
▁대단함	-2087
▁때까지	-2088
▁아쉽다	-2089
▁앞에서	-2090
▁이기는	-2091
▁조레이	-2092
으면서도	-2093
▁:	-2094
국가	-2095
도로	-2096
어어	-2097
역시	-2098
.."	-2099
▁기쁘	-2100
▁쓰면	-2101
▁유효	-2102
▁젊은	-2103
놀랐음	-2104
사람들	-2105
진하고	-2106
▁201	-2107
▁6:1	-2108
▁본사람	-2109
▁소름이	-2110
▁안되고	-2111
▁연장에	-2112
▁연장까지	-2113
▁영리하게	-2114
▁움직임이	-2115
▁잘하는데	-2116
▁12:38	-2117
▁한국축구대표팀	-2118
▁멍	-2119
남은	-2120
니깐	-2121
모두	-2122
시켜	-2123
전한	-2124
▁끝난	-2125
▁먹힐	-2126
▁아닐	-2127
▁한마	-2128
텐데도	-2129
하세요	-2130
▁그래서	-2131
▁잘해준	-2132
▁흥민아	-2133
▁개개인의	-2134
▁남은경기	-2135
,"	-2136
▁괜	-2137
같고	-2138
시원	-2139
▁괜찮	-2140
▁드는	-2141
▁맨날	-2142
▁안겨	-2143
▁잘넣	-2144
▁힘든	-2145
기직전	-2146
▁감탄함	-2147
▁본인이	-2148
▁세이브	-2149
▁이유는	-2150
▁인성도	-2151
렸을텐데	-2152
시원하게	-2153
▁좋습니다	-2154
▁지쳐보이	-2155
▁시원시원하게	-2156
▁끄	-2157
▁냉	-2158
다는	-2159
운데	-2160
잡고	-2161
▁공중	-2162
▁그대	-2163
▁나왔	-2164
▁넣음	-2165
▁단단	-2166
▁만드	-2167
▁백업	-2168
▁봤음	-2169
▁수도	-2170
▁어느	-2171
▁저거	-2172
▁캐리	-2173
▁기운이	-2174
▁명심판	-2175
▁알아서	-2176
▁우주의	-2177
▁첫출전	-2178
▁현우형	-2179
▁개잘하네	-2180
▁결정적인	-2181
▁만들어준	-2182
▁눈물나더라	-2183
▁믿음직스럽고	-2184
▁뿐	-2185
▁쳐	-2186
사가	-2187
어라	-2188
인게	-2189
인트	-2190
▁못한	-2191
▁받쳐	-2192
▁올리	-2193
▁평생	-2194
▁휘슬	-2195
세상에	-2196
이렇게	-2197
하겠다	-2198
하지만	-2199
▁몇번째	-2200
▁밤새고	-2201
▁이긴거	-2202
▁장면이	-2203
▁봐도봐도	-2204
▁우리에게	-2205
~3	-2206
▁헐	-2207
쉬고	-2208
었죠	-2209
▁날려	-2210
▁못막	-2211
▁받고	-2212
▁보셨	-2213
▁피가	-2214
▁하루	-2215
경기는	-2216
▁!!!	-2217
▁2~3	-2218
▁어렵게	-2219
▁오늘은	-2220
▁있는데	-2221
▁2023	-2222
▁움직임을	-2223
▁투지있게	-2224
▁했다라는	-2225
▁사이드에서	-2226
▁귀	-2227
▁통	-2228
명사	-2229
않는	-2230
▁골도	-2231
▁제일	-2232
▁프로	-2233
▁활동	-2234
▁느껴짐	-2235
▁대명사	-2236
▁않으면	-2237
▁4:35	-2238
▁들어가는	-2239
!!!!!!!	-2240
▁포기하지말고	-2241
▁포기하지않는	-2242
▁걷	-2243
▁땀	-2244
릴때	-2245
인전	-2246
태로	-2247
one	-2248
▁높아	-2249
▁되는	-2250
▁마술	-2251
▁배웁	-2252
▁키가	-2253
내주길	-2254
잘하네	-2255
해줘서	-2256
▁경기라	-2257
▁고생들	-2258
▁되었고	-2259
▁모습이	-2260
▁잘하길	-2261
▁좋았다	-2262
▁깔끔했음	-2263
▁배웁니다	-2264
▁고생했어요	-2265
▁봐	-2266
나리	-2267
▁가져	-2268
▁유명	-2269
▁한몫	-2270
나리오	-2271
선수도	-2272
▁나오지	-2273
▁순간이	-2274
▁애국자	-2275
▁우리는	-2276
▁차라리	-2277
▁봤습니다	-2278
▁시나리오	-2279
▁아쉽지만	-2280
▁답답했는데	-2281
▁대단하더라	-2282
▁좋겠습니다	-2283
▁많으셨습니다	-2284
▁(	-2285
▁는	-2286
수도	-2287
줬음	-2288
▁똑같	-2289
▁먹을	-2290
▁소중	-2291
▁쉬고	-2292
▁우측	-2293
▁킥이	-2294
▁희발	-2295
여부를	-2296
▁경기임	-2297
▁고생많	-2298
▁몸싸움	-2299
▁실점이	-2300
▁임하는	-2301
▁질수도	-2302
▁생각보다	-2303
▁자세보면	-2304
▁졌더라도	-2305
▁최고였음	-2306
▁하는지를	-2307
▁승패여부를	-2308
▁우리나라를	-2309
▁자랑스러워	-2310
▁호주선수들	-2311
▁있는경기였는데	-2312
▁ᅮ	-2313
▁낫	-2314
▁쪼	-2315
갈때	-2316
보였	-2317
아가	-2318
의자	-2319
적이	-2320
템포	-2321
:49	-2322
▁말아	-2323
▁실망	-2324
▁왼발	-2325
▁창출	-2326
▁풀릴	-2327
졌네요	-2328
하는게	-2329
▁거리는	-2330
▁안에서	-2331
▁줄이야	-2332
▁하나는	-2333
▁한번도	-2334
▁전기의자	-2335
나오	-2336
되면	-2337
드시	-2338
력이	-2339
만들	-2340
▁~~	-2341
▁막았	-2342
▁목숨	-2343
▁전혀	-2344
▁환상	-2345
였어요	-2346
요르단	-2347
한선수	-2348
▁나라의	-2349
▁반드시	-2350
▁아니냐	-2351
▁안들어	-2352
우리나라	-2353
▁만들어서	-2354
▁잘하네요	-2355
▁크로스를	-2356
▁패널트킥	-2357
▁환상적인	-2358
ᅡᅡ	-2359
▁데	-2360
▁짤	-2361
대표	-2362
습니	-2363
야됨	-2364
:11	-2365
▁19	-2366
▁느꼈	-2367
▁목표	-2368
▁영웅	-2369
네ᄏᄏ	-2370
수비수	-2371
하시는	-2372
했습니	-2373
▁거기에	-2374
▁얻어내	-2375
▁있어야	-2376
▁해주는	-2377
▁드라마다	-2378
▁사람인데	-2379
▁재미있게	-2380
▁진심으로	-2381
▁느꼈습니다	-2382
▁다해주세요	-2383
▁ᄏᄏᄏᄏᄏᄏᄏ	-2384
▁깨	-2385
▁쪽	-2386
감을	-2387
줄알	-2388
해라	-2389
▁자리	-2390
같아서	-2391
번선수	-2392
▁나에게	-2393
▁멋있네	-2394
▁아닐까	-2395
▁이번이	-2396
▁하는게	-2397
▁훌륭한	-2398
▁감아차기	-2399
▁김태환이	-2400
▁답답하게	-2401
▁들어오고	-2402
▁부상없이	-2403
▁영화같은	-2404
▁예술이네요	-2405
▁각	-2406
기술	-2407
람이	-2408
리거	-2409
리아	-2410
올라	-2411
했어	-2412
▁남편	-2413
▁발로	-2414
▁온몸	-2415
▁자러	-2416
강전도	-2417
조규성	-2418
▁내주고	-2419
▁심장이	-2420
▁저기서	-2421
▁보이지도	-2422
▁응원해주	-2423
▁만들어내는	-2424
▁뒷	-2425
날에	-2426
라질	-2427
리게	-2428
지에	-2429
:51	-2430
▁ᄒᄒ	-2431
▁경고	-2432
▁요즘	-2433
▁폭발	-2434
같은데	-2435
납니다	-2436
▁가운데	-2437
▁떨어질	-2438
▁미치는	-2439
만으로도	-2440
선수들은	-2441
▁기대되는	-2442
▁박스안에서	-2443
▁포기안하고	-2444
ᄒᄒᄒᄒᄒᄒᄒᄒ	-2445
▁?	-2446
▁격	-2447
▁굳	-2448
▁옐	-2449
▁을	-2450
▁찾	-2451
두고	-2452
보석	-2453
상대	-2454
예선	-2455
파민	-2456
형이	-2457
▁굳이	-2458
▁기쁩	-2459
▁레알	-2460
▁쉬게	-2461
▁옐로	-2462
▁증명	-2463
▁직접	-2464
지하는	-2465
하구나	-2466
▁나머지	-2467
▁다해준	-2468
▁도파민	-2469
▁전반전	-2470
▁좋을까	-2471
▁10:5	-2472
▁기쁩니다	-2473
▁매너게임	-2474
▁사람들이	-2475
▁안나와서	-2476
▁멋있습니다	-2477
▁패널티킥을	-2478
▁뻗	-2479
▁슬	-2480
▁쑤	-2481
과가	-2482
긴거	-2483
인듯	-2484
햇다	-2485
▁대한	-2486
▁못보	-2487
▁슈퍼	-2488
▁실제	-2489
▁쑤셔	-2490
▁첫골	-2491
셨네요	-2492
▁1:1	-2493
▁son	-2494
▁그만큼	-2495
▁모두가	-2496
▁생긴거	-2497
▁실수만	-2498
▁장난이	-2499
▁지렸다	-2500
▁오현규도	-2501
▁좋겠네요	-2502
대표선수들	-2503
..........	-2504
▁A	-2505
▁굉	-2506
▁허	-2507
싶다	-2508
에선	-2509
장히	-2510
지게	-2511
털린	-2512
▁그만	-2513
▁막는	-2514
▁막을	-2515
▁명성	-2516
▁잘라	-2517
▁지켜	-2518
▁집념	-2519
▁피파	-2520
▁해도	-2521
끝까지	-2522
▁굉장히	-2523
▁두번째	-2524
▁들었다	-2525
▁보이지	-2526
▁않았다	-2527
▁우승길	-2528
▁있어도	-2529
▁되었네요	-2530
▁플레이에	-2531
▁수고했어요	-2532
▁넌	-2533
▁네	-2534
다음	-2535
보여	-2536
없다	-2537
▁골결	-2538
▁그러	-2539
▁뛴다	-2540
▁반성	-2541
라는게	-2542
▁빠르게	-2543
▁새벽에	-2544
▁아니면	-2545
▁있다는	-2546
▁장면을	-2547
▁중간에	-2548
▁처음봄	-2549
▁한국은	-2550
더라구요	-2551
▁떨어지는	-2552
▁많았습니다	-2553
▁ᄏᄏᄏᄏᄏᄏᄏᄏᄏᄏᄏ	-2554
▁젤	-2555
구마	-2556
오르	-2557
이번	-2558
지요	-2559
형준	-2560
▁귀엽	-2561
▁먼저	-2562
▁복수	-2563
▁실패	-2564
▁않아	-2565
▁웃기	-2566
▁자다	-2567
♡♡♡	-2568
점으로	-2569
▁고구마	-2570
▁베스트	-2571
▁살리는	-2572
▁양형준	-2573
▁클래스	-2574
▁패스와	-2575
▁할때도	-2576
▁잘해주고	-2577
▁잘해주셨	-2578
▁닥	-2579
▁숙	-2580
범근	-2581
시길	-2582
않고	-2583
잘함	-2584
졌다	-2585
했을	-2586
~^^	-2587
▁80	-2588
▁바라	-2589
▁했네	-2590
이였다	-2591
▁넣었고	-2592
▁눈돌아	-2593
▁뛰어주	-2594
▁승리를	-2595
▁잘하냐	-2596
▁차범근	-2597
▁1:55	-2598
▁넣었네요	-2599
▁느껴졌다	-2600
▁멋있네요	-2601
▁경기장에서	-2602
▁골키퍼들의	-2603
▁멋졌습니다	-2604
▁S	-2605
▁낳	-2606
▁좁	-2607
▁컵	-2608
든다	-2609
따구	-2610
래핑	-2611
리다	-2612
먹을	-2613
와의	-2614
으며	-2615
정이	-2616
:17	-2617
▁50	-2618
▁나올	-2619
▁바꿔	-2620
▁받은	-2621
▁실책	-2622
▁안풀	-2623
▁위기	-2624
▁있고	-2625
▁하던	-2626
잘한다	-2627
잘해서	-2628
훈련만	-2629
▁Son	-2630
▁가까이	-2631
▁기대해	-2632
▁깡따구	-2633
▁리액션	-2634
▁브라질	-2635
▁선수임	-2636
▁소리지	-2637
▁수밖에	-2638
▁고마워요	-2639
▁골대앞에	-2640
▁미드필더	-2641
▁선수들을	-2642
▁이강인의	-2643
!!!!!!	-2644
▁체력훈련만	-2645
▁망	-2646
▁셋	-2647
▁즐	-2648
님도	-2649
도안	-2650
되서	-2651
들면	-2652
재밌	-2653
할거	-2654
▁멀리	-2655
▁승자	-2656
▁와우	-2657
▁전은	-2658
▁한편	-2659
인데도	-2660
▁감동을	-2661
▁넣을때	-2662
▁들어온	-2663
▁어어어	-2664
▁하네요	-2665
▁공격할때	-2666
▁빛현우가	-2667
▁사랑한다	-2668
▁필드에서	-2669
▁한준희해	-2670
▁로	-2671
▁앙	-2672
▁흘	-2673
내고	-2674
내줌	-2675
숨은	-2676
원님	-2677
인거	-2678
일어	-2679
주면	-2680
:47	-2681
▁때려	-2682
▁말할	-2683
▁손흥	-2684
▁아닙	-2685
▁없을	-2686
▁이때	-2687
▁증말	-2688
▁큰거	-2689
냐ᄏᄏ	-2690
는거야	-2691
었나요	-2692
으로서	-2693
▁겁니다	-2694
▁골결정	-2695
▁많았다	-2696
▁신들린	-2697
▁실력이	-2698
▁아쉬웠	-2699
▁왔으면	-2700
아아아아	-2701
▁월클이고	-2702
▁월클인거	-2703
▁페널티를	-2704
▁클린스만은	-2705
▁화이팅입니다	-2706
▁글	-2707
▁착	-2708
▁트	-2709
거리	-2710
답다	-2711
돼서	-2712
드리	-2713
만을	-2714
어낸	-2715
전술	-2716
▁몰랐	-2717
▁밀러	-2718
▁보임	-2719
▁직관	-2720
...?	-2721
▁골기퍼	-2722
▁돌파는	-2723
▁선수로	-2724
▁중거리	-2725
▁초반에	-2726
▁축구가	-2727
이강인은	-2728
▁7:40	-2729
▁들었는데	-2730
▁아름답다	-2731
▁감동이었다	-2732
▁생각안하고	-2733
▁고생하셨어요	-2734
00	-2735
at	-2736
he	-2737
▁견	-2738
▁삼	-2739
▁억	-2740
깝다	-2741
끝나	-2742
시키	-2743
십쇼	-2744
:32	-2745
▁그들	-2746
▁막겠	-2747
▁명의	-2748
▁명일	-2749
▁미첼	-2750
▁스루	-2751
▁적극	-2752
▁전략	-2753
▁지난	-2754
▁패턴	-2755
갔는데	-2756
선수는	-2757
시키고	-2758
▁the	-2759
▁가는데	-2760
▁그것도	-2761
▁멋있다	-2762
▁잘한거	-2763
▁줘야지	-2764
▁1:32	-2765
▁6:30	-2766
▁goat	-2767
▁안들어간	-2768
▁이거보고	-2769
▁비슷하네요	-2770
▁클럽에서는	-2771
골임	-2772
된거	-2773
리어	-2774
한때	-2775
▁2.	-2776
▁고문	-2777
▁달려	-2778
▁대담	-2779
▁별로	-2780
▁성장	-2781
▁운동	-2782
▁차는	-2783
▁할때	-2784
▁결국은	-2785
▁다하는	-2786
▁머리가	-2787
▁뻗어서	-2788
▁수비는	-2789
▁없는데	-2790
▁조커로	-2791
▁그럼에도	-2792
▁🥹	-2793
있고	-2794
▁나도	-2795
▁느낀	-2796
▁차고	-2797
▁휴식	-2798
▁힘을	-2799
봅시다	-2800
정하고	-2801
쪽으로	-2802
톱으로	-2803
▁박수를	-2804
▁지는줄	-2805
▁상대선수	-2806
▁앞으로도	-2807
▁올라와서	-2808
▁경기였습니다	-2809
▁ᄉ	-2810
▁걱	-2811
가고	-2812
컨볼	-2813
하여	-2814
▁걱정	-2815
▁다섯	-2816
▁맞네	-2817
하려고	-2818
▁나오면	-2819
▁선방이	-2820
▁세컨볼	-2821
▁순간에	-2822
▁경기하면	-2823
▁잘했지만	-2824
▁정신력으로	-2825
▁멘	-2826
던거	-2827
리지	-2828
지어	-2829
한수	-2830
▁개멋	-2831
▁관객	-2832
▁나가	-2833
▁나름	-2834
▁멘탈	-2835
▁소극	-2836
▁왔다	-2837
▁위주	-2838
▁저는	-2839
라지고	-2840
▁같아서	-2841
▁나네요	-2842
▁답답해	-2843
▁수준이	-2844
▁심지어	-2845
▁아무튼	-2846
▁역사에	-2847
▁우리의	-2848
▁이기네	-2849
▁충분히	-2850
졌습니다	-2851
▁개멋있다	-2852
▁김태환을	-2853
▁멋있어서	-2854
▁신의한수	-2855
▁자랑스런	-2856
▁싫	-2857
꺼라	-2858
다만	-2859
있네	-2860
한국	-2861
▁들자	-2862
▁못뚫	-2863
▁무너	-2864
▁바레	-2865
▁볼이	-2866
▁중요	-2867
▁천운	-2868
▁출근	-2869
수비가	-2870
▁골대에	-2871
▁뛰어준	-2872
▁받기를	-2873
▁잘해야	-2874
▁전설의	-2875
▁공간창출	-2876
▁필드골이	-2877
간이	-2878
감이	-2879
견이	-2880
드려	-2881
때릴	-2882
수한	-2883
저거	-2884
좋다	-2885
쳐도	-2886
:20	-2887
▁쓰는	-2888
▁여전	-2889
▁준비	-2890
▁편집	-2891
▁현재	-2892
보다는	-2893
줬다고	-2894
▁넘치고	-2895
▁몇개를	-2896
▁몸으로	-2897
▁슛때릴	-2898
▁씨찬이	-2899
▁인간이	-2900
▁잘해서	-2901
▁잡아서	-2902
▁축구에	-2903
▁투지와	-2904
▁하늘이	-2905
하이라이트	-2906
▁w	-2907
▁은	-2908
▁짱	-2909
년전	-2910
매치	-2911
신감	-2912
중계	-2913
▁is	-2914
▁그럴	-2915
▁노련	-2916
▁미스	-2917
▁한두	-2918
었다면	-2919
와중에	-2920
입니까	-2921
자신감	-2922
..."	-2923
▁막은거	-2924
▁봅니다	-2925
▁자리잡	-2926
▁잡으면	-2927
▁전까지	-2928
▁전술도	-2929
명이었다	-2930
▁나오니까	-2931
▁사랑해요	-2932
▁당신입니까	-2933
▁대한민국에	-2934
▁ᅲ	-2935
▁곧	-2936
▁놀	-2937
▁킬	-2938
겨운	-2939
라지	-2940
량한	-2941
웃기	-2942
지컬	-2943
▁가는	-2944
▁다르	-2945
▁부탁	-2946
▁분석	-2947
▁빛을	-2948
▁손강	-2949
▁울버	-2950
▁텐데	-2951
었는지	-2952
▁갈수록	-2953
▁개웃기	-2954
▁다음에	-2955
▁선량한	-2956
▁재밌음	-2957
▁피지컬	-2958
강진출를	-2959
▁국민이라	-2960
▁이때까지	-2961
▁12:39	-2962
▁ᄃᄃᄃᄃᄃ	-2963
!!!!~~~~~	-2964
or	-2965
▁찢	-2966
▁채	-2967
공격	-2968
피곤	-2969
▁22	-2970
▁마치	-2971
▁마크	-2972
▁중동	-2973
는구나	-2974
했었다	-2975
▁그나마	-2976
▁마술사	-2977
▁없어서	-2978
▁이길수	-2979
▁준결승	-2980
▁찢었다	-2981
하네ᄏᄏ	-2982
▁확실하게	-2983
▁-	-2984
▁철	-2985
려면	-2986
▁거다	-2987
▁당시	-2988
▁더블	-2989
▁서로	-2990
▁선제	-2991
▁이어	-2992
것만큼	-2993
합시다	-2994
▁나와서	-2995
▁라이언	-2996
▁무전술	-2997
▁빡쳐서	-2998
▁애들아	-2999
▁하는데	-3000
▁너무하네	-3001
▁아무것도	-3002
▁조별예선	-3003
ᄏᄏᄏᄏᄏᄏᄏᄏᄏᄏ	-3004
ᄌᄃ	-3005
▁논	-3006
많이	-3007
야함	-3008
자원	-3009
▁나쁜	-3010
▁논스	-3011
▁리그	-3012
▁창의	-3013
▁최소	-3014
▁피함	-3015
면으로	-3016
선수로	-3017
▁ᄅᄌᄃ	-3018
▁갓흥민	-3019
▁결정력	-3020
▁규성이	-3021
▁두경기	-3022
▁참잘했	-3023
들어가는	-3024
볼때마다	-3025
▁개인기가	-3026
▁잘했어요	-3027
▁참잘했네요	-3028
ᄏᄏᄏᄏᄏᄏᄏᄏᄏ	-3029
▁멤	-3030
꾹닫	-3031
력을	-3032
이스	-3033
▁"3	-3034
▁ᄉᄇ	-3035
▁관대	-3036
▁노래	-3037
▁말이	-3038
▁멤버	-3039
▁못해	-3040
▁반박	-3041
▁붙어	-3042
▁악마	-3043
▁알려	-3044
▁약팀	-3045
▁옆에	-3046
▁위치	-3047
▁좋네	-3048
는거지	-3049
만큼은	-3050
햇으면	-3051
했지만	-3052
▁걷어내	-3053
▁입꾹닫	-3054
던사람들	-3055
▁관대하고	-3056
▁꾸역꾸역	-3057
▁황인범의	-3058
▁선수였는데	-3059
▁알려주세요	-3060
▁ᄏᄏᄏᄏᄏᄏᄏᄏᄏᄏ	-3061
▁+	-3062
▁맛	-3063
▁뽑	-3064
내려	-3065
등학	-3066
었네	-3067
▁나옵	-3068
▁박아	-3069
▁시야	-3070
▁있게	-3071
커버도	-3072
한거다	-3073
4:52	-3074
▁초등학	-3075
▁나옵니다	-3076
▁대표해서	-3077
▁이정도로	-3078
▁12:37	-3079
▁남았습니다	-3080
▁프리킥골은	-3081
!!!!!!!!!	-3082
ll	-3083
로만	-3084
여야	-3085
정확	-3086
직력	-3087
▁밖에	-3088
▁보완	-3089
▁수확	-3090
▁유럽	-3091
▁자가	-3092
▁주고	-3093
▁치우	-3094
념으로	-3095
▁대부분	-3096
▁아닙니다	-3097
▁우승하면	-3098
▁잘했는데	-3099
▁토트넘에서	-3100
!"	-3101
▁봄	-3102
던걸	-3103
서야	-3104
성이	-3105
안하	-3106
율이	-3107
▁못함	-3108
▁중원	-3109
▁패배	-3110
이였음	-3111
▁갓현우	-3112
▁눈물겹	-3113
▁전후반	-3114
▁투지로	-3115
▁황의찬	-3116
▁선수에게	-3117
▁우리선수	-3118
▁이번대회	-3119
▁피하는거	-3120
▁객	-3121
▁컷	-3122
던가	-3123
때는	-3124
러지	-3125
아님	-3126
:13	-3127
▁객관	-3128
▁기어	-3129
▁눈감	-3130
▁답이	-3131
▁살면	-3132
▁써라	-3133
▁중국	-3134
▁컷백	-3135
경기로	-3136
고있다	-3137
보고있	-3138
었어서	-3139
퍼스트	-3140
▁기적은	-3141
▁끝난게	-3142
▁나라를	-3143
▁하는거	-3144
▁1:35	-3145
▁4:50	-3146
▁프리킥골	-3147
▁우승가즈아	-3148
▁적극적으로	-3149
▁호주선수가	-3150
지면	-3151
지성	-3152
▁경질	-3153
▁공신	-3154
▁불구	-3155
▁주도	-3156
던건데	-3157
▁갈린다	-3158
▁국대는	-3159
▁문제가	-3160
▁선수생	-3161
▁위주로	-3162
상황에서	-3163
▁불구하고	-3164
▁새벽까지	-3165
▁이기고있	-3166
▁풀타임으로	-3167
▁K	-3168
▁듣	-3169
▁땅	-3170
▁샤	-3171
▁속	-3172
▁쏘	-3173
머리	-3174
지션	-3175
탕이	-3176
▁간결	-3177
▁갖고	-3178
▁극찬	-3179
▁던져	-3180
▁발목	-3181
▁발효	-3182
▁보니	-3183
▁슬픔	-3184
▁우즈	-3185
▁중반	-3186
▁포백	-3187
만하다	-3188
상대로	-3189
▁슈팅을	-3190
▁전방에	-3191
▁6:07	-3192
▁조규성이는	-3193
nt	-3194
▁Z	-3195
▁ᄋ	-3196
▁번	-3197
▁왤	-3198
그냥	-3199
로도	-3200
스러	-3201
자리	-3202
하기	-3203
..?	-3204
▁발을	-3205
▁부진	-3206
▁최악	-3207
▁판단	-3208
얻어낸	-3209
▁국민의	-3210
▁뛰어난	-3211
▁심하네	-3212
▁않았음	-3213
▁여기서	-3214
▁정신을	-3215
어나가는	-3216
▁대표팀이	-3217
▁부담스러	-3218
▁중앙으로	-3219
▁‘	-3220
▁꽉	-3221
▁앉	-3222
결국	-3223
넣는	-3224
말로	-3225
모르	-3226
번도	-3227
점은	-3228
쫄깃	-3229
킴킴	-3230
:23	-3231
▁끝났	-3232
▁넣지	-3233
▁다름	-3234
▁바람	-3235
▁크다	-3236
▁한게	-3237
▁해리	-3238
한다고	-3239
▁박진섭	-3240
▁서있는	-3241
▁수고많	-3242
▁아쉬움	-3243
▁안한다	-3244
▁올라온	-3245
▁일어서	-3246
▁김태환의	-3247
▁멱살잡고	-3248
▁반칙으로	-3249
▁수비에서	-3250
▁12:23	-3251
▁대한민국축구	-3252
<<	-3253
▁낭	-3254
래도	-3255
좋은	-3256
▁ᄋᄋ	-3257
▁무서	-3258
▁변화	-3259
▁자만	-3260
▁피로	-3261
▁2:0	-3262
▁넣었다	-3263
▁두게임	-3264
▁뛰었다	-3265
▁호주애들	-3266
▁^	-3267
셨네	-3268
시면	-3269
유권	-3270
임을	-3271
한대	-3272
▁것은	-3273
▁대비	-3274
▁맞나	-3275
▁믿고	-3276
▁받을	-3277
▁보스	-3278
▁원래	-3279
▁이네	-3280
▁저건	-3281
▁조던	-3282
보고싶	-3283
사이드	-3284
아닌가	-3285
이네여	-3286
▁감독님	-3287
▁경고를	-3288
▁소유권	-3289
▁하나도	-3290
▁내려와서	-3291
▁안보고싶	-3292
▁황인범도	-3293
▁황인범은	-3294
▁형	-3295
가락	-3296
냐고	-3297
너킥	-3298
누가	-3299
린거	-3300
만한	-3301
명도	-3302
였네	-3303
져야	-3304
준비	-3305
▁막혔	-3306
▁빌런	-3307
▁안쓰	-3308
▁통해	-3309
▁파울	-3310
을만한	-3311
▁외국인	-3312
▁원터치	-3313
▁재밌다	-3314
▁코너킥	-3315
있습니다	-3316
▁2:10	-3317
▁4:54	-3318
▁헤딩밖에	-3319
▁생각했는데	-3320
)!	-3321
▁z	-3322
▁맘	-3323
▁센	-3324
▁툭	-3325
▁히	-3326
범죄	-3327
▁때가	-3328
▁맘에	-3329
▁못넣	-3330
▁바꾸	-3331
▁안때	-3332
▁없어	-3333
▁오래	-3334
▁오심	-3335
▁재능	-3336
▁증거	-3337
▁처벌	-3338
선에서	-3339
▁돌아가	-3340
▁많은거	-3341
▁실수가	-3342
▁여자의	-3343
▁위원님	-3344
▁해야지	-3345
▁6:09	-3346
▁막아야지	-3347
▁못보는게	-3348
▁여자에게	-3349
▁우승까지	-3350
▁수비라인은	-3351
-3	-3352
▁곱	-3353
▁닮	-3354
▁쫙	-3355
▁품	-3356
공신	-3357
대비	-3358
뒈슛	-3359
릴거	-3360
바리	-3361
벅지	-3362
보적	-3363
분전	-3364
사중	-3365
수의	-3366
스핀	-3367
어싸	-3368
에요	-3369
역할	-3370
유가	-3371
이건	-3372
이냐	-3373
이킹	-3374
일뻔	-3375
줄꺼	-3376
천만	-3377
할줄	-3378
함과	-3379
회로	-3380
▁걸작	-3381
▁곱상	-3382
▁그야	-3383
▁글고	-3384
▁네명	-3385
▁높은	-3386
▁달고	-3387
▁닮음	-3388
▁돋아	-3389
▁될지	-3390
▁등골	-3391
▁먹여	-3392
▁무릎	-3393
▁미침	-3394
▁번을	-3395
▁보다	-3396
▁불고	-3397
▁뺀질	-3398
▁뻔한	-3399
▁사리	-3400
▁세명	-3401
▁실축	-3402
▁와서	-3403
▁우와	-3404
▁저지	-3405
▁점점	-3406
▁줄꺼	-3407
▁중여	-3408
▁최대	-3409
▁타고	-3410
▁품격	-3411
깊었음	-3412
당할때	-3413
등공신	-3414
리스만	-3415
마지막	-3416
만들고	-3417
면서도	-3418
명한테	-3419
보려고	-3420
보자고	-3421
에게도	-3422
유도에	-3423
해버림	-3424
해줘라	-3425
했던것	-3426
ᄒᄃᄃᄃ	-3427
▁2-3	-3428
▁3:0	-3429
▁개재밌	-3430
▁거기서	-3431
▁거릴거	-3432
▁국내에	-3433
▁끝나기	-3434
▁끝나지	-3435
▁날리는	-3436
▁노련함	-3437
▁다리가	-3438
▁다시는	-3439
▁던지는	-3440
▁독기에	-3441
▁독보적	-3442
▁둘어싸	-3443
▁만들수	-3444
▁맞뒈슛	-3445
▁메이킹	-3446
▁명장면	-3447
▁붙는데	-3448
▁비유가	-3449
▁빌런은	-3450
▁소리만	-3451
▁슛으로	-3452
▁악바리	-3453
▁안주고	-3454
▁안줄꺼	-3455
▁알겠네	-3456
▁야수의	-3457
▁얘기도	-3458
▁얻어냄	-3459
▁잠들면	-3460
▁전략이	-3461
▁좋겠고	-3462
▁주전뛰	-3463
▁직전에	-3464
▁천운을	-3465
▁천재고	-3466
▁탑스핀	-3467
▁풀리고	-3468
▁허벅지	-3469
▁헤딩골	-3470
▁화나서	-3471
▁흐름을	-3472
다시봐도	-3473
마지막에	-3474
사람인생	-3475
카드역할	-3476
하는구나	-3477
하지않고	-3478
▁100%	-3479
▁5:08	-3480
▁Zone	-3481
▁ᄅᄋ이번	-3482
▁간절함과	-3483
▁거리는지	-3484
▁그야말로	-3485
▁누구보다	-3486
▁눈물나게	-3487
▁다섯명이	-3488
▁다합시다	-3489
▁돌려놓고	-3490
▁두번째는	-3491
▁들어오긴	-3492
▁등골부터	-3493
▁떨리네요	-3494
▁막아주는	-3495
▁만들려고	-3496
▁멋있더라	-3497
▁멋졌어요	-3498
▁모르는게	-3499
▁모습에도	-3500
▁바꿔주는	-3501
▁바레인전	-3502
▁보이지만	-3503
▁사람이면	-3504
▁사람인생	-3505
▁사리지도	-3506
▁생각하면	-3507
▁순간인듯	-3508
▁시간대비	-3509
▁실점일뻔	-3510
▁실축하면	-3511
▁실패하면	-3512
▁안될까요	-3513
▁않았으면	-3514
▁알면서도	-3515
▁어시부터	-3516
▁왼쪽으로	-3517
▁욕먹을거	-3518
▁유도하는	-3519
▁이겨주는	-3520
▁이겨주니	-3521
▁이어줬다	-3522
▁인생이네	-3523
▁잘해줬다	-3524
▁잘했다고	-3525
▁잘했으면	-3526
▁전반보다	-3527
▁전반부터	-3528
▁좋아하는	-3529
▁좋았지만	-3530
▁줄꺼주고	-3531
▁지고있는	-3532
▁지렸지만	-3533
▁지켜내는	-3534
▁집중하지	-3535
▁첨보는데	-3536
▁축구사중	-3537
▁타고났다	-3538
▁탈락하는	-3539
▁태어나게	-3540
▁터치라인	-3541
▁행복회로	-3542
분전까지도	-3543
▁11:49	-3544
▁감동적이다	-3545
▁강심장이다	-3546
▁공격적으로	-3547
▁대단하네요	-3548
▁대단했던것	-3549
▁대한민국임	-3550
▁독보적이고	-3551
▁동점만들고	-3552
▁드리블한게	-3553
▁뛰어다니고	-3554
▁마무리하고	-3555
▁마무리했다	-3556
▁먹혔었는데	-3557
▁살아있어서	-3558
▁수비당할때	-3559
▁스프린트랑	-3560
▁스프린트를	-3561
▁얘기가없네	-3562
▁어린선수의	-3563
▁여러명한테	-3564
▁역전해버림	-3565
▁예술이였음	-3566
▁올라오드라	-3567
▁유도하려고	-3568
▁인상깊었음	-3569
▁잡으면서도	-3570
▁존경스럽다	-3571
▁중여하다고	-3572
▁집중해줘서	-3573
▁첫번째골도	-3574
▁첫출전이라	-3575
▁축구보면서	-3576
▁축구에서도	-3577
▁칭찬해줘라	-3578
▁클린스만이	-3579
▁패널티유도	-3580
▁프리킥골도	-3581
▁한골이라도	-3582
▁황희찬ᄃᄃ	-3583
🇰🇷🇰🇷🇰🇷	-3584
▁둘어싸는데도	-3585
▁만들어보려고	-3586
▁명장면이였다	-3587
▁사랑하는구나	-3588
▁승부차기부터	-3589
▁우승가보자고	-3590
▁이번경기에도	-3591
▁저지하지않고	-3592
▁조커카드역할	-3593
▁주전뛰었으면	-3594
등공신ᄏᄏᄏᄏ	-3595
ᅲᅲᅲᅲᅲᅲᅲᅲ	-3596
▁사람인생아닌가	-3597
▁실점일뻔했어요	-3598
▁🇰🇷🇰🇷🇰🇷🇰🇷	-3599
▁인상깊었음ᄏᄏᄏᄏ	-3600
▁인생이네ᄏᄏᄏᄏᄏ	-3601
▁하이라이트다시봐도	-3602
▁씨찬이형ᄏᄏᄏᄏᄏᄏ	-3603
............	-3604
31	-3605
TV	-3606
▁쐐	-3607
▁펑	-3608
▁픽	-3609
감히	-3610
견한	-3611
기박	-3612
넘어	-3613
놈들	-3614
달까	-3615
도과	-3616
드킥	-3617
딸릴	-3618
롭네	-3619
막히	-3620
모로	-3621
버렸	-3622
벌떡	-3623
스타	-3624
양인	-3625
울던	-3626
일에	-3627
함다	-3628
ᅲᅲᅲ	-3629
ᅲ계속	-3630
▁TV	-3631
▁pl	-3632
▁각도	-3633
▁갈릴	-3634
▁공세	-3635
▁길안	-3636
▁까지	-3637
▁날카	-3638
▁넘넘	-3639
▁도는	-3640
▁막내	-3641
▁매번	-3642
▁머리	-3643
▁보배	-3644
▁빛이	-3645
▁선입	-3646
▁숙제	-3647
▁울던	-3648
▁져서	-3649
▁철벽	-3650
▁펑펑	-3651
▁풀로	-3652
▁픽픽	-3653
기박으	-3654
던놈들	-3655
들어볼	-3656
러웠다	-3657
머리가	-3658
수비라	-3659
어라고	-3660
일만에	-3661
좋겠다	-3662
주셨고	-3663
했던게	-3664
▁과정을	-3665
▁궤적의	-3666
▁꺼버렸	-3667
▁낭만을	-3668
▁동양인	-3669
▁못막게	-3670
▁받았다	-3671
▁발견한	-3672
▁보는거	-3673
▁보았다	-3674
▁보였다	-3675
▁봤으면	-3676
▁생각할	-3677
▁숨막히	-3678
▁쓰러지	-3679
▁아마도	-3680
▁안된다	-3681
▁알아도	-3682
▁어찌나	-3683
▁외국의	-3684
▁축구로	-3685
▁친구인	-3686
▁타이틀	-3687
▁탄탄한	-3688
▁편하고	-3689
▁포기를	-3690
▁풀출전	-3691
▁한마디	-3692
▁해서는	-3693
넘어가서	-3694
도과감히	-3695
이었달까	-3696
출전인데	-3697
했습니당	-3698
...31	-3699
ᅲ계속해서	-3700
▁갈릴대로	-3701
▁감사함다	-3702
▁개지리네	-3703
▁경기였음	-3704
▁경기인줄	-3705
▁경기하다	-3706
▁고맙던지	-3707
▁고생했어	-3708
▁공간이나	-3709
▁국대경기	-3710
▁국민인게	-3711
▁그와중에	-3712
▁극장골과	-3713
▁기본기가	-3714
▁긴장도안	-3715
▁김민재가	-3716
▁날카롭네	-3717
▁따라가서	-3718
▁뛰었어서	-3719
▁미치도록	-3720
▁벌떡벌떡	-3721
▁보배더라	-3722
▁선수여서	-3723
▁선입견이	-3724
▁소극적인	-3725
▁쐐기박으	-3726
▁압박까지	-3727
▁엄청하고	-3728
▁여러모로	-3729
▁예술이라	-3730
▁이리뛰고	-3731
▁자만하면	-3732
▁자주하면	-3733
▁저리뛰고	-3734
▁정도네요	-3735
▁정도라니	-3736
▁차버리니	-3737
▁체력딸릴	-3738
▁패스까지	-3739
▁펑펑울던	-3740
▁한골넣고	-3741
▁한수였다	-3742
개인적으로	-3743
던지ᅲᅲᅲ	-3744
들어볼려고	-3745
렸을텐데도	-3746
하는거같고	-3747
▁간절했던게	-3748
▁감동이었음	-3749
▁경기였어요	-3750
▁공세적으로	-3751
▁기회창출은	-3752
▁높아졌네요	-3753
▁드라마같은	-3754
▁뛰는거보고	-3755
▁뛰어줬다고	-3756
▁만들어내서	-3757
▁본사람인데	-3758
▁사우디전도	-3759
▁숨막히더라	-3760
▁싸워주셨고	-3761
▁안된다는거	-3762
▁안들어간건	-3763
▁안쓰러웠다	-3764
▁않겠습니다	-3765
▁얻어내는건	-3766
▁연장전에도	-3767
▁일어나는게	-3768
▁철벽수비라	-3769
▁축구머리가	-3770
▁풀출전해서	-3771
▁갈렸을텐데도	-3772
▁길안보이는데	-3773
▁꺼버렸습니다	-3774
▁느낌이었달까	-3775
▁돌파도과감히	-3776
▁동양인이라는	-3777
▁손흥민이라고	-3778
▁수고했습니당	-3779
▁쐐기박으려고	-3780
▁쓰러지던놈들	-3781
▁양현준이라는	-3782
▁연장넘어가서	-3783
▁인상적이었다	-3784
▁잘살아왔다고	-3785
▁처음출전인데	-3786
▁타이틀때문에	-3787
▁플레이어라고	-3788
▁공만들어볼려고	-3789
▁자주하면좋겠다	-3790
▁잘못살아왔다고	-3791
▁체력딸릴텐데도	-3792
▁힘들어보이는데	-3793
▁눈물나던지ᅲᅲᅲ	-3794
▁긴장도안하는거같고	-3795
▁연장넘어가서까지도	-3796
▁저리뛰고ᅲ계속해서	-3797
▁a	-3798
▁넓	-3799
▁빅	-3800
▁쌓	-3801
▁즁	-3802
▁호	-3803
간중	-3804
국을	-3805
깔끔	-3806
껴주	-3807
돌파	-3808
동문	-3809
란다	-3810
먼스	-3811
발점	-3812
방만	-3813
신의	-3814
심에	-3815
으시	-3816
차는	-3817
택지	-3818
환의	-3819
ᅲᅮᅲ	-3820
▁GG	-3821
▁간수	-3822
▁갖춘	-3823
▁넓은	-3824
▁덕도	-3825
▁데뷔	-3826
▁뒤흔	-3827
▁몸소	-3828
▁살고	-3829
▁신선	-3830
▁실천	-3831
▁알수	-3832
▁운빨	-3833
▁운이	-3834
▁위해	-3835
▁적은	-3836
▁졌을	-3837
▁질도	-3838
▁체격	-3839
▁크고	-3840
▁퍼포	-3841
▁폭이	-3842
간중간	-3843
껴주네	-3844
돌파도	-3845
되는데	-3846
선방만	-3847
한다는	-3848
▁"🇰🇷	-3849
▁감차는	-3850
▁개깔끔	-3851
▁경험도	-3852
▁고생이	-3853
▁나쁜데	-3854
▁납니다	-3855
▁높이는	-3856
▁누구도	-3857
▁닥치고	-3858
▁당신은	-3859
▁대단히	-3860
▁막으시	-3861
▁많았음	-3862
▁멋지고	-3863
▁몇개야	-3864
▁무지성	-3865
▁빅리거	-3866
▁뿐이고	-3867
▁샤신의	-3868
▁선택지	-3869
▁성과가	-3870
▁시대의	-3871
▁시발점	-3872
▁쌓으면	-3873
▁없다는	-3874
▁위상을	-3875
▁자동문	-3876
▁저런게	-3877
▁전환의	-3878
▁졌거나	-3879
▁조국을	-3880
▁좋았음	-3881
▁최선의	-3882
▁컵대회	-3883
▁페인트	-3884
▁힘내서	-3885
들어놓고	-3886
먼스였음	-3887
었다ᄏᄏ	-3888
하는거나	-3889
▁가야했던	-3890
▁간수하고	-3891
▁감사하고	-3892
▁개잘한다	-3893
▁경기인데	-3894
▁다한다는	-3895
▁대단해요	-3896
▁데뷔전에	-3897
▁막겠네요	-3898
▁빛현우씨	-3899
▁상대에게	-3900
▁성장할듯	-3901
▁수비수가	-3902
▁신선했다	-3903
▁실천하고	-3904
▁심판이지	-3905
▁아니었음	-3906
▁애국심에	-3907
▁애국자다	-3908
▁월클이다	-3909
▁잘해준듯	-3910
▁재껴주네	-3911
▁졌을지도	-3912
▁즁간중간	-3913
▁진정으로	-3914
▁착하더라	-3915
▁크로스나	-3916
▁하셨네요	-3917
▁하셨어요	-3918
▁개깔끔하고	-3919
▁눈물이난다	-3920
▁막으시는지	-3921
▁빅리거인지	-3922
▁오현규에게	-3923
▁이겨주다니	-3924
▁이겨주세요	-3925
▁이번경기는	-3926
▁자랑스러운	-3927
▁자신감있고	-3928
▁중앙돌파도	-3929
▁탄탄하더라	-3930
ᅲᅲᅲᅲᅲᅮᅲ	-3931
▁뒤흔들어놓고	-3932
▁들어오자마자	-3933
▁멋있었다ᄏᄏ	-3934
▁빨려들어가는	-3935
▁슈팅하는거나	-3936
▁시발점이었음	-3937
▁퍼포먼스였음	-3938
▁대단해요ᅲᅲᅲᅲ	-3939
▁몇개야ᅲᅲᅲᅲᅲᅮᅲ	-3940
.,	-3941
ᆞ그	-3942
▁급	-3943
▁꺄	-3944
▁뚜	-3945
▁뜨	-3946
▁붉	-3947
▁식	-3948
▁풍	-3949
강의	-3950
겁게	-3951
공도	-3952
관이	-3953
그랬	-3954
기게	-3955
기는	-3956
기든	-3957
껍했	-3958
나네	-3959
나올	-3960
년도	-3961
높고	-3962
늘도	-3963
도도	-3964
렷한	-3965
말은	-3966
셔써	-3967
시너	-3968
신지	-3969
안뺏	-3970
알았	-3971
에만	-3972
여워	-3973
였을	-3974
잘해	-3975
저히	-3976
정정	-3977
쾌한	-3978
ᄏᄏ할	-3979
ᆞ그땐	-3980
▁07	-3981
▁40	-3982
▁ᆞ강	-3983
▁ᆞ오	-3984
▁골넣	-3985
▁공미	-3986
▁극복	-3987
▁남을	-3988
▁놓쳤	-3989
▁느낄	-3990
▁돌입	-3991
▁무척	-3992
▁문전	-3993
▁봐서	-3994
▁붉은	-3995
▁숨이	-3996
▁신기	-3997
▁없냐	-3998
▁이틀	-3999
▁인데	-4000
▁진ᄍ	-4001
▁풍김	-4002
공도잘	-4003
기든데	-4004
나올까	-4005
듯한데	-4006
뛰드라	-4007
라스는	-4008
본인이	-4009
셔써요	-4010
심장을	-4011
얻어내	-4012
었었죠	-4013
으신지	-4014
이트윙	-4015
있다가	-4016
잡으면	-4017
지않고	-4018
▁게다가	-4019
▁결승에	-4020
▁금심장	-4021
▁끊기게	-4022
▁대놓고	-4023
▁도저히	-4024
▁되도록	-4025
▁득점에	-4026
▁뚜렷한	-4027
▁뜨겁게	-4028
▁막그랬	-4029
▁명쾌한	-4030
▁뭐라도	-4031
▁봤네요	-4032
▁시켜준	-4033
▁식껍했	-4034
▁어제는	-4035
▁열번도	-4036
▁이해가	-4037
▁있을때	-4038
▁잘해줌	-4039
▁제쳐서	-4040
▁제치는	-4041
▁주관이	-4042
▁지나가	-4043
▁지렸ᄃ	-4044
▁차는걸	-4045
▁최강의	-4046
▁추가로	-4047
▁퍼스트	-4048
▁표정만	-4049
▁품격과	-4050
▁해외파	-4051
년전에도	-4052
는거처럼	-4053
는건가요	-4054
도도높고	-4055
알았지만	-4056
으로서의	-4057
하셔써요	-4058
ᄏᄏ할말은	-4059
ᅲᅲ이렇게	-4060
▁6:08	-4061
▁ᆞ오늘도	-4062
▁극복했고	-4063
▁기적처럼	-4064
▁김태환도	-4065
▁깊었지만	-4066
▁난이강인	-4067
▁너무잘해	-4068
▁놓지않고	-4069
▁뛴다는게	-4070
▁라이트윙	-4071
▁많긴해도	-4072
▁몸싸움에	-4073
▁문제점이	-4074
▁미쳤더라	-4075
▁볼돌리고	-4076
▁빛현우의	-4077
▁빼자마자	-4078
▁쉽지않고	-4079
▁신기했음	-4080
▁안나오면	-4081
▁양현준의	-4082
▁여전했고	-4083
▁연속으로	-4084
▁욕먹을때	-4085
▁월클이라	-4086
▁이틀쉬고	-4087
▁임팩트가	-4088
▁있는데도	-4089
▁잘합니다	-4090
▁전방패스	-4091
▁체력좋은	-4092
▁축구의신	-4093
▁침투하고	-4094
▁클라스는	-4095
▁패스정확	-4096
▁할만하다	-4097
▁후반으로	-4098
공도잘안뺏	-4099
얻어내주고	-4100
정정합니다	-4101
▁ᆞ강심장을	-4102
▁걱정입니다	-4103
▁공만잡으면	-4104
▁괜찮으신지	-4105
▁눈물겹도록	-4106
▁돌입합니다	-4107
▁드라마였다	-4108
▁똑같았어요	-4109
▁막그랬어요	-4110
▁몇년전에도	-4111
▁사랑스럽고	-4112
▁심판이였다	-4113
▁언제나올까	-4114
▁연결하는지	-4115
▁올라가기도	-4116
▁응원해주고	-4117
▁이강인으로	-4118
▁잘넣었었죠	-4119
▁존경스럽고	-4120
▁출전하는게	-4121
▁프리킥까지	-4122
▁플레이까지	-4123
▁플레이들을	-4124
▁호주상대로	-4125
▁힘들듯한데	-4126
▁고생했습니다	-4127
▁국민이라는게	-4128
▁금심장이네요	-4129
▁넣었네요ᄏᄏ	-4130
▁믿음직했어요	-4131
▁보이는거처럼	-4132
▁부담스러워서	-4133
▁솔직히놀랐음	-4134
▁승부차기에서	-4135
▁식껍했었는데	-4136
▁열심히뛰드라	-4137
▁이번경기보고	-4138
▁이야기가없네	-4139
▁잘하더라ᄃᄃ	-4140
▁주심으로서의	-4141
▁지나가는데도	-4142
▁행복했습니다	-4143
▁호주애들한테	-4144
▁고생들하셔써요	-4145
▁상대팀이긴해도	-4146
공도잘안뺏기든데	-4147
~~~~~~~~~	-4148
▁똑같았어요ᆞ그땐	-4149
▁잘하는거알았지만	-4150
▁패스정확도도높고	-4151
▁경기였다ᅲᅲ이렇게	-4152
▁힘들듯한데ᄏᄏ할말은	-4153
▁호주애들한테공도잘안뺏기든데	-4154
)"	-4155
8.	-4156
▁=	-4157
▁겨	-4158
▁계	-4159
▁능	-4160
▁맥	-4161
▁뺌	-4162
▁씁	-4163
▁업	-4164
▁튼	-4165
▁홧	-4166
개지	-4167
군요	-4168
동력	-4169
리백	-4170
방전	-4171
병술	-4172
성공	-4173
승호	-4174
실적	-4175
이밍	-4176
일듯	-4177
지간	-4178
지처	-4179
짱은	-4180
찼다	-4181
통형	-4182
판정	-4183
형석	-4184
:26	-4185
▁"(	-4186
▁3.	-4187
▁4.	-4188
▁5.	-4189
▁6.	-4190
▁7.	-4191
▁가라	-4192
▁겨우	-4193
▁나더	-4194
▁넣었	-4195
▁마라	-4196
▁막바	-4197
▁맥이	-4198
▁바꿈	-4199
▁별풍	-4200
▁비현	-4201
▁시키	-4202
▁써서	-4203
▁아팠	-4204
▁악플	-4205
▁애쓴	-4206
▁업적	-4207
▁왜냐	-4208
▁인신	-4209
▁주면	-4210
▁중재	-4211
▁지장	-4212
▁차네	-4213
▁튼튼	-4214
▁하드	-4215
▁할게	-4216
▁홧팅	-4217
▁후보	-4218
경기에	-4219
는거다	-4220
동력좀	-4221
박진섭	-4222
불가능	-4223
설의원	-4224
쓰리백	-4225
아니냐	-4226
억인지	-4227
이기제	-4228
이라서	-4229
이었고	-4230
지처참	-4231
처리는	-4232
▁"8.	-4233
▁10.	-4234
▁11.	-4235
▁12.	-4236
▁강하다	-4237
▁계기가	-4238
▁공격성	-4239
▁공중볼	-4240
▁그대가	-4241
▁나면서	-4242
▁당하시	-4243
▁대성공	-4244
▁돋보였	-4245
▁마라고	-4246
▁말아먹	-4247
▁몇명이	-4248
▁배짱은	-4249
▁백승호	-4250
▁빛났다	-4251
▁소통형	-4252
▁쏘니가	-4253
▁씁시다	-4254
▁안내줌	-4255
▁앉아서	-4256
▁어지간	-4257
▁옵이라	-4258
▁용병술	-4259
▁이겨낸	-4260
▁잘찼다	-4261
▁잘해왔	-4262
▁좀비다	-4263
▁좋을거	-4264
▁주급이	-4265
▁쪼개지	-4266
▁터지다	-4267
▁팀중에	-4268
▁판정도	-4269
▁표현이	-4270
▁한두개	-4271
▁한편의	-4272
▁홍형석	-4273
방전된거	-4274
손흥민좀	-4275
실적일듯	-4276
▁1000	-4277
▁가더라도	-4278
▁같습니다	-4279
▁경기하는	-4280
▁교체되서	-4281
▁국민들은	-4282
▁기동력좀	-4283
▁끌고가는	-4284
▁나더군요	-4285
▁넣어봐라	-4286
▁노력하고	-4287
▁누가봐도	-4288
▁능지처참	-4289
▁대담하게	-4290
▁드리블도	-4291
▁들어온후	-4292
▁뛰었네요	-4293
▁막바지에	-4294
▁반성하게	-4295
▁살려봐라	-4296
▁수준에서	-4297
▁얻어내서	-4298
▁여러분이	-4299
▁연속해서	-4300
▁옐로카드	-4301
▁오심한거	-4302
▁올려봐라	-4303
▁왜냐하면	-4304
▁원하는것	-4305
▁이경기는	-4306
▁일어서서	-4307
▁잘못했네	-4308
▁장신상대	-4309
▁주심판정	-4310
▁주장인지	-4311
▁찔러준거	-4312
▁최고였다	-4313
▁폭발할거	-4314
▁표현해야	-4315
▁호주와의	-4316
▁호주전을	-4317
▁활용하면	-4318
▁흥분하지	-4319
는거아니냐	-4320
우리나라는	-4321
▁12:36	-4322
▁느낌이였고	-4323
▁되었습니다	-4324
▁사우디전과	-4325
▁수준이었고	-4326
▁시나리오도	-4327
▁아팠습니다	-4328
▁어지간하면	-4329
▁옵사처리는	-4330
▁유도하는거	-4331
▁이렇게까지	-4332
▁잘했습니다	-4333
▁중재시키고	-4334
▁출전불가능	-4335
▁캡틴입니다	-4336
▁튼튼하더라	-4337
▁홍형석이랑	-4338
▁훌륭했어요	-4339
▁돋보였습니다	-4340
▁말아먹었는지	-4341
▁모르겠습니다	-4342
▁비현실적일듯	-4343
▁짜릿했습니다	-4344
▁체력방전된거	-4345
▁치명적이라서	-4346
▁축구선수들에게	-4347
▁한준희해설의원	-4348
▁같습니다ᅲᅲᅲᅲ	-4349
▁당하시는거아니냐	-4350
▁모르겠습니다ᅲᅲᅲᅲ	-4351
10	-4352
2.	-4353
?"	-4354
▁갠	-4355
▁꾸	-4356
▁젠	-4357
▁쥐	-4358
▁퀄	-4359
▁햐	-4360
가야	-4361
결에	-4362
구성	-4363
굴돕	-4364
끌며	-4365
돌려	-4366
들게	-4367
들었	-4368
러분	-4369
려다	-4370
말자	-4371
머싯	-4372
바른	-4373
석임	-4374
순한	-4375
위에	-4376
위태	-4377
준히	-4378
진수	-4379
착만	-4380
켓을	-4381
틀한	-4382
해기	-4383
훈을	-4384
22.	-4385
▁23	-4386
▁거고	-4387
▁것이	-4388
▁공놀	-4389
▁남부	-4390
▁내용	-4391
▁누웠	-4392
▁담백	-4393
▁돌고	-4394
▁만듦	-4395
▁믿게	-4396
▁번쩍	-4397
▁성취	-4398
▁싶어	-4399
▁양쪽	-4400
▁어색	-4401
▁얼떨	-4402
▁얼릉	-4403
▁온우	-4404
▁위태	-4405
▁이리	-4406
▁이쯤	-4407
▁찾아	-4408
▁털린	-4409
▁한심	-4410
가보자	-4411
굴돕든	-4412
끄럽고	-4413
돌려보	-4414
등으로	-4415
맡느라	-4416
머싯다	-4417
붙은게	-4418
심판을	-4419
여러분	-4420
오는걸	-4421
위태한	-4422
전처럼	-4423
줄인줄	-4424
지않게	-4425
축구의	-4426
패스는	-4427
하다는	-4428
힘들었	-4429
▁가는줄	-4430
▁경기다	-4431
▁교훈을	-4432
▁궤도로	-4433
▁그저빛	-4434
▁기운과	-4435
▁꾸준히	-4436
▁넘어져	-4437
▁노력과	-4438
▁눈으로	-4439
▁능력도	-4440
▁다해야	-4441
▁단순한	-4442
▁보다도	-4443
▁보석임	-4444
▁보셨어	-4445
▁보유한	-4446
▁봤어요	-4447
▁사람의	-4448
▁선방을	-4449
▁시원함	-4450
▁심판도	-4451
▁싸워서	-4452
▁안겨다	-4453
▁안착만	-4454
▁알았던	-4455
▁없었을	-4456
▁올바른	-4457
▁완벽해	-4458
▁이러니	-4459
▁있는듯	-4460
▁정신이	-4461
▁젠틀한	-4462
▁주위에	-4463
▁주지않	-4464
▁줄거라	-4465
▁중요할	-4466
▁쥐리네	-4467
▁최선은	-4468
▁티켓을	-4469
▁한경기	-4470
▁화해기	-4471
▁힘겨운	-4472
는지ᄏᄏ	-4473
시간끌며	-4474
22.23	-4475
▁2018	-4476
▁갠적으로	-4477
▁공놀이가	-4478
▁남부끄럽	-4479
▁누굴돕든	-4480
▁누웠을때	-4481
▁느껴보고	-4482
▁담백하게	-4483
▁돌고돌아	-4484
▁돌진하고	-4485
▁막은거냐	-4486
▁모습으로	-4487
▁미쳤어요	-4488
▁번쩍들게	-4489
▁부끄럽고	-4490
▁부상으로	-4491
▁살아가야	-4492
▁성취감을	-4493
▁손흥민존	-4494
▁시켜주길	-4495
▁얼떨결에	-4496
▁온우주의	-4497
▁이쯤되면	-4498
▁잘해주네	-4499
▁잘해준거	-4500
▁하는일을	-4501
▁한몫했다	-4502
▁황소처럼	-4503
힘들었을듯	-4504
▁10:56	-4505
▁가져오는걸	-4506
▁김태환빼고	-4507
▁다음경기도	-4508
▁다해야겠다	-4509
▁대인마크를	-4510
▁독일전처럼	-4511
▁들었습니다	-4512
▁목숨줄인줄	-4513
▁선발가보자	-4514
▁선수여러분	-4515
▁어색했는데	-4516
▁위태위태한	-4517
▁인생축구의	-4518
▁주전맡느라	-4519
▁주지않았음	-4520
▁침대축구를	-4521
▁큰경기에서	-4522
▁클린스만을	-4523
▁플레이하는	-4524
▁한심하다는	-4525
???????	-4526
▁몇번을돌려보	-4527
▁싶어졌습니다	-4528
▁자신감붙은게	-4529
▁조별예선에선	-4530
▁호주팀에게도	-4531
▁화해기념으로	-4532
는지ᄏᄏ머싯다	-4533
▁9.22.23	-4534
▁경험이었습니다	-4535
▁남부끄럽지않게	-4536
▁살아가야하는지	-4537
▁막은거냐ᄏᄏᄏᄏᄏᄏ	-4538
▁몇번을돌려보는지ᄏᄏ머싯다	-4539
30	-4540
~!	-4541
▁굼	-4542
▁너	-4543
▁띄	-4544
▁뽐	-4545
끼게	-4546
나면	-4547
냈다	-4548
랭킹	-4549
로를	-4550
르투	-4551
벽한	-4552
빙이	-4553
새긴	-4554
시안	-4555
전이	-4556
커녕	-4557
하던	-4558
희와	-4559
▁같이	-4560
▁결말	-4561
▁골들	-4562
▁굼떴	-4563
▁꿀잼	-4564
▁또는	-4565
▁막상	-4566
▁박을	-4567
▁박진	-4568
▁보자	-4569
▁생긱	-4570
▁수십	-4571
▁쓰자	-4572
▁의미	-4573
▁이뤄	-4574
▁졌어	-4575
▁차기	-4576
▁편안	-4577
감동을	-4578
거같음	-4579
넣은거	-4580
라로도	-4581
봐주는	-4582
사가완	-4583
시안컵	-4584
하드라	-4585
하이팅	-4586
한거냐	-4587
▁530	-4588
▁기분을	-4589
▁기쁘네	-4590
▁기쁨과	-4591
▁날려먹	-4592
▁느끼게	-4593
▁두골을	-4594
▁마음껏	-4595
▁마음의	-4596
▁박빙이	-4597
▁버리네	-4598
▁비슷한	-4599
▁빛이다	-4600
▁살려낸	-4601
▁악물고	-4602
▁위로를	-4603
▁주어서	-4604
▁죽어라	-4605
▁천재야	-4606
▁충분한	-4607
▁클리야	-4608
▁팀이랑	-4609
▁포르투	-4610
▁하니까	-4611
▁환희와	-4612
시간만에	-4613
아시안컵	-4614
연장후반	-4615
최고최고	-4616
▁감동했다	-4617
▁것같아서	-4618
▁굼떴으면	-4619
▁꿀잼으로	-4620
▁막아냈다	-4621
▁미쳤었다	-4622
▁보는구나	-4623
▁부담없이	-4624
▁빛이라고	-4625
▁뽐내주길	-4626
▁생긱하는	-4627
▁서사가완	-4628
▁소중하게	-4629
▁안한거냐	-4630
▁연장후반	-4631
▁영웅이다	-4632
▁오른쪽에	-4633
▁이름새긴	-4634
▁잘했었음	-4635
▁전방압박	-4636
▁피파랭킹	-4637
▁행복축구	-4638
▁경기하세요	-4639
▁고마워ᅲᅲ	-4640
▁국가대표를	-4641
▁기쁘겠지만	-4642
▁다치지말고	-4643
▁뛰어다니는	-4644
▁만드냐ᄏᄏ	-4645
▁박빙이면서	-4646
▁선수하이팅	-4647
▁세이브였다	-4648
▁알아봐주는	-4649
▁조금이라도	-4650
▁조커라로도	-4651
▁서사가완벽한	-4652
▁선수들보면서	-4653
▁스프린트하고	-4654
▁지금만으로도	-4655
▁편안하네ᄏᄏ	-4656
▁환희와감동을	-4657
연장후반인데도	-4658
▁전방압박하는거	-4659
▁한국축구대표팀께	-4660
▁묵	-4661
▁캔	-4662
각을	-4663
거만	-4664
거야	-4665
겨도	-4666
군다	-4667
나도	-4668
낭절	-4669
냈고	-4670
님들	-4671
땜에	-4672
럴서	-4673
롤은	-4674
리없	-4675
리에	-4676
막판	-4677
맥에	-4678
묵히	-4679
미진	-4680
반김	-4681
밤새	-4682
번이	-4683
슛이	-4684
요ᄒ	-4685
잇다	-4686
잔아	-4687
장고	-4688
지켜	-4689
진심	-4690
컨트	-4691
큼은	-4692
회복	-4693
히는	-4694
~!!	-4695
▁끄고	-4696
▁나온	-4697
▁몇번	-4698
▁목이	-4699
▁밀집	-4700
▁백번	-4701
▁설사	-4702
▁아프	-4703
▁어디	-4704
▁에서	-4705
▁유일	-4706
▁있음	-4707
▁잘막	-4708
▁잠이	-4709
▁좁은	-4710
▁특근	-4711
▁푹쉬	-4712
▁하길	-4713
▁해내	-4714
▁했고	-4715
▁회사	-4716
것처럼	-4717
군다나	-4718
났는데	-4719
넣는거	-4720
넣어야	-4721
뻔한걸	-4722
셨네여	-4723
수비들	-4724
시는데	-4725
아주자	-4726
야겠다	-4727
이거만	-4728
일들이	-4729
크로스	-4730
패스를	-4731
하게만	-4732
해야할	-4733
▁게임을	-4734
▁국민이	-4735
▁꺼내서	-4736
▁나오네	-4737
▁냉장고	-4738
▁단단함	-4739
▁만나서	-4740
▁만큼은	-4741
▁묵묵히	-4742
▁볼컨트	-4743
▁사이로	-4744
▁생겨도	-4745
▁손강찬	-4746
▁승리로	-4747
▁안와서	-4748
▁양반김	-4749
▁어시도	-4750
▁여기는	-4751
▁자기일	-4752
▁잘려고	-4753
▁잘한것	-4754
▁저거는	-4755
▁친구가	-4756
▁캔맥에	-4757
▁패배를	-4758
▁패스도	-4759
▁평생을	-4760
▁하세요	-4761
▁흥미진	-4762
낭절도로	-4763
넣는거여	-4764
밤새도록	-4765
한듯요ᄒ	-4766
회복부터	-4767
▁2015	-4768
▁ᅮᅮᅮᅮ	-4769
▁개잘했음	-4770
▁경기막판	-4771
▁경기에선	-4772
▁그럴리없	-4773
▁대표님들	-4774
▁더군다나	-4775
▁미쳤네요	-4776
▁받쳐주는	-4777
▁보였지만	-4778
▁살다보면	-4779
▁숨은보석	-4780
▁신들렸다	-4781
▁실수하는	-4782
▁아니잔아	-4783
▁아프네요	-4784
▁우승하자	-4785
▁잘막아주	-4786
▁재밌어요	-4787
▁전반에는	-4788
▁킬패스를	-4789
▁푹쉬시고	-4790
▁할지라도	-4791
▁해내주는	-4792
▁희찬이형	-4793
감동입니다	-4794
보는것처럼	-4795
셨네여ᅲᅮ	-4796
일어났는데	-4797
지켜줬으면	-4798
▁냉장고에서	-4799
▁눈감아주자	-4800
▁먹힐뻔한걸	-4801
▁모든선수들	-4802
▁밀집수비들	-4803
▁볼컨트롤은	-4804
▁살아야겠다	-4805
▁소리지럴서	-4806
▁프리미어가	-4807
▁해준것만큼	-4808
▁행복하게만	-4809
▁호주수비가	-4810
▁힘내봅시다	-4811
▁백번한듯요ᄒ	-4812
▁생각낭절도로	-4813
▁쑤셔넣는거여	-4814
▁지쳐보이더라	-4815
▁피로회복부터	-4816
▁흥미진진하고	-4817
▁그럴리없겠지만	-4818
▁나오네ᄏᄏᄏᄏ	-4819
▁실수하는일들이	-4820
▁지쳐보이시는데	-4821
▁월드컵보는것처럼	-4822
셨네여ᅲᅮᅲᅲᅲᅲ	-4823
▁잘막아주셨네여ᅲᅮᅲᅲᅲᅲ	-4824
▁o	-4825
▁쏜	-4826
▁옜	-4827
가면	-4828
거랑	-4829
고요	-4830
되어	-4831
드볼	-4832
라카	-4833
렀네	-4834
릴수	-4835
면이	-4836
명은	-4837
번씩	-4838
봄ᄏ	-4839
비라	-4840
서져	-4841
안돼	-4842
어있	-4843
엇다	-4844
전히	-4845
차를	-4846
컴골	-4847
회나	-4848
회도	-4849
▁강한	-4850
▁같지	-4851
▁개쌉	-4852
▁끄는	-4853
▁발이	-4854
▁봐라	-4855
▁슛은	-4856
▁안전	-4857
▁안좋	-4858
▁않은	-4859
▁옜날	-4860
▁죽을	-4861
▁처럼	-4862
▁팀의	-4863
꿀잼이	-4864
리그를	-4865
리는게	-4866
만가면	-4867
분까지	-4868
분이후	-4869
서져라	-4870
앗는데	-4871
ᅮᅮᅮᅮ	-4872
▁110	-4873
▁가는게	-4874
▁같았음	-4875
▁격차를	-4876
▁고비라	-4877
▁모습에	-4878
▁배컴골	-4879
▁벌릴수	-4880
▁보는것	-4881
▁보상을	-4882
▁살렸다	-4883
▁선방도	-4884
▁안되게	-4885
▁앙현준	-4886
▁좋은듯	-4887
▁중에도	-4888
▁지는팀	-4889
▁질렀네	-4890
▁짜릿해	-4891
▁차이가	-4892
▁체력은	-4893
▁탑으로	-4894
▁하늘로	-4895
▁핸드볼	-4896
▁활동량	-4897
▁힘들고	-4898
번씩봄ᄏ	-4899
어야한다	-4900
플레이도	-4901
해야한다	-4902
해주세요	-4903
했음ᄏᄏ	-4904
호주애들	-4905
▁골기회도	-4906
▁공격수가	-4907
▁긴장해서	-4908
▁너무좋다	-4909
▁따돌리고	-4910
▁뛰는구나	-4911
▁뛰어줘서	-4912
▁말도안돼	-4913
▁부서져라	-4914
▁선수보다	-4915
▁성공하고	-4916
▁수십번을	-4917
▁엄청나게	-4918
▁요르단이	-4919
▁유도하고	-4920
▁잘하길래	-4921
▁죽을라카	-4922
▁처음보는	-4923
▁풀백에서	-4924
▁황희찬과	-4925
꿀잼이엇다	-4926
ᅲᅲᅲᅲᅲᅲ	-4927
▁고생많았다	-4928
▁설영우선수	-4929
▁싸웠습니다	-4930
▁얻어낸거랑	-4931
▁탑으로치는	-4932
▁해외파아닌	-4933
▁국내선수들은	-4934
▁기억해주세요	-4935
▁단단했음ᄏᄏ	-4936
▁선발해야한다	-4937
▁쉽지않앗는데	-4938
▁스프린트치는	-4939
▁연계플레이도	-4940
▁프리킥넣은거	-4941
▁활동량만으로	-4942
▁개쌉꿀잼이엇다	-4943
▁골대앞에만가면	-4944
▁눈물나더라고요	-4945
▁생각함ᅮᅮᅮᅮ	-4946
▁존경스럽습니다	-4947
▁죽을라카네ᄏᄏ	-4948
▁났음ᅲᅲᅲᅲᅲᅲ	-4949
▁압	-4950
▁캬	-4951
것이	-4952
그렇	-4953
낸다	-4954
됐음	-4955
번은	-4956
번호	-4957
비켜	-4958
상계	-4959
에어	-4960
영표	-4961
우고	-4962
윌란	-4963
찬걸	-4964
참사	-4965
특히	-4966
햄튼	-4967
▁간큰	-4968
▁감겨	-4969
▁개별	-4970
▁개시	-4971
▁개쩔	-4972
▁기색	-4973
▁못잊	-4974
▁무엇	-4975
▁미트	-4976
▁방법	-4977
▁살짝	-4978
▁새삼	-4979
▁생방	-4980
▁써보	-4981
▁안질	-4982
▁오버	-4983
▁인물	-4984
▁지친	-4985
▁집어	-4986
▁파생	-4987
▁파악	-4988
▁패기	-4989
▁한거	-4990
가는데	-4991
갔을때	-4992
겁니다	-4993
골정도	-4994
그렇고	-4995
리어안	-4996
비켜면	-4997
았어도	-4998
전부터	-4999
팬인데	-5000
한줄은	-5001
▁ᅮᅲᅲ	-5002
▁간절히	-5003
▁감동은	-5004
▁고마운	-5005
▁기적의	-5006
▁끝나길	-5007
▁낫다고	-5008
▁너무나	-5009
▁넣을수	-5010
▁대박임	-5011
▁대참사	-5012
▁등번호	-5013
▁뛰는지	-5014
▁뛰던거	-5015
▁막을수	-5016
▁방한때	-5017
▁변수를	-5018
▁보람이	-5019
▁새벽의	-5020
▁성공과	-5021
▁숨찬걸	-5022
▁안겨준	-5023
▁우측이	-5024
▁이영표	-5025
▁좋아야	-5026
▁즐기는	-5027
▁천상계	-5028
▁코리아	-5029
▁팬됐음	-5030
▁프로다	-5031
▁프로중	-5032
▁한번만	-5033
▁희찬은	-5034
는거보고	-5035
윌란에서	-5036
하는거야	-5037
햄튼에서	-5038
▁감겨들어	-5039
▁강인이도	-5040
▁개놀랐음	-5041
▁개쩔던데	-5042
▁기색없이	-5043
▁나오나요	-5044
▁넣으니까	-5045
▁대명사네	-5046
▁못잊겠다	-5047
▁무엇보다	-5048
▁생방으로	-5049
▁선수들은	-5050
▁선수라고	-5051
▁싶었지만	-5052
▁써보라고	-5053
▁오버래핑	-5054
▁완벽하게	-5055
▁잡아낸다	-5056
▁정면으로	-5057
▁초반부터	-5058
▁티비켜면	-5059
▁파생에서	-5060
▁파악하고	-5061
▁플레이가	-5062
강도그렇고	-5063
골정도로만	-5064
넣어버리니	-5065
에어리어안	-5066
▁김승규보다	-5067
▁대참사나서	-5068
▁방한때보고	-5069
▁생각입니다	-5070
▁안질리네요	-5071
▁영리한줄은	-5072
▁운동선수가	-5073
▁운명이었다	-5074
▁있었던거야	-5075
▁있을겁니다	-5076
▁경기였을텐데	-5077
▁미트윌란에서	-5078
▁양현준팬인데	-5079
▁울버햄튼에서	-5080
▁파이팅하시고	-5081
▁감겨들어갔을때	-5082
▁안나오는거보고	-5083
▁클린스만축구를	-5084
▁패널티에어리어안	-5085
!!!!!!!!!!!!!!!	-5086
▁꽤	-5087
▁쏟	-5088
▁찐	-5089
▁찼	-5090
가올	-5091
갈전	-5092
것은	-5093
국대	-5094
끈쥐	-5095
되니	-5096
들아	-5097
랄게	-5098
마무	-5099
만회	-5100
미쳤	-5101
반경	-5102
사상	-5103
세를	-5104
썼냐	-5105
이상	-5106
인건	-5107
티고	-5108
포기	-5109
600	-5110
:50	-5111
▁감전	-5112
▁경지	-5113
▁금세	-5114
▁날라	-5115
▁대역	-5116
▁모아	-5117
▁방송	-5118
▁수미	-5119
▁싫어	-5120
▁쏟는	-5121
▁안바	-5122
▁예전	-5123
▁왜안	-5124
▁일어	-5125
▁주먹	-5126
갈전도	-5127
국대팀	-5128
나가서	-5129
던걸로	-5130
마무시	-5131
역사상	-5132
의선수	-5133
적이게	-5134
▁3:1	-5135
▁관심을	-5136
▁기세를	-5137
▁깊었다	-5138
▁깔끔한	-5139
▁다가올	-5140
▁더이상	-5141
▁못미쳤	-5142
▁미쳤음	-5143
▁반포기	-5144
▁버티고	-5145
▁불끈쥐	-5146
▁상태로	-5147
▁수비형	-5148
▁엄청난	-5149
▁예술의	-5150
▁월클급	-5151
▁이보다	-5152
▁이제는	-5153
▁있도록	-5154
▁재능임	-5155
▁정말잘	-5156
▁중앙에	-5157
▁한명만	-5158
▁합쳐도	-5159
대표팀이	-5160
이틀만에	-5161
▁8:17	-5162
▁8:55	-5163
▁감독없이	-5164
▁개웃기넼	-5165
▁관심사가	-5166
▁냉정하고	-5167
▁대역전이	-5168
▁두번째골	-5169
▁드리블은	-5170
▁명성대로	-5171
▁봤었는데	-5172
▁싫어하는	-5173
▁안바랄게	-5174
▁어마무시	-5175
▁오고있다	-5176
▁왜안썼냐	-5177
▁일어나서	-5178
▁있어주면	-5179
▁퇴장유도	-5180
▁투혼으로	-5181
▁판단하네	-5182
▁프리킥이	-5183
▁활동반경	-5184
▁힘들어도	-5185
대한민국의	-5186
조현우선수	-5187
최고의선수	-5188
훌륭한선수	-5189
▁10:11	-5190
▁11:08	-5191
▁11:50	-5192
▁개잘하는데	-5193
▁객관적이게	-5194
▁기억하는데	-5195
▁뛰어주시고	-5196
▁불끈쥐는거	-5197
▁손흥민한테	-5198
▁연습하시는	-5199
▁최고였어요	-5200
▁축구국대팀	-5201
▁프리킥유도	-5202
▁화이팅해서	-5203
국가대표팀이	-5204
▁못미쳤던걸로	-5205
▁아시안컵인건	-5206
▁정말잘했어요	-5207
▁포르투갈전도	-5208
▁스프린트하는거	-5209
▁어마무시하구나	-5210
훌륭한선수입니다	-5211
▁대한민국축구국가대표팀이	-5212
▁개웃기넼ᄏᄏᄏᄏᄏᄏᄏᄏᄏᄏ	-5213
▁놔	-5214
▁돈	-5215
▁러	-5216
▁민	-5217
겨요	-5218
끼리	-5219
다물	-5220
더로	-5221
라서	-5222
력질	-5223
보내	-5224
뿐이	-5225
오는	-5226
용검	-5227
우터	-5228
웅정	-5229
이런	-5230
저번	-5231
줬고	-5232
지못	-5233
체됐	-5234
하심	-5235
한한	-5236
:44	-5237
~~'	-5238
▁ᄌ될	-5239
▁경합	-5240
▁깔만	-5241
▁떨렸	-5242
▁러닝	-5243
▁막음	-5244
▁맞는	-5245
▁변수	-5246
▁분이	-5247
▁스카	-5248
▁쏜이	-5249
▁안띄	-5250
▁예상	-5251
▁용어	-5252
▁이젠	-5253
▁접촉	-5254
▁조차	-5255
▁템포	-5256
▁한층	-5257
력질주	-5258
번에게	-5259
이라면	-5260
차라리	-5261
;;;;	-5262
▁갈아서	-5263
▁감사를	-5264
▁경기로	-5265
▁경이로	-5266
▁그런데	-5267
▁그런지	-5268
▁내보내	-5269
▁넣어서	-5270
▁맞겨요	-5271
▁맞네요	-5272
▁먹어서	-5273
▁무한한	-5274
▁바람에	-5275
▁보고있	-5276
▁빛밖에	-5277
▁수비진	-5278
▁신흥민	-5279
▁안보이	-5280
▁알겠다	-5281
▁알지못	-5282
▁얻어서	-5283
▁연습을	-5284
▁온전히	-5285
▁올리는	-5286
▁완벽히	-5287
▁이였고	-5288
▁입다물	-5289
▁있지만	-5290
▁잡고서	-5291
▁정용검	-5292
▁정체됐	-5293
▁지키심	-5294
▁진짜로	-5295
▁쪽에서	-5296
▁창출됨	-5297
▁창출용	-5298
▁카드로	-5299
▁템포가	-5300
▁한국의	-5301
▁해주고	-5302
▁해줬고	-5303
▁했을까	-5304
▁헤더로	-5305
버리니까	-5306
한게없고	-5307
했다는데	-5308
▁골이였다	-5309
▁기다리다	-5310
▁느껴지는	-5311
▁다행이지	-5312
▁대단하심	-5313
▁떨렸을까	-5314
▁라인업은	-5315
▁레전드다	-5316
▁막았네요	-5317
▁먹혔을듯	-5318
▁미치는줄	-5319
▁본사람은	-5320
▁빨라지고	-5321
▁스카우터	-5322
▁승리라서	-5323
▁씨찬형이	-5324
▁안되나요	-5325
▁안띄었던	-5326
▁알겠지만	-5327
▁어시스트	-5328
▁월드컵을	-5329
▁있었나요	-5330
▁전력질주	-5331
▁접으면서	-5332
▁캐리했다	-5333
▁투입돼서	-5334
▁투입하면	-5335
▁한방으로	-5336
▁ᅲᅲᅲᅲᅲ	-5337
▁경이로웠다	-5338
▁나왔다는게	-5339
▁만들어주고	-5340
▁봐도손흥민	-5341
▁스프린트가	-5342
▁안보이던데	-5343
▁알지못하는	-5344
▁압박하던데	-5345
▁연장에서도	-5346
▁월드컵때만	-5347
▁잘해준것도	-5348
▁정체됐는데	-5349
▁존경합니다	-5350
▁좋으면서도	-5351
▁탈락한다고	-5352
▁플레이어로	-5353
▁회복잘해서	-5354
▁깔만한게없고	-5355
▁올려버리니까	-5356
▁전력질주하며	-5357
▁접촉했다는데	-5358
▁풀타임보다는	-5359
▁봐도손흥민선수의	-5360
ᄁ맞	-5361
▁널	-5362
▁몆	-5363
▁뺴	-5364
▁쓸	-5365
▁잦	-5366
▁혹	-5367
게함	-5368
겨보	-5369
들링	-5370
란을	-5371
러뷰	-5372
먹혔	-5373
미친	-5374
선이	-5375
설치	-5376
았네	-5377
연습	-5378
오빠	-5379
워낸	-5380
원도	-5381
하십	-5382
ᄁ맞냐	-5383
▁ᅳᅳ	-5384
▁넣기	-5385
▁다했	-5386
▁될놈	-5387
▁리더	-5388
▁몆골	-5389
▁밤잠	-5390
▁볼만	-5391
▁부모	-5392
▁빨리	-5393
▁새볔	-5394
▁시급	-5395
▁앞에	-5396
▁오는	-5397
▁올린	-5398
▁의심	-5399
▁주지	-5400
▁질뻔	-5401
▁흔들	-5402
분들을	-5403
설치며	-5404
음으로	-5405
조레이	-5406
지네요	-5407
해주니	-5408
ᄉᄁ맞냐	-5409
▁같다는	-5410
▁개선이	-5411
▁그니깐	-5412
▁느려서	-5413
▁달리는	-5414
▁대흥민	-5415
▁더먹혔	-5416
▁들어감	-5417
▁들었고	-5418
▁뛰게함	-5419
▁뛰어서	-5420
▁막혔음	-5421
▁멋잇다	-5422
▁멋졌어	-5423
▁모르네	-5424
▁못하니	-5425
▁무서울	-5426
▁백패스	-5427
▁뺴야됨	-5428
▁수비와	-5429
▁써야됨	-5430
▁쓰거나	-5431
▁알러뷰	-5432
▁어려웠	-5433
▁에이스	-5434
▁온몸에	-5435
▁올라왔	-5436
▁이건뭐	-5437
▁있었다	-5438
▁측면서	-5439
▁친구왈	-5440
▁키워낸	-5441
▁하더니	-5442
▁할것도	-5443
▁핸들링	-5444
▁했더니	-5445
▁헐이다	-5446
▁혼란을	-5447
거같은데	-5448
김민재의	-5449
하십니다	-5450
황희찬이	-5451
▁6:15	-5452
▁게임이었	-5453
▁골대옆에	-5454
▁기가막힌	-5455
▁기대해볼	-5456
▁다했기에	-5457
▁될놈이다	-5458
▁든든하고	-5459
▁막았어야	-5460
▁보는거고	-5461
▁보셨나요	-5462
▁부모님도	-5463
▁부분들을	-5464
▁새볔에도	-5465
▁수비수는	-5466
▁시급하다	-5467
▁오는동안	-5468
▁올린적이	-5469
▁응원했고	-5470
▁이긴거라	-5471
▁이긴다는	-5472
▁이제서야	-5473
▁있으면서	-5474
▁잘해줘서	-5475
▁잘해줬고	-5476
▁재미있다	-5477
▁전진해서	-5478
▁질뻔했네	-5479
▁팬이에요	-5480
▁풀백으로	-5481
▁훌륭하게	-5482
▁흔들거나	-5483
연습했는데	-5484
자신감있게	-5485
▁감동이네요	-5486
▁감아차기는	-5487
▁교체선수로	-5488
▁국가대표지	-5489
▁그상황에서	-5490
▁더먹혔겠네	-5491
▁만들어줘서	-5492
▁멋있네ᅲᅲ	-5493
▁밤잠설치며	-5494
▁보완해주니	-5495
▁약팀이라도	-5496
▁어떻게넣어	-5497
▁한마음으로	-5498
▁황희찬에게	-5499
▁힘들텐데도	-5500
▁넣을거같은데	-5501
▁빨려들어가지	-5502
▁사람ᄉᄁ맞냐	-5503
▁씨찬이형오빠	-5504
▁어려웠을텐데	-5505
▁웅장해지네요	-5506
▁훌륭하십니다	-5507
▁얼마나연습했는데	-5508
▁처음봄ᄏᄏᄏᄏᄏᄏᄏᄏᄏ	-5509
>>	-5510
cc	-5511
ur	-5512
▁d	-5513
▁옛	-5514
▁챙	-5515
▁턴	-5516
가길	-5517
거다	-5518
눈물	-5519
리스	-5520
말을	-5521
바부	-5522
보소	-5523
불안	-5524
비해	-5525
생이	-5526
선정	-5527
수타	-5528
승할	-5529
신을	-5530
재를	-5531
전부	-5532
지믹	-5533
해다	-5534
햇음	-5535
행이	-5536
occ	-5537
▁거실	-5538
▁끌어	-5539
▁다만	-5540
▁두면	-5541
▁막지	-5542
▁못했	-5543
▁무튼	-5544
▁바부	-5545
▁박고	-5546
▁벽을	-5547
▁부른	-5548
▁스윽	-5549
▁안타	-5550
▁여보	-5551
▁지든	-5552
▁짱짱	-5553
▁찰줄	-5554
▁파포	-5555
▁폭의	-5556
▁할수	-5557
▁합류	-5558
▁햇다	-5559
가길래	-5560
갔으면	-5561
겟다만	-5562
눈물이	-5563
뛰는거	-5564
뛰어서	-5565
라고못	-5566
라이언	-5567
부분있	-5568
슛으로	-5569
승할지	-5570
었을지	-5571
이기든	-5572
일이냐	-5573
졌지만	-5574
중이죠	-5575
▁가리고	-5576
▁갓이다	-5577
▁골대로	-5578
▁남편은	-5579
▁남편이	-5580
▁대비를	-5581
▁댓글도	-5582
▁뚫려서	-5583
▁마지믹	-5584
▁모두힘	-5585
▁못했음	-5586
▁반박자	-5587
▁본경기	-5588
▁선방쇼	-5589
▁선방쑈	-5590
▁손가락	-5591
▁손해다	-5592
▁손흥인	-5593
▁쉽지가	-5594
▁않은데	-5595
▁였어요	-5596
▁옛날에	-5597
▁우수한	-5598
▁울었음	-5599
▁이때가	-5600
▁인재를	-5601
▁자러감	-5602
▁전율이	-5603
▁조직력	-5604
▁칭찬할	-5605
▁투지에	-5606
▁하네여	-5607
▁확신을	-5608
▁활용이	-5609
▁훨씬밀	-5610
▁흥행이	-5611
간다해도	-5612
것같은데	-5613
끝나갈때	-5614
너무잘함	-5615
우승할지	-5616
잘했지만	-5617
조현우도	-5618
한선수다	-5619
!!!!"	-5620
...??	-5621
occer	-5622
▁감탄햇음	-5623
▁갓흥민은	-5624
▁거기에만	-5625
▁거실에서	-5626
▁관중이죠	-5627
▁그러니까	-5628
▁그리고ᅥ	-5629
▁그림같이	-5630
▁남자인데	-5631
▁났을텐데	-5632
▁두번봐도	-5633
▁들어오니	-5634
▁뛴다는건	-5635
▁말할것도	-5636
▁못넣은게	-5637
▁못뚫거라	-5638
▁못했을듯	-5639
▁뭐라고못	-5640
▁믿고보자	-5641
▁바부바부	-5642
▁반하겠다	-5643
▁부담감이	-5644
▁부른거다	-5645
▁손흥민과	-5646
▁아쉬웠고	-5647
▁않았다고	-5648
▁연장에서	-5649
▁이긴것도	-5650
▁이런말을	-5651
▁장신이라	-5652
▁좋았는데	-5653
▁지고있고	-5654
▁최고ᅮᅮ	-5655
▁추가골을	-5656
▁태어나고	-5657
▁태어나면	-5658
▁파포스트	-5659
▁합류하지	-5660
▁해리수타	-5661
▁했습니다	-5662
눈물이난다	-5663
부분있어도	-5664
▁그자체였다	-5665
▁만들어내고	-5666
▁매튜라이언	-5667
▁모르겟다만	-5668
▁무너졌지만	-5669
▁무슨일이냐	-5670
▁빛현우까지	-5671
▁선수들모두	-5672
▁선수들전부	-5673
▁안보이는데	-5674
▁양현준같은	-5675
▁어제경기는	-5676
▁연장전까지	-5677
▁옛날에비해	-5678
▁요르단전도	-5679
▁응원했어요	-5680
▁이긴거지만	-5681
▁이번만큼은	-5682
▁자러가길래	-5683
▁지고있을때	-5684
▁지든이기든	-5685
▁투입했는데	-5686
▁한국축구가	-5687
▁했다라는것	-5688
▁황소슛으로	-5689
▁황희찬으로	-5690
▁흥행이되고	-5691
▁힘들었을지	-5692
보고있으니까	-5693
...!!!!	-5694
▁soccer	-5695
▁끝까지뛰는거	-5696
▁너무잘했지만	-5697
▁들어간다해도	-5698
▁모두힘내주길	-5699
▁수비너무잘함	-5700
▁필요한선수다	-5701
▁후반끝나갈때	-5702
▁힘들게뛰어서	-5703
▁뭐라고못하겠다	-5704
▁잘하는것같은데	-5705
▁훨씬밀렸을텐데	-5706
▁고생많으셨습니다	-5707
▁아쉬운부분있어도	-5708
▁끝까지보고있으니까	-5709
AT	-5710
▁워	-5711
강엔	-5712
겠지	-5713
나와	-5714
는분	-5715
달아	-5716
도좋	-5717
때문	-5718
렸답	-5719
부러	-5720
불허	-5721
속도	-5722
실수	-5723
일뿐	-5724
짓고	-5725
해설	-5726
힘드	-5727
OAT	-5728
▁기깔	-5729
▁나선	-5730
▁놓침	-5731
▁마찬	-5732
▁분명	-5733
▁뺀게	-5734
▁아후	-5735
▁야구	-5736
▁어라	-5737
▁워낙	-5738
▁정직	-5739
▁주네	-5740
▁활력	-5741
▁후달	-5742
▁🥹🥹	-5743
강전에	-5744
결승은	-5745
관이다	-5746
그래도	-5747
기만했	-5748
되네요	-5749
불허전	-5750
시간을	-5751
시지만	-5752
인트는	-5753
호주는	-5754
화이팅	-5755
▁가능해	-5756
▁개꿀잼	-5757
▁공간이	-5758
▁공격포	-5759
▁과정은	-5760
▁교체가	-5761
▁그날에	-5762
▁나오길	-5763
▁넣어주	-5764
▁넣었죠	-5765
▁동점이	-5766
▁뛰었고	-5767
▁몇개만	-5768
▁몰랐을	-5769
▁밀려서	-5770
▁선제골	-5771
▁슛팅이	-5772
▁싸워준	-5773
▁안타까	-5774
▁없어도	-5775
▁연달아	-5776
▁자주는	-5777
▁잘쉬고	-5778
▁잘준비	-5779
▁잘했고	-5780
▁정말로	-5781
▁좋다ᄒ	-5782
▁직접뛴	-5783
▁쫄렸답	-5784
▁큰실수	-5785
▁해보자	-5786
▁힘들까	-5787
강전에는	-5788
공격수가	-5789
나와도좋	-5790
때문인가	-5791
안햇으면	-5792
양현준은	-5793
을듯해요	-5794
준결승은	-5795
힘드네요	-5796
▁3:11	-5797
▁GOAT	-5798
▁결국에는	-5799
▁결승가고	-5800
▁고마운게	-5801
▁골넣는건	-5802
▁기깔나게	-5803
▁나오시길	-5804
▁나왔지만	-5805
▁두시간을	-5806
▁뛰었는데	-5807
▁마찬가지	-5808
▁명불허전	-5809
▁소름돋는	-5810
▁슈팅까지	-5811
▁슛팅이나	-5812
▁싶었는데	-5813
▁안때린거	-5814
▁어렵겠다	-5815
▁얻어냈고	-5816
▁연결시켜	-5817
▁연장없이	-5818
▁온몸으로	-5819
▁올라가는	-5820
▁올라오면	-5821
▁우승하길	-5822
▁이겨버림	-5823
▁이겼으면	-5824
▁정말정말	-5825
▁정직하고	-5826
▁패스준거	-5827
▁피지컬이	-5828
▁해설중계	-5829
▁행복했다	-5830
▁후달리는	-5831
기만했어도	-5832
플레이에서	-5833
하시는분이	-5834
▁경기보는데	-5835
▁골결정력이	-5836
▁내려갔는데	-5837
▁답답했어요	-5838
▁마무리짓고	-5839
▁보여준경기	-5840
▁안나오니까	-5841
▁양현준이랑	-5842
▁연장전에는	-5843
▁이겨줬으면	-5844
▁이겼을텐데	-5845
▁임팩트있는	-5846
▁잘준비해서	-5847
▁짜릿했어요	-5848
▁쫄렸답니다	-5849
▁큰실수네요	-5850
▁호주한테는	-5851
▁활력이었다	-5852
▁흔들어줬음	-5853
▁힘드시지만	-5854
화이팅입니다	-5855
▁공격포인트는	-5856
▁기억때문인가	-5857
▁대단하다는걸	-5858
▁대표팀선수들	-5859
▁사우디전처럼	-5860
▁안보고싶네요	-5861
▁양현준선수도	-5862
▁요르단전까지	-5863
▁잘한거같은데	-5864
▁호주공격수가	-5865
▁명불허전이네요	-5866
▁선발로나와도좋	-5867
▁실수만안햇으면	-5868
▁안때린거겠지만	-5869
▁안타까웠습니다	-5870
▁쿠팡플레이에서	-5871
▁넣어주기만했어도	-5872
▁해설중계하시는분이	-5873
...........	-5874
▁선발로나와도좋을듯해요	-5875
ps	-5876
ᄐᄐ	-5877
▁ᄃ	-5878
▁괴	-5879
▁섹	-5880
겼음	-5881
끌어	-5882
나는	-5883
달전	-5884
라운	-5885
러케	-5886
린데	-5887
말이	-5888
모습	-5889
못이	-5890
믿김	-5891
발의	-5892
방울	-5893
시기	-5894
아컵	-5895
어울	-5896
얼떡	-5897
우며	-5898
워도	-5899
일로	-5900
자가	-5901
장직	-5902
정신	-5903
필로	-5904
🫶🫶	-5905
▁=(	-5906
▁to	-5907
▁거기	-5908
▁것에	-5909
▁관람	-5910
▁금치	-5911
▁내기	-5912
▁넣든	-5913
▁되면	-5914
▁둘씩	-5915
▁마님	-5916
▁못잡	-5917
▁뭐냐	-5918
▁받길	-5919
▁벌써	-5920
▁보답	-5921
▁비록	-5922
▁빛났	-5923
▁섹시	-5924
▁예감	-5925
▁작품	-5926
▁잠시	-5927
▁접어	-5928
▁질이	-5929
▁쭉쭉	-5930
▁차로	-5931
▁최종	-5932
▁축알	-5933
▁하신	-5934
끌어준	-5935
방울을	-5936
보는거	-5937
상황에	-5938
장직관	-5939
저러케	-5940
했으며	-5941
▁~~"	-5942
▁간발의	-5943
▁공격형	-5944
▁남자를	-5945
▁놀라운	-5946
▁눈물은	-5947
▁도우며	-5948
▁두각을	-5949
▁따라갈	-5950
▁딱어울	-5951
▁만져야	-5952
▁멋있게	-5953
▁버얼떡	-5954
▁벌떡찬	-5955
▁빛나는	-5956
▁성범죄	-5957
▁소중한	-5958
▁슬픔의	-5959
▁실력을	-5960
▁안믿김	-5961
▁어필로	-5962
▁울나라	-5963
▁웃겼음	-5964
▁이러한	-5965
▁잘하시	-5966
▁창의성	-5967
▁첫아컵	-5968
▁파워도	-5969
▁패스랑	-5970
▁하나씩	-5971
▁한달전	-5972
▁희생의	-5973
▁희생이	-5974
수비수들	-5975
였지만ᅮ	-5976
이란말이	-5977
▁감동적인	-5978
▁관람이었	-5979
▁기가막힘	-5980
▁기점으로	-5981
▁대단했고	-5982
▁들어가도	-5983
▁땀방울을	-5984
▁말이네요	-5985
▁못잡다가	-5986
▁보물같은	-5987
▁분위기를	-5988
▁빛현우는	-5989
▁섹시한대	-5990
▁스타일로	-5991
▁실수만쫌	-5992
▁애국정신	-5993
▁올라가자	-5994
▁우승으로	-5995
▁이끌어준	-5996
▁잡으니까	-5997
▁저상황에	-5998
▁접어두고	-5999
▁정신력과	-6000
▁정신으로	-6001
▁줄였으면	-6002
▁짜릿하고	-6003
▁차버리네	-6004
▁축알못이	-6005
▁투지까지	-6006
▁팀퍼스트	-6007
▁피케이를	-6008
▁하신분들	-6009
▁현장직관	-6010
▁호주선수	-6011
▁후반인데	-6012
▁흘립니다	-6013
▁흥분되는	-6014
▁힘드네요	-6015
♡♡♡^^	-6016
긴장하시고	-6017
~~~~♡♡	-6018
▁ᄌᄂ잘한다	-6019
▁같았습니다	-6020
▁나오자마자	-6021
▁다해주시기	-6022
▁되는건가요	-6023
▁딱어울리는	-6024
▁뛰어주세요	-6025
▁만들어가는	-6026
▁만져야된다	-6027
▁보여주셔서	-6028
▁빛났습니다	-6029
▁선수라는게	-6030
▁시작했으며	-6031
▁처음보는거	-6032
▁첫아컵인게	-6033
▁첫출전인데	-6034
▁한달전이야	-6035
▁ᄒᄃᄃᄃᄃᄃ	-6036
▁게임이었네요	-6037
▁옵사였지만ᅮ	-6038
▁프리킥저러케	-6039
▁관람이었겠어요	-6040
▁보유국이란말이	-6041
▁애국정신입니다	-6042
▁잘하시더라구요	-6043
~~~~♡♡♡♡♡^^	-6044
.<	-6045
;,	-6046
~>	-6047
▁끓	-6048
▁뉴	-6049
가가	-6050
겠냐	-6051
겨지	-6052
광이	-6053
기억	-6054
닌데	-6055
다운	-6056
란점	-6057
리비	-6058
분께	-6059
사를	-6060
스템	-6061
안아	-6062
었지	-6063
적만	-6064
진스	-6065
커피	-6066
▁끓어	-6067
▁말자	-6068
▁먹는	-6069
▁솔직	-6070
▁얻은	-6071
▁울릴	-6072
▁지림	-6073
▁하랬	-6074
리비아	-6075
뿐이당	-6076
았으면	-6077
오르네	-6078
오르는	-6079
졌겠네	-6080
준건지	-6081
해주신	-6082
~>.<	-6083
▁god	-6084
▁감사의	-6085
▁뉴진스	-6086
▁다안아	-6087
▁미스가	-6088
▁믿겨지	-6089
▁배우고	-6090
▁보다니	-6091
▁부럽다	-6092
▁사력을	-6093
▁신이다	-6094
▁싶네요	-6095
▁쓰겠냐	-6096
▁우리나	-6097
▁인사를	-6098
▁작가가	-6099
▁잘햇다	-6100
▁좋아요	-6101
▁직관한	-6102
▁하닌데	-6103
▁현우는	-6104
▁호주랑	-6105
▁휘슬이	-6106
▁힘드셨	-6107
기억하자	-6108
선수들중	-6109
아리비아	-6110
▁개잘했다	-6111
▁결승까지	-6112
▁관객이다	-6113
▁느껴져서	-6114
▁대단하네	-6115
▁미치광이	-6116
▁바로앞에	-6117
▁받아먹을	-6118
▁솔직하게	-6119
▁쓰네ᄏᄏ	-6120
▁아니란점	-6121
▁아름다운	-6122
▁응원했다	-6123
▁지금까지	-6124
▁짠하드라	-6125
▁하랬더니	-6126
▁한국팀은	-6127
번선수분께	-6128
ᄏᄏᄏᄏᄏ걍	-6129
▁12:13	-6130
▁감탄뿐이당	-6131
▁건강하세요	-6132
▁끓어오르네	-6133
▁다안아주고	-6134
▁뛰었다는게	-6135
▁막아준건지	-6136
▁못막았으면	-6137
▁믿겨지지가	-6138
▁바로졌겠네	-6139
▁시나리오를	-6140
▁연장경기로	-6141
▁울릴때까지	-6142
▁진짜라는게	-6143
▁창조해주신	-6144
▁하셨습니다	-6145
▁해야하는데	-6146
▁역대선수들중	-6147
▁자랑스러워요	-6148
▁잘해주셨으면	-6149
▁힘드셨을텐데	-6150
▁사우디아리비아	-6151
▁잘해주셨더라구요	-6152
▁쓰겠냐ᄏᄏᄏᄏᄏ걍	-6153
89	-6154
AX	-6155
▁됐	-6156
▁핵	-6157
▁혈	-6158
거에	-6159
결과	-6160
기간	-6161
나봐	-6162
년생	-6163
러워	-6164
센트	-6165
시요	-6166
시지	-6167
심임	-6168
얗게	-6169
요ᆞ	-6170
이러	-6171
인에	-6172
일때	-6173
일전	-6174
태운	-6175
투에	-6176
한명	-6177
활잘	-6178
휘자	-6179
휘함	-6180
▁13	-6181
▁간에	-6182
▁갈리	-6183
▁건데	-6184
▁골막	-6185
▁그랬	-6186
▁끊임	-6187
▁됐든	-6188
▁몸이	-6189
▁민재	-6190
▁변칙	-6191
▁삼촌	-6192
▁안준	-6193
▁어쩜	-6194
▁운도	-6195
▁작용	-6196
▁지면	-6197
▁치루	-6198
▁퀄이	-6199
▁필립	-6200
▁황상	-6201
▁후회	-6202
갑시다	-6203
내려오	-6204
는데는	-6205
단으로	-6206
돜ᄏᄏ	-6207
민재는	-6208
봤으면	-6209
십시요	-6210
에서나	-6211
주니까	-6212
▁MAX	-6213
▁건가요	-6214
▁견인에	-6215
▁과거에	-6216
▁기여워	-6217
▁넣는게	-6218
▁넣는듯	-6219
▁도전한	-6220
▁떨리게	-6221
▁멋지게	-6222
▁모습은	-6223
▁받은거	-6224
▁발휘함	-6225
▁부러워	-6226
▁불태운	-6227
▁사랑살	-6228
▁시작함	-6229
▁아깝다	-6230
▁안풀릴	-6231
▁어렵고	-6232
▁없는게	-6233
▁예전에	-6234
▁완벽함	-6235
▁이번엔	-6236
▁있구요	-6237
▁졸여서	-6238
▁좋아서	-6239
▁죽어나	-6240
▁지휘자	-6241
▁카드는	-6242
▁쿠팡은	-6243
▁하얗게	-6244
▁하이팅	-6245
▁한건가	-6246
▁한다고	-6247
▁한일전	-6248
▁핵심임	-6249
▁혈투에	-6250
▁호주골	-6251
으셨어요	-6252
응원하고	-6253
지하는건	-6254
플레이가	-6255
▁갈리도록	-6256
▁감탄밖에	-6257
▁강하지만	-6258
▁골막는거	-6259
▁그랬는데	-6260
▁그림인가	-6261
▁끊임없이	-6262
▁대박이다	-6263
▁대회기간	-6264
▁뒷커버도	-6265
▁막아줬음	-6266
▁문제라고	-6267
▁미쳤나봐	-6268
▁민재형이	-6269
▁벽민재는	-6270
▁보겠어요	-6271
▁손흥민씨	-6272
▁아니지만	-6273
▁안되는데	-6274
▁안풀릴때	-6275
▁올라오고	-6276
▁이번에는	-6277
▁인생같은	-6278
▁입다물듯	-6279
▁작용할수	-6280
▁잘넣었다	-6281
▁잘하는지	-6282
▁장점으로	-6283
▁전반전에	-6284
▁정신력도	-6285
▁지금처럼	-6286
▁최고최고	-6287
▁필립람이	-6288
내려오십쇼	-6289
하시고요ᆞ	-6290
!!!♡♡♡	-6291
▁04:52	-6292
▁11:51	-6293
▁12:47	-6294
▁강팀에서나	-6295
▁결정적일때	-6296
▁경기였네요	-6297
▁기여워ᅲᅲ	-6298
▁김민재라고	-6299
▁도전한결과	-6300
▁받쳐주니까	-6301
▁변칙적으로	-6302
▁선수단으로	-6303
▁선수생활잘	-6304
▁선수인가요	-6305
▁안나오더라	-6306
▁우승갑시다	-6307
▁이강인보고	-6308
▁잘해주셨고	-6309
▁잘해주어서	-6310
▁좋아하는거	-6311
▁죽어나갈때	-6312
▁지지하는건	-6313
▁치루는데는	-6314
▁토너먼트의	-6315
▁팀플레이가	-6316
▁패스로부터	-6317
▁황상응원하고	-6318
▁그냥내려오십쇼	-6319
▁수고많으셨어요	-6320
▁작용할수돜ᄏᄏ	-6321
▁축구대표선수들	-6322
▁선수생활잘하시고요ᆞ	-6323
▁황상응원하고있습니다	-6324
▁궁	-6325
▁꼴	-6326
▁꿀	-6327
▁뻔	-6328
▁으	-6329
▁케	-6330
감아	-6331
걸고	-6332
구장	-6333
나구	-6334
들도	-6335
로피	-6336
수준	-6337
순데	-6338
어하	-6339
의원	-6340
이후	-6341
저절	-6342
정을	-6343
진행	-6344
탑인	-6345
:39	-6346
▁70	-6347
▁감격	-6348
▁국회	-6349
▁궁금	-6350
▁그는	-6351
▁날까	-6352
▁단어	-6353
▁말씀	-6354
▁몸과	-6355
▁버텨	-6356
▁쏘니	-6357
▁왜캐	-6358
▁으싸	-6359
▁잡채	-6360
▁팀은	-6361
▁헤어	-6362
구장창	-6363
국가의	-6364
깝지만	-6365
끈기를	-6366
능력은	-6367
드리면	-6368
면에서	-6369
보이는	-6370
수준이	-6371
어하넹	-6372
을거임	-6373
저절로	-6374
처럼만	-6375
하니까	-6376
▁각도는	-6377
▁그들은	-6378
▁다르다	-6379
▁다하여	-6380
▁마음을	-6381
▁막히는	-6382
▁매경기	-6383
▁목표인	-6384
▁바라고	-6385
▁박수가	-6386
▁보고만	-6387
▁선순데	-6388
▁쏘니와	-6389
▁아니고	-6390
▁역전이	-6391
▁열정이	-6392
▁예술적	-6393
▁왔으니	-6394
▁우승이	-6395
▁월클을	-6396
▁자세를	-6397
▁정도의	-6398
▁진짜다	-6399
▁쪼리게	-6400
▁창조적	-6401
▁트로피	-6402
▁해주면	-6403
▁회복이	-6404
▁후보였	-6405
▁히어로	-6406
강진출을	-6407
경기진행	-6408
의원들도	-6409
▁3:39	-6410
▁같았어요	-6411
▁경기라고	-6412
▁국대축구	-6413
▁궁금한게	-6414
▁나라일을	-6415
▁나오기만	-6416
▁높아지고	-6417
▁대단한것	-6418
▁대박이네	-6419
▁돋보이는	-6420
▁떨어질줄	-6421
▁목숨걸고	-6422
▁몸싸움도	-6423
▁무조건임	-6424
▁보유국은	-6425
▁선수들과	-6426
▁소름돋을	-6427
▁아니구나	-6428
▁언제라도	-6429
▁여기까지	-6430
▁예전보다	-6431
▁으싸해서	-6432
▁이렇게나	-6433
▁좋을까요	-6434
▁주구장창	-6435
▁케어하넹	-6436
▁하드캐리	-6437
▁가능하구나	-6438
▁기회창출이	-6439
▁끝날때까지	-6440
▁다해주시고	-6441
▁레전드였다	-6442
▁말씀드리면	-6443
▁말아주세요	-6444
▁모든면에서	-6445
▁선방능력은	-6446
▁선수들끼리	-6447
▁손흥민했네	-6448
▁수비수들은	-6449
▁알았습니다	-6450
▁월드컵이후	-6451
▁중동국가의	-6452
▁축구수준이	-6453
▁후반처럼만	-6454
▁후보였나구	-6455
감아들어가는	-6456
▁국가대표팀을	-6457
▁국회의원들도	-6458
▁애국자입니다	-6459
▁월드클래스가	-6460
▁장신수비수들	-6461
▁주심경기진행	-6462
▁국대축구보면서	-6463
▁쪼리게하는거야	-6464
▁장신수비수들때문에	-6465
ay	-6466
be	-6467
ld	-6468
ly	-6469
ny	-6470
re	-6471
st	-6472
▁)	-6473
▁c	-6474
▁눕	-6475
게요	-6476
교때	-6477
대한	-6478
렴풋	-6479
명씩	-6480
명의	-6481
방안	-6482
소리	-6483
스펙	-6484
아붙	-6485
안타	-6486
연에	-6487
연한	-6488
월드	-6489
이탈	-6490
자고	-6491
작에	-6492
줌의	-6493
쯤에	-6494
차전	-6495
초전	-6496
해준	-6497
:24	-6498
ers	-6499
▁30	-6500
▁be	-6501
▁in	-6502
▁of	-6503
▁간지	-6504
▁공에	-6505
▁그전	-6506
▁리드	-6507
▁마취	-6508
▁마킹	-6509
▁만해	-6510
▁선물	-6511
▁소화	-6512
▁스페	-6513
▁에고	-6514
▁연기	-6515
▁오랫	-6516
▁은근	-6517
▁이은	-6518
▁일품	-6519
▁있네	-6520
▁집착	-6521
▁천금	-6522
▁필사	-6523
겠다는	-6524
그나마	-6525
는거봐	-6526
드려요	-6527
드리드	-6528
렴풋이	-6529
방안찍	-6530
빼고도	-6531
어있던	-6532
억명의	-6533
열심히	-6534
였다구	-6535
워보이	-6536
웠어요	-6537
으로써	-6538
장면의	-6539
진에서	-6540
ntly	-6541
orld	-6542
urre	-6543
▁one	-6544
▁골까지	-6545
▁골이랑	-6546
▁기대가	-6547
▁기억이	-6548
▁논스톱	-6549
▁동점에	-6550
▁되네요	-6551
▁때쯤에	-6552
▁레알마	-6553
▁리스펙	-6554
▁모으며	-6555
▁몰리지	-6556
▁몰아붙	-6557
▁미첼이	-6558
▁상대가	-6559
▁세상에	-6560
▁쏘네요	-6561
▁안자고	-6562
▁않아서	-6563
▁유명한	-6564
▁잘줬다	-6565
▁저때는	-6566
▁조연에	-6567
▁진작에	-6568
▁찬스로	-6569
▁출연한	-6570
▁키퍼도	-6571
▁패기와	-6572
▁패스를	-6573
▁한줌의	-6574
▁희망이	-6575
강부터는	-6576
경기보다	-6577
아니아니	-6578
이탈리아	-6579
인전에서	-6580
해야되는	-6581
해주시길	-6582
ayers	-6583
▁9:47	-6584
▁best	-6585
▁ᄌ잘한다	-6586
▁가관이다	-6587
▁간지나네	-6588
▁건강하게	-6589
▁공에대한	-6590
▁그전까지	-6591
▁기회보다	-6592
▁깨어있던	-6593
▁눕방안찍	-6594
▁당연하다	-6595
▁대표팀은	-6596
▁마취중이	-6597
▁막으니까	-6598
▁많은거고	-6599
▁맘에든다	-6600
▁보고싶다	-6601
▁보여주네	-6602
▁선방한듯	-6603
▁소화해준	-6604
▁손빼고도	-6605
▁시작해서	-6606
▁실제처럼	-6607
▁어렴풋이	-6608
▁없는거고	-6609
▁영화감독	-6610
▁영화보다	-6611
▁오랫동안	-6612
▁우리한테	-6613
▁월클인지	-6614
▁이러는거	-6615
▁잘하니까	-6616
▁주는거고	-6617
▁찬스까지	-6618
▁찾아보니	-6619
▁처음으로	-6620
▁천금같은	-6621
▁한장면의	-6622
대표팀에게	-6623
드리드에서	-6624
안타깝지만	-6625
▁11:40	-6626
▁Sonny	-6627
▁curre	-6628
▁world	-6629
▁경기열심히	-6630
▁고생했다ᅮ	-6631
▁공격진에서	-6632
▁국민으로써	-6633
▁리스펙이다	-6634
▁만드는거고	-6635
▁몰아붙여서	-6636
▁미첼이라는	-6637
▁보유국이라	-6638
▁부탁드려요	-6639
▁불안하던데	-6640
▁선물해줘서	-6641
▁수비수들이	-6642
▁스타플레이	-6643
▁아쉬워보이	-6644
▁안나오는게	-6645
▁응원할게요	-6646
▁이강인이랑	-6647
▁이기겠다는	-6648
▁일품이네요	-6649
▁초등학교때	-6650
▁필사적으로	-6651
였다구하네요	-6652
▁국대경기에서	-6653
▁눕방안찍는거	-6654
▁대단했습니다	-6655
▁마킹해야되는	-6656
▁스페인전에서	-6657
▁이기고있는데	-6658
▁클럽경기보다	-6659
▁패널티킥부터	-6660
▁함께해주시길	-6661
▁players	-6662
▁감동이었습니다	-6663
▁게임이었습니다	-6664
▁공간창출하는게	-6665
▁국대경기에서는	-6666
▁마취중이었는데	-6667
▁상대팀이였지만	-6668
▁이러는거같아서	-6669
▁자랑스러웠어요	-6670
▁호주대표팀에게	-6671
우리나라선수들은	-6672
▁레알마드리드에서	-6673
▁아쉬워보이는거지	-6674
▁currently	-6675
▁스타플레이였다구하네요	-6676
▁랑	-6677
간은	-6678
갈된	-6679
강은	-6680
능민	-6681
래쓰	-6682
리면	-6683
머쥔	-6684
비로	-6685
상향	-6686
싶단	-6687
월과	-6688
인다	-6689
재정	-6690
크아	-6691
해고	-6692
ᅮᅮᅮ	-6693
▁공감	-6694
▁나간	-6695
▁돌기	-6696
▁뛰시	-6697
▁많다	-6698
▁몰갰	-6699
▁미래	-6700
▁미흡	-6701
▁상태	-6702
▁안정	-6703
▁이는	-6704
▁졌음	-6705
▁티가	-6706
나네요	-6707
능민이	-6708
래쓰의	-6709
을꺼라	-6710
재정비	-6711
클래스	-6712
▁같지만	-6713
▁거머쥔	-6714
▁격하게	-6715
▁경기전	-6716
▁고갈된	-6717
▁공신임	-6718
▁그대로	-6719
▁기간은	-6720
▁넘잘함	-6721
▁답답한	-6722
▁댓글이	-6723
▁멀리서	-6724
▁명성을	-6725
▁발전한	-6726
▁보는줄	-6727
▁보인다	-6728
▁부족한	-6729
▁뺀것은	-6730
▁세월과	-6731
▁시원한	-6732
▁쓰네요	-6733
▁아직은	-6734
▁없네요	-6735
▁연계가	-6736
▁연골을	-6737
▁영감을	-6738
▁올리자	-6739
▁우상향	-6740
▁이겼네	-6741
▁이긴게	-6742
▁이대로	-6743
▁자체네	-6744
▁주었다	-6745
▁중원에	-6746
▁투혼의	-6747
▁홍선수	-6748
▁확실이	-6749
년전이랑	-6750
쏘능민이	-6751
이었는데	-6752
▁골대에서	-6753
▁공감하고	-6754
▁국대에서	-6755
▁대단해고	-6756
▁뛰시느라	-6757
▁띄었지만	-6758
▁몰갰지만	-6759
▁미흡한것	-6760
▁비교했을	-6761
▁시간에도	-6762
▁시작했던	-6763
▁어린친구	-6764
▁장합니다	-6765
▁주고싶단	-6766
▁최고라고	-6767
▁한명한명	-6768
▁10:27	-6769
▁상태에서도	-6770
▁생각나네요	-6771
▁예상했는데	-6772
▁우리나라도	-6773
▁우상향이네	-6774
▁한국선수들	-6775
▁휴식재정비	-6776
▁쉽지않을꺼라	-6777
▁우리나라에는	-6778
▁월드클래쓰의	-6779
▁이기네ᅮᅮᅮ	-6780
▁토너먼트에서	-6781
▁어린친구들에게	-6782
▁빈	-6783
▁쉰	-6784
▁슴	-6785
▁킹	-6786
따이	-6787
러져	-6788
막힐	-6789
미쳣	-6790
보기	-6791
서용	-6792
셍ᆢ	-6793
어느	-6794
음이	-6795
자님	-6796
전방	-6797
판왕	-6798
확한	-6799
흘려	-6800
▁견고	-6801
▁끊어	-6802
▁낳은	-6803
▁널브	-6804
▁맨뒤	-6805
▁멍때	-6806
▁바램	-6807
▁삼을	-6808
▁싶은	-6809
▁오후	-6810
▁주무	-6811
▁흘러	-6812
능력의	-6813
보다니	-6814
시켜주	-6815
▁괜찮은	-6816
▁기회로	-6817
▁끝판왕	-6818
▁눈물날	-6819
▁돌파를	-6820
▁든든한	-6821
▁바라며	-6822
▁빠지는	-6823
▁선발을	-6824
▁슴막힐	-6825
▁역습도	-6826
▁왔서용	-6827
▁울음이	-6828
▁일까요	-6829
▁정확한	-6830
▁줄여야	-6831
▁폼미쳣	-6832
▁회복의	-6833
김민재는	-6834
나오기만	-6835
숨은보석	-6836
어느나라	-6837
장면에서	-6838
해줬으면	-6839
▁견고해서	-6840
▁골기퍼도	-6841
▁기다리는	-6842
▁기쁨보다	-6843
▁널브러져	-6844
▁눈물흘려	-6845
▁대단했다	-6846
▁들어가고	-6847
▁맨뒤에서	-6848
▁멍때리고	-6849
▁무능력의	-6850
▁수비커버	-6851
▁아들이라	-6852
▁언제봐도	-6853
▁오후까지	-6854
▁올라가도	-6855
▁요르단때	-6856
▁응원하며	-6857
▁인정할수	-6858
▁일본보고	-6859
▁정도였고	-6860
▁주무십쇼	-6861
▁직관하네	-6862
▁터졌네요	-6863
▁편집자님	-6864
▁한마디로	-6865
▁호주보다	-6866
시켜주셍ᆢ	-6867
▁가져가는데	-6868
▁마지막에도	-6869
▁바램입니다	-6870
▁보고있는데	-6871
▁쫄깃하지만	-6872
▁폼미쳣따이	-6873
▁개인적으로는	-6874
▁뛰어다니더라	-6875
▁실점장면에서	-6876
▁움직임이라도	-6877
▁조규성선수는	-6878
▁존재만으로도	-6879
▁흘러나오기만	-6880
어느나라인가요	-6881
▁눈물흘려보다니	-6882
▁마무리해줬으면	-6883
▁잘해주셨습니다	-6884
▁직관하네ᄏᄏᄏ	-6885
▁출전시켜주셍ᆢ	-6886
▁호주는어느나라인가요	-6887
▁ᆢ	-6888
▁긴	-6889
▁잔	-6890
고드	-6891
굴의	-6892
기라	-6893
기지	-6894
네햇	-6895
다행	-6896
단해	-6897
답게	-6898
따라	-6899
림을	-6900
릿속	-6901
명한	-6902
박감	-6903
본다	-6904
붙을	-6905
빠르	-6906
쁠때	-6907
사벽	-6908
세할	-6909
제도	-6910
질도	-6911
치도	-6912
판단	-6913
히게	-6914
▁과감	-6915
▁깊은	-6916
▁넣치	-6917
▁놓지	-6918
▁불기	-6919
▁빠진	-6920
▁안막	-6921
▁열거	-6922
▁유를	-6923
▁잔뜩	-6924
▁진리	-6925
▁처절	-6926
▁하냐	-6927
▁하프	-6928
강전때	-6929
고드는	-6930
넘는거	-6931
다보니	-6932
대단해	-6933
릿속에	-6934
보여줌	-6935
울었다	-6936
이장면	-6937
▁ᆢ감동	-6938
▁감동과	-6939
▁경제도	-6940
▁기어이	-6941
▁긴박감	-6942
▁긴장을	-6943
▁까는게	-6944
▁나쁠때	-6945
▁넘사벽	-6946
▁누구랑	-6947
▁대회다	-6948
▁맞붙을	-6949
▁못했다	-6950
▁무에서	-6951
▁믿기지	-6952
▁불굴의	-6953
▁빛흥민	-6954
▁상황도	-6955
▁스타는	-6956
▁싸워야	-6957
▁억지로	-6958
▁열세할	-6959
▁왼쪽은	-6960
▁용기를	-6961
▁울림을	-6962
▁위기에	-6963
▁윙백이	-6964
▁의지로	-6965
▁이겼다	-6966
▁이기지	-6967
▁이름을	-6968
▁이후에	-6969
▁일본전	-6970
▁자명한	-6971
▁재밌을	-6972
▁정치도	-6973
▁최고우	-6974
▁투지의	-6975
▁하나요	-6976
▁한국을	-6977
▁한템포	-6978
▁희망과	-6979
네햇다가	-6980
엄청빠르	-6981
이장면때	-6982
잘하네ᅮ	-6983
▁8:40	-6984
▁8:49	-6985
▁간결하고	-6986
▁감독이면	-6987
▁개지렸다	-6988
▁골결정력	-6989
▁과감하다	-6990
▁기적이다	-6991
▁내는구나	-6992
▁뛰어주는	-6993
▁머릿속에	-6994
▁상대들은	-6995
▁상대로는	-6996
▁생각들이	-6997
▁소름돋음	-6998
▁아니라는	-6999
▁열거하지	-7000
▁윙백답게	-7001
▁자기들이	-7002
▁전까지는	-7003
▁종료휘슬	-7004
▁주는구나	-7005
▁주도하며	-7006
▁쫄깃쫄깃	-7007
▁창조하는	-7008
▁처음본다	-7009
▁처절하게	-7010
▁파고드는	-7011
▁하프라인	-7012
▁해외에서	-7013
▁활약하는	-7014
다시보는데	-7015
다행이네여	-7016
크로스질도	-7017
▁넘사벽으로	-7018
▁드리블이고	-7019
▁상황에서도	-7020
▁실망스럽고	-7021
▁아시안컵이	-7022
▁이겼다는게	-7023
▁자리잡히게	-7024
▁최고입니다	-7025
▁ᆢ감동이었음	-7026
▁기대해봅니다	-7027
▁양현준있어서	-7028
▁이란엄청빠르	-7029
▁제대로보여줌	-7030
다행이네여ᅮᅮ	-7031
하이라이트보고	-7032
▁우리하이라이트	-7033
▁이거보고울었다	-7034
▁하프라인넘는거	-7035
▁넘사벽으로잘하네ᅮ	-7036
▁이란엄청빠르네햇다가	-7037
▁일본전하이라이트보고	-7038
▁우리하이라이트다시보는데	-7039
▁양현준있어서다행이네여ᅮᅮ	-7040
in	-7041
oo	-7042
ᄋᄐ	-7043
▁검	-7044
▁꺾	-7045
▁듀	-7046
▁딀	-7047
▁벗	-7048
개먹	-7049
과전	-7050
관리	-7051
굘사	-7052
기전	-7053
깨서	-7054
내내	-7055
등등	-7056
례온	-7057
리의	-7058
벌이	-7059
벽과	-7060
뻘근	-7061
상이	-7062
세입	-7063
소름	-7064
소와	-7065
않음	-7066
연히	-7067
영상	-7068
율로	-7069
을복	-7070
이며	-7071
인걸	-7072
작정	-7073
짜포	-7074
차이	-7075
출의	-7076
톱이	-7077
풀이	-7078
▁89	-7079
▁검나	-7080
▁결코	-7081
▁꺾고	-7082
▁다짐	-7083
▁더욱	-7084
▁더잘	-7085
▁덕분	-7086
▁되네	-7087
▁듀크	-7088
▁딀거	-7089
▁따로	-7090
▁맞추	-7091
▁명예	-7092
▁목터	-7093
▁발전	-7094
▁벗겨	-7095
▁비김	-7096
▁비롯	-7097
▁세상	-7098
▁소개	-7099
▁아낌	-7100
▁아는	-7101
▁안됌	-7102
▁여왕	-7103
▁잘통	-7104
▁정답	-7105
▁채력	-7106
▁하니	-7107
▁현준	-7108
감차기	-7109
개먹은	-7110
경기다	-7111
굘사황	-7112
돋았다	-7113
때되면	-7114
례온거	-7115
모르는	-7116
밖없다	-7117
보기엔	-7118
었던건	-7119
움직임	-7120
으하하	-7121
이지만	-7122
장벽과	-7123
정을짓	-7124
졸이며	-7125
중에서	-7126
지렸다	-7127
피곤함	-7128
하셨고	-7129
하하하	-7130
▁ᄒᄋᄐ	-7131
▁갈꺼라	-7132
▁갑시다	-7133
▁거리가	-7134
▁거리의	-7135
▁경기중	-7136
▁공짜포	-7137
▁국민들	-7138
▁기용해	-7139
▁꿀벌이	-7140
▁나가기	-7141
▁나가네	-7142
▁나오는	-7143
▁내가본	-7144
▁당연히	-7145
▁당하는	-7146
▁되풀이	-7147
▁들어난	-7148
▁많았고	-7149
▁멍하니	-7150
▁모두들	-7151
▁몰랐다	-7152
▁무작정	-7153
▁보면알	-7154
▁상대는	-7155
▁쉬운게	-7156
▁악마들	-7157
▁없다고	-7158
▁연결이	-7159
▁오기전	-7160
▁원톱이	-7161
▁응원한	-7162
▁이거에	-7163
▁있는지	-7164
▁잘한듯	-7165
▁잘할줄	-7166
▁잠이다	-7167
▁재미있	-7168
▁저선수	-7169
▁정상이	-7170
▁차넣는	-7171
▁차뻘근	-7172
▁차출의	-7173
▁찾아가	-7174
▁축구잘	-7175
▁한국인	-7176
▁할수있	-7177
▁현준이	-7178
▁현지에	-7179
▁확연히	-7180
▁힘을써	-7181
감독님도	-7182
결국에는	-7183
과전율로	-7184
던경기다	-7185
소와쏘니	-7186
움직임이	-7187
을복수를	-7188
줄알았네	-7189
지가않음	-7190
지션으로	-7191
해굘사황	-7192
했습니디	-7193
확정을짓	-7194
▁0:24	-7195
▁가운데에	-7196
▁감탄ᄒᄒ	-7197
▁궤적으로	-7198
▁깔끔했고	-7199
▁넣었다고	-7200
▁넣은것도	-7201
▁다짐하며	-7202
▁답답하다	-7203
▁데례온거	-7204
▁딀거라고	-7205
▁뛰는데도	-7206
▁뛰어주신	-7207
▁마무리가	-7208
▁목터지게	-7209
▁믿습니다	-7210
▁믿을만한	-7211
▁발전하고	-7212
▁벗겨내고	-7213
▁보여주고	-7214
▁보여줬다	-7215
▁부담되고	-7216
▁불안하지	-7217
▁비롯하여	-7218
▁선방까지	-7219
▁선수인걸	-7220
▁소개할때	-7221
▁슈퍼세입	-7222
▁슛이구나	-7223
▁심판중에	-7224
▁아는사람	-7225
▁안되거나	-7226
▁어려운게	-7227
▁연속경기	-7228
▁움직임만	-7229
▁이길거라	-7230
▁잘통했다	-7231
▁전술하고	-7232
▁전술해서	-7233
▁조규성의	-7234
▁준결승에	-7235
▁줘야된다	-7236
▁지키듯이	-7237
▁짤리는게	-7238
▁채력관리	-7239
▁패스등등	-7240
▁편집속도	-7241
▁황의조는	-7242
▁힘들었고	-7243
넣어야하는	-7244
대한민국을	-7245
돋았다ᅲᅲ	-7246
상황에서도	-7247
선수밖없다	-7248
▁10:53	-7249
▁가슴졸이며	-7250
▁경기하다가	-7251
▁끝날때되면	-7252
▁끝났던건데	-7253
▁내가보기엔	-7254
▁덕분입니다	-7255
▁들어갔으면	-7256
▁분석잘해서	-7257
▁수고하셨고	-7258
▁수비장벽과	-7259
▁움직임으로	-7260
▁응원해주신	-7261
▁자리잡는데	-7262
▁잠이다깨서	-7263
▁정상이어서	-7264
▁차뻘근이가	-7265
▁축하합니다	-7266
▁풀타임인데	-7267
감차기지렸다	-7268
으하하하하하	-7269
피곤함ᄏᄏᄏ	-7270
▁갈꺼라봅니다	-7271
▁경기장안에서	-7272
▁그런움직임이	-7273
▁기용해봤으면	-7274
▁보면알겠지만	-7275
▁보이지가않음	-7276
▁소름과전율로	-7277
▁얻어내는거고	-7278
▁움직임이없고	-7279
▁응원해주시면	-7280
▁축구잘모르는	-7281
▁할수있었던건	-7282
을복수를하면서	-7283
▁골을넣어야하는	-7284
▁공짜포지션으로	-7285
▁답답한경기에서	-7286
▁슛이구나하면서	-7287
▁아쉬웠던경기다	-7288
▁아시안컵중에서	-7289
▁우리대표선수들	-7290
▁재미있었습니다	-7291
강진출를했습니디	-7292
강진출를확정을짓	-7293
해굘사황소와쏘니	-7294
▁크로스상황에서도	-7295
▁클리스만감독님도	-7296
▁아직도피곤함ᄏᄏᄏ	-7297
▁프리킥감차기지렸다	-7298
▁호주팀을복수를하면서	-7299
▁답답한경기에서결국에는	-7300
강진출를확정을짓었습니다	-7301
해굘사황소와쏘니선수밖없다	-7302
으하하하하하ᄏᄏᄏᄏᄏᄏᄏᄏ	-7303
AR	-7304
~^	-7305
▁V	-7306
▁둬	-7307
▁잤	-7308
간옷	-7309
걸린	-7310
골기	-7311
나이	-7312
능에	-7313
들에	-7314
뚱멀	-7315
려나	-7316
리플	-7317
만든	-7318
보단	-7319
봤다	-7320
살한	-7321
신체	-7322
역대	-7323
요일	-7324
장이	-7325
조심	-7326
출근	-7327
탑이	-7328
퍼가	-7329
하러	-7330
"""	-7331
:43	-7332
ero	-7333
▁->	-7334
▁같네	-7335
▁남아	-7336
▁당하	-7337
▁대신	-7338
▁둬도	-7339
▁땅볼	-7340
▁뚫고	-7341
▁뚫어	-7342
▁수월	-7343
▁아끼	-7344
▁약체	-7345
▁어림	-7346
▁오프	-7347
▁왔을	-7348
▁의한	-7349
▁이끈	-7350
▁입장	-7351
▁졌다	-7352
▁키핑	-7353
간옷이	-7354
강상대	-7355
강으로	-7356
개피곤	-7357
그자리	-7358
기술은	-7359
나오고	-7360
능력이	-7361
뚱멀뚱	-7362
리거들	-7363
미들에	-7364
부러움	-7365
살먹을	-7366
습럽다	-7367
시겠다	-7368
시라고	-7369
없으니	-7370
와역대	-7371
장면도	-7372
재능에	-7373
하도록	-7374
?"""	-7375
▁VAR	-7376
▁가까운	-7377
▁가면서	-7378
▁감독은	-7379
▁감독의	-7380
▁갔는데	-7381
▁덕분이	-7382
▁몸조심	-7383
▁발했다	-7384
▁보이네	-7385
▁보이는	-7386
▁수요일	-7387
▁쉬는거	-7388
▁신장이	-7389
▁안하는	-7390
▁어릴때	-7391
▁옐로우	-7392
▁있을까	-7393
▁자신이	-7394
▁잘만든	-7395
▁주전과	-7396
▁중계는	-7397
▁진출은	-7398
▁트리플	-7399
▁피파울	-7400
▁한살한	-7401
▁후반전	-7402
▁희망함	-7403
강상대는	-7404
경기연속	-7405
골기퍼가	-7406
부터탑이	-7407
신체적인	-7408
올라가네	-7409
▁0:17	-7410
▁0:43	-7411
▁1:12	-7412
▁1:52	-7413
▁2:04	-7414
▁zero	-7415
▁ᄏᄏ진짜	-7416
▁가는데는	-7417
▁감동적임	-7418
▁개부러움	-7419
▁개재밌고	-7420
▁골장면도	-7421
▁공격수로	-7422
▁노력까지	-7423
▁능력치에	-7424
▁다시봤다	-7425
▁멀뚱멀뚱	-7426
▁물건이다	-7427
▁백업보단	-7428
▁빨간옷이	-7429
▁새벽축구	-7430
▁수월하게	-7431
▁싶었네요	-7432
▁아끼면서	-7433
▁약체라고	-7434
▁어림없는	-7435
▁없어서는	-7436
▁옵사걸린	-7437
▁이겼는데	-7438
▁이끈경기	-7439
▁있을려나	-7440
▁증명하다	-7441
▁찼다는게	-7442
▁최종수비	-7443
▁팀적으로	-7444
살먹을수록	-7445
어나가는듯	-7446
와역대최고	-7447
▁ᄏᄏᄏ나이	-7448
▁ᄏᄏ기술은	-7449
▁건강하도록	-7450
▁능력있어서	-7451
▁두게임연속	-7452
▁멋있었지만	-7453
▁몸조심해요	-7454
▁미친재능에	-7455
▁보는거같다	-7456
▁빛현우임을	-7457
▁상대팀보다	-7458
▁시작하면서	-7459
▁아니었다면	-7460
▁오프사이드	-7461
▁요르단인데	-7462
▁자랑습럽다	-7463
▁잘한거같다	-7464
▁잘해줬네요	-7465
▁전술적으로	-7466
▁클린스만만	-7467
▁프리킥이다	-7468
▁필드골에서	-7469
▁ᄏᄏ신체적인	-7470
▁계속올라가네	-7471
▁돌아가시겠다	-7472
▁미드필더자원	-7473
▁승부차기까지	-7474
▁전술이없으니	-7475
▁풀어나가는듯	-7476
부터탑이였는데	-7477
▁ᄏᄏ와역대최고	-7478
▁조현우골기퍼가	-7479
▁프리미어리거들	-7480
▁한살한살먹을수록	-7481
▁ᄏᄏ신체적인능력이	-7482
▁어릴때부터탑이였는데	-7483
ᄏᄏᄏᄏᄏᄏᄏᄏᄏᄏᄏᄏ	-7484
pk	-7485
▁갚	-7486
▁멕	-7487
▁밟	-7488
▁십	-7489
▁음	-7490
▁잉	-7491
▁틀	-7492
강되	-7493
강딱	-7494
광하	-7495
글랜	-7496
꺾마	-7497
려진	-7498
를찼	-7499
막고	-7500
바페	-7501
발린	-7502
사발	-7503
시코	-7504
으론	-7505
이좀	-7506
인대	-7507
정에	-7508
진다	-7509
치미	-7510
코트	-7511
.~~	-7512
:12	-7513
▁78	-7514
▁강에	-7515
▁갚아	-7516
▁개똥	-7517
▁개쳐	-7518
▁그가	-7519
▁밟으	-7520
▁변경	-7521
▁보냅	-7522
▁손은	-7523
▁십자	-7524
▁않을	-7525
▁압정	-7526
▁의도	-7527
▁쳐맞	-7528
▁최근	-7529
▁큰일	-7530
▁틀어	-7531
강딱이	-7532
골을넣	-7533
골인데	-7534
글랜드	-7535
끝나고	-7536
뚜드려	-7537
유도다	-7538
좀주고	-7539
코트로	-7540
트래핑	-7541
패스만	-7542
했다니	-7543
▁가려진	-7544
▁개털린	-7545
▁김태현	-7546
▁나온게	-7547
▁당신의	-7548
▁동치미	-7549
▁멕시코	-7550
▁목소리	-7551
▁못하네	-7552
▁반전드	-7553
▁발광하	-7554
▁볼터치	-7555
▁부상에	-7556
▁사람은	-7557
▁상대편	-7558
▁쉬게할	-7559
▁승자다	-7560
▁역대급	-7561
▁열정에	-7562
▁우즈백	-7563
▁유럽파	-7564
▁음바페	-7565
▁있네요	-7566
▁좋은것	-7567
▁중꺾마	-7568
▁중반은	-7569
▁지키고	-7570
▁투혼과	-7571
▁한사발	-7572
▁한수다	-7573
강되니까	-7574
강에서는	-7575
를찼나요	-7576
발린다고	-7577
얻어낸거	-7578
.~~^^	-7579
▁5:12	-7580
▁강에진출	-7581
▁갚아줘서	-7582
▁개똥이라	-7583
▁눈물나네	-7584
▁반코트로	-7585
▁밟으셨네	-7586
▁보냅니다	-7587
▁볼때마다	-7588
▁쉬게하고	-7589
▁실점에서	-7590
▁십자인대	-7591
▁안나오고	-7592
▁영리하다	-7593
▁의도적인	-7594
▁이기냐고	-7595
▁일본한테	-7596
▁잉글랜드	-7597
▁잘하던데	-7598
▁최고선수	-7599
▁큰일났다	-7600
▁틀어막고	-7601
▁하는거임	-7602
강딱이였네	-7603
그리고누가	-7604
▁개털린다고	-7605
▁경기끝나고	-7606
▁경기였는데	-7607
▁기회좀주고	-7608
▁까던사람들	-7609
▁내내뚜드려	-7610
▁누가골을넣	-7611
▁눈물납니다	-7612
▁대단한거다	-7613
▁반전드라마	-7614
▁발광하더니	-7615
▁연장전에서	-7616
▁오른쪽이좀	-7617
▁웅장해진다	-7618
▁쳐맞으면서	-7619
▁하는사람들	-7620
▁한사발했다	-7621
▁흥민이형의	-7622
▁개쳐발린다고	-7623
▁살아나는구나	-7624
▁새로운선수도	-7625
▁쉬게할선수도	-7626
▁재밌다ᄃᄃᄃ	-7627
▁진다던사람들	-7628
▁강에진출했다니	-7629
▁누가골을넣었나요	-7630
개나	-7631
게된	-7632
공봐	-7633
기용	-7634
년은	-7635
둥이	-7636
스처	-7637
아요	-7638
유하	-7639
으켜	-7640
전기	-7641
주구	-7642
쩐지	-7643
첫다	-7644
파워	-7645
향후	-7646
회전	-7647
:58	-7648
ell	-7649
▁"+	-7650
▁갈겨	-7651
▁공잡	-7652
▁눈여	-7653
▁무거	-7654
▁속상	-7655
▁신난	-7656
▁안날	-7657
▁이상	-7658
▁즐비	-7659
▁참는	-7660
▁🥹"	-7661
공봐서	-7662
나게한	-7663
더니까	-7664
되어줄	-7665
스처도	-7666
아아아	-7667
안하단	-7668
퍼센트	-7669
하다했	-7670
▁All	-7671
▁강한게	-7672
▁관객들	-7673
▁기둥이	-7674
▁대한의	-7675
▁두개나	-7676
▁똑같다	-7677
▁몇년은	-7678
▁무회전	-7679
▁미첫다	-7680
▁비교됨	-7681
▁뻔하지	-7682
▁설탕이	-7683
▁안돼서	-7684
▁않아짐	-7685
▁야유하	-7686
▁어쩐지	-7687
▁일으켜	-7688
▁좋더라	-7689
▁하루도	-7690
▁핸들은	-7691
거같아요	-7692
게된점이	-7693
을때마다	-7694
전기고문	-7695
해주는게	-7696
▁3:58	-7697
▁6:02	-7698
▁6:13	-7699
▁9:20	-7700
▁well	-7701
▁강한거다	-7702
▁날려먹네	-7703
▁넘어지면	-7704
▁넣어주면	-7705
▁눈여겨보	-7706
▁미안하단	-7707
▁빛나게한	-7708
▁사우디랑	-7709
▁살아남은	-7710
▁수확이라	-7711
▁수확중에	-7712
▁시원했다	-7713
▁쓰지말자	-7714
▁안날수가	-7715
▁와아아아	-7716
▁제스처도	-7717
▁종료직전	-7718
하다했더니	-7719
▁갈겨버리네	-7720
▁결정적인걸	-7721
▁경기보면서	-7722
▁동점골인데	-7723
▁드리블이랑	-7724
▁생각되네요	-7725
▁선수들한테	-7726
▁설탕이아님	-7727
▁속상했지만	-7728
▁손흥민이다	-7729
▁신난거같음	-7730
▁요르단한테	-7731
▁일으켜주구	-7732
▁잘해줬는데	-7733
▁주전으로는	-7734
▁공잡을때마다	-7735
▁기둥이되어줄	-7736
▁설영우선수를	-7737
▁야유하더니까	-7738
▁축하해주는게	-7739
▁한국선수들이	-7740
▁이상하다했더니	-7741
▁눈여겨보게된점이	-7742
▁기둥이되어줄거같아요	-7743
?!	-7744
▁똘	-7745
▁뮤	-7746
▁셀	-7747
▁엔	-7748
▁족	-7749
곡이	-7750
기로	-7751
듀오	-7752
딩곡	-7753
똘뭉	-7754
맴버	-7755
먹고	-7756
양현	-7757
에손	-7758
협회	-7759
히네	-7760
!!‘	-7761
:02	-7762
▁들을	-7763
▁뛰자	-7764
▁라는	-7765
▁맛깔	-7766
▁맞죠	-7767
▁먼가	-7768
▁못할	-7769
▁뭔지	-7770
▁보게	-7771
▁셀틱	-7772
▁좋지	-7773
▁지렷	-7774
▁치열	-7775
각하다	-7776
결과가	-7777
됬지요	-7778
드는데	-7779
리액션	-7780
맴버로	-7781
양현중	-7782
와ᅡᅡ	-7783
을까봐	-7784
장면을	-7785
하지는	-7786
할거같	-7787
해야함	-7788
▁감전희	-7789
▁개잘함	-7790
▁근성이	-7791
▁능력이	-7792
▁대나요	-7793
▁때에도	-7794
▁떨어지	-7795
▁똑같아	-7796
▁똘똘뭉	-7797
▁만나면	-7798
▁뮤조건	-7799
▁선곡이	-7800
▁손에손	-7801
▁수비에	-7802
▁실망은	-7803
▁아니까	-7804
▁약해요	-7805
▁엔딩곡	-7806
▁역시는	-7807
▁욕안하	-7808
▁위기를	-7809
▁유일한	-7810
▁일정이	-7811
▁주던가	-7812
▁짠하고	-7813
▁챙기라	-7814
▁패턴이	-7815
▁해봐라	-7816
사람들은	-7817
▁경기부터	-7818
▁고생한거	-7819
▁넣었지요	-7820
▁돌려봐도	-7821
▁들을라고	-7822
▁많았지만	-7823
▁미안하고	-7824
▁백승호가	-7825
▁부진했고	-7826
▁브라질전	-7827
▁빼셨네요	-7828
▁빼주세요	-7829
▁셀틱듀오	-7830
▁아시는분	-7831
▁역시구나	-7832
▁올리던가	-7833
▁욕하지는	-7834
▁조별리그	-7835
▁치열하게	-7836
▁희생으로	-7837
ᄏᄏᄏ리액션	-7838
▁13:02	-7839
▁교체됬지요	-7840
▁기가막히네	-7841
▁기용해야함	-7842
▁김태환이는	-7843
▁달려드는데	-7844
▁들어오니깐	-7845
▁똘똘뭉치는	-7846
▁살아나더라	-7847
▁손에손잡고	-7848
▁영화감독님	-7849
▁욕먹을까봐	-7850
▁저렇게까지	-7851
▁전기오르는	-7852
▁줘야할거같	-7853
▁지렷습니다	-7854
▁지렸습니다	-7855
▁쿠팡인가요	-7856
▁후반맴버로	-7857
▁나네요ᄏᄏᄏ	-7858
▁월드컵에서도	-7859
▁하이라이트로	-7860
▁한국사람들은	-7861
▁핸드볼장면을	-7862
▁욕안하겠습니다	-7863
▁줘야할거같습니다	-7864
an	-7865
▁굴	-7866
감은	-7867
것임	-7868
그는	-7869
나욤	-7870
단길	-7871
대요	-7872
대체	-7873
떠지	-7874
로워	-7875
맞음	-7876
미드	-7877
미한	-7878
방의	-7879
벨스	-7880
시켰	-7881
아야	-7882
약대	-7883
오오	-7884
워있	-7885
이니	-7886
이닌	-7887
일본	-7888
정함	-7889
쳐야	-7890
타를	-7891
ore	-7892
▁가동	-7893
▁가진	-7894
▁고칠	-7895
▁구성	-7896
▁굴욕	-7897
▁남발	-7898
▁단조	-7899
▁대체	-7900
▁들소	-7901
▁등과	-7902
▁메가	-7903
▁무의	-7904
▁새끼	-7905
▁시켯	-7906
▁안에	-7907
▁오호	-7908
▁완성	-7909
▁왤케	-7910
▁요새	-7911
▁우선	-7912
▁유지	-7913
▁이김	-7914
▁젊고	-7915
▁질문	-7916
▁짤라	-7917
▁찰때	-7918
▁최초	-7919
▁최후	-7920
▁커버	-7921
▁통한	-7922
는거죠	-7923
된것임	-7924
뒷머리	-7925
벨스식	-7926
빛현우	-7927
수비에	-7928
아할수	-7929
용이지	-7930
이간다	-7931
인가봐	-7932
줄알고	-7933
지로록	-7934
집니다	-7935
파워가	-7936
필더인	-7937
한거고	-7938
해주는	-7939
했으니	-7940
,,,,	-7941
▁고쳐야	-7942
▁공격력	-7943
▁구성을	-7944
▁기다려	-7945
▁노리고	-7946
▁누워있	-7947
▁다른건	-7948
▁독일인	-7949
▁들떠지	-7950
▁멤버가	-7951
▁문제는	-7952
▁바꾸면	-7953
▁박아넣	-7954
▁발효만	-7955
▁비단길	-7956
▁슈팅수	-7957
▁싶은데	-7958
▁안시켰	-7959
▁앙대요	-7960
▁자원도	-7961
▁절대로	-7962
▁졌어도	-7963
▁좋아질	-7964
▁차다니	-7965
▁최선임	-7966
▁칭찬했	-7967
▁패스만	-7968
▁포백을	-7969
▁호주에	-7970
로워지고	-7971
리스만이	-7972
손흥민은	-7973
약대머리	-7974
였을줄은	-7975
하다보니	-7976
▁가동할수	-7977
▁결정타를	-7978
▁계속해서	-7979
▁고칠점은	-7980
▁공격수를	-7981
▁공격에서	-7982
▁괴벨스식	-7983
▁굴욕까지	-7984
▁김영권의	-7985
▁넣은것이	-7986
▁들소같다	-7987
▁메가커피	-7988
▁못하는게	-7989
▁무의미한	-7990
▁박용우가	-7991
▁불안정함	-7992
▁생각하지	-7993
▁생긴거고	-7994
▁선발감은	-7995
▁선방쇼에	-7996
▁설영우와	-7997
▁수고했다	-7998
▁시켯으면	-7999
▁않겠지만	-8000
▁앞선에서	-8001
▁완성인데	-8002
▁위치에서	-8003
▁의미없이	-8004
▁장난아님	-8005
▁중앙미드	-8006
▁최후방의	-8007
▁투입하는	-8008
▁투입해서	-8009
▁페널드킥	-8010
▁폭발하는	-8011
▁황인범과	-8012
▁흥분하면	-8013
아할수없다	-8014
클리스만이	-8015
▁12:44	-8016
▁강인선수가	-8017
▁골결정력과	-8018
▁공격에서도	-8019
▁눈돌아간다	-8020
▁떨어지는것	-8021
▁믿음이간다	-8022
▁비단길패스	-8023
▁손흥민에게	-8024
▁슛팅파워가	-8025
▁승리했으니	-8026
▁실점한거고	-8027
▁안시켰나욤	-8028
▁이뤄지로록	-8029
▁일어나기에	-8030
▁잘못된것임	-8031
▁중앙수비에	-8032
▁차범근보다	-8033
▁커버해주는	-8034
▁투입용이지	-8035
▁투입하는데	-8036
▁패스미스로	-8037
▁황희찬선수	-8038
▁기다려봅니다	-8039
▁남발하다보니	-8040
▁누워있는거죠	-8041
▁단조로워지고	-8042
▁독일인인가봐	-8043
▁만들었습니다	-8044
▁박아넣다보니	-8045
▁웅장해집니다	-8046
▁칭찬했을거임	-8047
▁호주전에서도	-8048
▁안좋아할수없다	-8049
▁중앙미드필더인	-8050
?.	-8051
▁덴	-8052
▁듬	-8053
가짐	-8054
고나	-8055
나란	-8056
래서	-8057
매당	-8058
부짖	-8059
사임	-8060
상승	-8061
승현	-8062
없나	-8063
외의	-8064
했기	-8065
▁그립	-8066
▁너희	-8067
▁명장	-8068
▁명품	-8069
▁보내	-8070
▁소홀	-8071
▁왤캐	-8072
▁움찔	-8073
▁웃을	-8074
▁자국	-8075
▁쪽팔	-8076
▁킴킴	-8077
▁해줘	-8078
▁했지	-8079
고나니	-8080
다니깐	-8081
됩니다	-8082
때처럼	-8083
셔서요	-8084
애들에	-8085
웅정님	-8086
하며서	-8087
한준희	-8088
해주자	-8089
▁국대냐	-8090
▁급상승	-8091
▁나이스	-8092
▁대민재	-8093
▁동영상	-8094
▁먹던데	-8095
▁모습을	-8096
▁못해요	-8097
▁바란다	-8098
▁반칙도	-8099
▁변화가	-8100
▁보려면	-8101
▁보인듯	-8102
▁비하면	-8103
▁생각만	-8104
▁수비도	-8105
▁안했기	-8106
▁울부짖	-8107
▁웃기냐	-8108
▁웃기넼	-8109
▁의외의	-8110
▁이래서	-8111
▁정승현	-8112
▁천사임	-8113
▁침대도	-8114
▁킴킴킴	-8115
▁킹강인	-8116
▁판매당	-8117
▁해외로	-8118
▁했나란	-8119
▁힘들었	-8120
가짐으로	-8121
경기했다	-8122
때처럼의	-8123
일어나서	-8124
▁4:57	-8125
▁가능했다	-8126
▁갓웅정님	-8127
▁경기력은	-8128
▁고생하심	-8129
▁당시에는	-8130
▁명품이다	-8131
▁안하는데	-8132
▁양현준과	-8133
▁없다니깐	-8134
▁없었지만	-8135
▁자국에서	-8136
▁주셔서요	-8137
▁중국보다	-8138
▁쪽팔리네	-8139
▁피하던데	-8140
▁힘내세요	-8141
한준희해설	-8142
해야할까요	-8143
▁그립습니다	-8144
▁기대됩니다	-8145
▁김태환이란	-8146
▁아시겠어요	-8147
▁움찔하며서	-8148
▁중동애들에	-8149
▁지나고나니	-8150
▁출전인데도	-8151
▁칭찬해주자	-8152
▁판매당하자	-8153
▁흥민선수를	-8154
▁리그때처럼의	-8155
▁마음가짐으로	-8156
▁매너경기했다	-8157
▁벌떡일어나서	-8158
▁울부짖기직전	-8159
▁호주선수들도	-8160
▁힘들었을텐데	-8161
▁어떻게해야할까요	-8162
▁웃기넼ᄏᄏᄏᄏᄏᄏ	-8163
▁울부짖기직전ᄏᄏᄏᄏᄏᄏᄏᄏ	-8164
▁웃기넼ᄏᄏᄏᄏᄏᄏ한준희해설	-8165
.]	-8166
▁[	-8167
▁곳	-8168
▁권	-8169
▁밖	-8170
▁줬	-8171
▁큼	-8172
▁헸	-8173
간도	-8174
갈수	-8175
게되	-8176
결해	-8177
공간	-8178
과의	-8179
군지	-8180
껴서	-8181
더만	-8182
더욱	-8183
될때	-8184
드가	-8185
든가	-8186
렸고	-8187
르지	-8188
미을	-8189
바엔	-8190
발한	-8191
세면	-8192
술한	-8193
신경	-8194
실점	-8195
써서	-8196
았던	-8197
어리	-8198
워크	-8199
이도	-8200
정해	-8201
지했	-8202
창훈	-8203
카도	-8204
키타	-8205
터링	-8206
테환	-8207
함을	-8208
힘을	-8209
-10	-8210
▁03	-8211
▁곳에	-8212
▁근처	-8213
▁꼴임	-8214
▁나네	-8215
▁넘기	-8216
▁두골	-8217
▁먹은	-8218
▁목을	-8219
▁못봄	-8220
▁발재	-8221
▁배치	-8222
▁세골	-8223
▁쉽지	-8224
▁스피	-8225
▁쓸데	-8226
▁안봤	-8227
▁오직	-8228
▁재수	-8229
▁점이	-8230
▁주어	-8231
▁지역	-8232
▁할뿐	-8233
▁헸다	-8234
가네요	-8235
가보다	-8236
강때도	-8237
라지네	-8238
명이서	-8239
스만아	-8240
승이라	-8241
연결해	-8242
워크가	-8243
원한때	-8244
을바엔	-8245
준거임	-8246
찬스로	-8247
최고다	-8248
하겠지	-8249
한가지	-8250
▁600	-8251
▁가장큰	-8252
▁강팀은	-8253
▁거기다	-8254
▁것으로	-8255
▁경고누	-8256
▁국대에	-8257
▁권창훈	-8258
▁기발한	-8259
▁기술도	-8260
▁기술뿐	-8261
▁김테환	-8262
▁나갈수	-8263
▁누구지	-8264
▁누군지	-8265
▁더더욱	-8266
▁되었다	-8267
▁두명은	-8268
▁뛰네요	-8269
▁바탕이	-8270
▁밖에서	-8271
▁반칙이	-8272
▁받을줄	-8273
▁벌리고	-8274
▁변화구	-8275
▁보스의	-8276
▁부족해	-8277
▁부진이	-8278
▁비중이	-8279
▁빈공간	-8280
▁빌미을	-8281
▁빡세면	-8282
▁센터링	-8283
▁시비로	-8284
▁실점의	-8285
▁심판은	-8286
▁쓰는게	-8287
▁안맞음	-8288
▁않아도	-8289
▁알게되	-8290
▁애리어	-8291
▁완전히	-8292
▁인지했	-8293
▁잘할듯	-8294
▁잡았던	-8295
▁장점은	-8296
▁정답임	-8297
▁제껴서	-8298
▁좋으면	-8299
▁줄텐데	-8300
▁줬지만	-8301
▁참으로	-8302
▁첫골때	-8303
▁첫골은	-8304
▁툭치고	-8305
▁티키타	-8306
▁판정해	-8307
▁하는꼴	-8308
▁했다가	-8309
▁허술한	-8310
▁헤딩뿐	-8311
김민재가	-8312
리고있네	-8313
승이라니	-8314
신경까지	-8315
자원일뿐	-8316
힘을써서	-8317
▁3:08	-8318
▁9-10	-8319
▁결승전도	-8320
▁공정하고	-8321
▁괜찮은것	-8322
▁교체될때	-8323
▁근처에서	-8324
▁끌고올라	-8325
▁넘기려고	-8326
▁달라지네	-8327
▁드리블로	-8328
▁든든하게	-8329
▁발재간도	-8330
▁배치해라	-8331
▁보스와의	-8332
▁보였는데	-8333
▁빠르기만	-8334
▁상황에선	-8335
▁설영우는	-8336
▁소리지름	-8337
▁소유권이	-8338
▁스피드가	-8339
▁쓸데없는	-8340
▁안전하다	-8341
▁알아야함	-8342
▁우승하던	-8343
▁의심되는	-8344
▁이겼네요	-8345
▁잡아내내	-8346
▁조레이는	-8347
▁지더라도	-8348
▁지켜줘서	-8349
▁클스만아	-8350
▁팀워크가	-8351
▁한국선수	-8352
▁헤딩으로	-8353
▁호주팀도	-8354
요르단과의	-8355
진짜잘하네	-8356
▁03:20	-8357
▁걷어내는게	-8358
▁걷어내든가	-8359
▁김테환이도	-8360
▁논스톱으로	-8361
▁되어야한다	-8362
▁뛰어나가서	-8363
▁맞다봅니다	-8364
▁못뚫을바엔	-8365
▁빈공간으로	-8366
▁수비수라도	-8367
▁수비에서의	-8368
▁수비하는데	-8369
▁알게되었다	-8370
▁어시연결해	-8371
▁월드컵에도	-8372
▁이번경기로	-8373
▁잘못이지만	-8374
▁중거리슛이	-8375
▁지는가보다	-8376
▁티키타카도	-8377
▁패스미스를	-8378
▁한국이었다	-8379
▁한방원한때	-8380
▁항상잘하네	-8381
▁경고누적으로	-8382
▁국대선수들이	-8383
▁기다리고있네	-8384
▁백업자원일뿐	-8385
▁슛때릴때까지	-8386
▁양현준최고다	-8387
▁역전승이라니	-8388
▁운동신경까지	-8389
▁인지했으니까	-8390
▁태극전사들의	-8391
▁끌고올라가네요	-8392
ᄒᄒᄒᄒᄒᄒᄒᄒᄒ	-8393
▁ᄒᄒᄒᄒᄒᄒᄒᄒ	-8394
▁손흥민진짜잘하네	-8395
▁어시연결해준거임	-8396
..!!!!!!!!	-8397
▁끌고올라가네요ᄏᄏᄏᄏᄏ	-8398
..!!!!!!!!!!!!!	-8399
vn	-8400
▁술	-8401
▁옹	-8402
▁헉	-8403
가사	-8404
개는	-8405
거면	-8406
건조	-8407
겋게	-8408
기종	-8409
꾸고	-8410
달라	-8411
됐다	-8412
랙홀	-8413
레인	-8414
로록	-8415
리누	-8416
리슛	-8417
마킹	-8418
믄데	-8419
베키	-8420
소한	-8421
손은	-8422
슛팅	-8423
스탄	-8424
아쉬	-8425
에여	-8426
윈이	-8427
이에	-8428
일수	-8429
잘한	-8430
잡기	-8431
저가	-8432
저음	-8433
지를	-8434
진은	-8435
창에	-8436
틴골	-8437
▁21	-8438
▁개발	-8439
▁거에	-8440
▁경찰	-8441
▁공과	-8442
▁공로	-8443
▁관전	-8444
▁그간	-8445
▁근본	-8446
▁나옴	-8447
▁내맘	-8448
▁닥터	-8449
▁리턴	-8450
▁말만	-8451
▁모냐	-8452
▁모여	-8453
▁무미	-8454
▁뭔소	-8455
▁상기	-8456
▁상식	-8457
▁수명	-8458
▁어깨	-8459
▁올까	-8460
▁일뽕	-8461
▁잠안	-8462
▁줄어	-8463
▁지고	-8464
▁집을	-8465
▁채팅	-8466
▁판결	-8467
▁한테	-8468
▁헉헉	-8469
▁확보	-8470
가사의	-8471
건조의	-8472
경기랑	-8473
기에블	-8474
기종기	-8475
달라짐	-8476
랙홀을	-8477
리는건	-8478
설아니	-8479
싶었다	-8480
썼구나	-8481
이경기	-8482
중계잘	-8483
쪽이라	-8484
터치는	-8485
▁50%	-8486
▁tvn	-8487
▁갈거면	-8488
▁강하게	-8489
▁겠지만	-8490
▁고라니	-8491
▁교체도	-8492
▁굿윈이	-8493
▁남자가	-8494
▁낳네요	-8495
▁놀다가	-8496
▁높이에	-8497
▁놓쳤네	-8498
▁누구죠	-8499
▁다하고	-8500
▁또로록	-8501
▁맨마킹	-8502
▁무수한	-8503
▁미틴골	-8504
▁발리슛	-8505
▁벌겋게	-8506
▁사소한	-8507
▁압박이	-8508
▁열지를	-8509
▁올라올	-8510
▁왼발로	-8511
▁욕하던	-8512
▁위치에	-8513
▁유지한	-8514
▁자잘한	-8515
▁전술인	-8516
▁제꾸고	-8517
▁중계진	-8518
▁중저음	-8519
▁증거를	-8520
▁지리누	-8521
▁쫄아서	-8522
▁처따라	-8523
▁처벌을	-8524
▁피함ᅲ	-8525
▁하믄데	-8526
▁합니까	-8527
▁해놓고	-8528
▁해설위	-8529
가는거봐	-8530
들어오는	-8531
레인저가	-8532
베키스탄	-8533
설아니죠	-8534
▁감동해서	-8535
▁그러다가	-8536
▁기다리면	-8537
▁김태환등	-8538
▁나오고야	-8539
▁날라다니	-8540
▁내맘대로	-8541
▁넘어가서	-8542
▁넣는거다	-8543
▁느낀건데	-8544
▁닥터스트	-8545
▁대단한거	-8546
▁때리는건	-8547
▁만들었네	-8548
▁모여있다	-8549
▁뭔소린데	-8550
▁미드진은	-8551
▁미친건가	-8552
▁박진감이	-8553
▁베스트는	-8554
▁베스트다	-8555
▁불가사의	-8556
▁사라지고	-8557
▁상기되서	-8558
▁세컨볼이	-8559
▁심각하다	-8560
▁알았지만	-8561
▁앞쪽으로	-8562
▁옹기종기	-8563
▁원터치로	-8564
▁유효슛팅	-8565
▁일뽕이고	-8566
▁자동문임	-8567
▁잘라와서	-8568
▁잠안와서	-8569
▁저기에블	-8570
▁좀비축구	-8571
▁줄어든다	-8572
▁중계보다	-8573
▁중반까지	-8574
▁채팅창에	-8575
▁침대축구	-8576
▁팀이에여	-8577
▁하는건데	-8578
▁확달라짐	-8579
▁확보하기	-8580
▁황희찬은	-8581
▁흥민손은	-8582
들어가는걸	-8583
저거보면서	-8584
▁12:30	-8585
▁골대쪽으로	-8586
▁공격쪽이라	-8587
▁누구인가요	-8588
▁다시보는데	-8589
▁뒤에있다가	-8590
▁들어오니까	-8591
▁들어오던지	-8592
▁무미건조의	-8593
▁미틴골이네	-8594
▁아쉬운점이	-8595
▁아시안컵을	-8596
▁올라오더라	-8597
▁요르단전은	-8598
▁지난경기랑	-8599
▁처따라가네	-8600
▁한편썼구나	-8601
▁해야되는데	-8602
중계잘하네요	-8603
▁발리슛하는데	-8604
▁불가사의하다	-8605
▁올라올때까지	-8606
▁움직임이여야	-8607
▁잘라들어오는	-8608
▁퍼스트터치는	-8609
▁잘라들어가는걸	-8610
▁저기에블랙홀을	-8611
▁닥터스트레인저가	-8612
▁빨려들어가는거봐	-8613
▁한준희해설아니죠	-8614
▁넘치게중계잘하네요	-8615
ᄏᄏᄏᄏᄏᄏᄏᄏᄏᄏᄏᄏᄏ	-8616
2,	-8617
ie	-8618
▁⚘	-8619
▁벼	-8620
▁븥	-8621
▁송	-8622
▁응	-8623
▁휘	-8624
건드	-8625
공의	-8626
궤적	-8627
급스	-8628
기고	-8629
느냐	-8630
단을	-8631
달이	-8632
당시	-8633
두가	-8634
드업	-8635
등이	-8636
레모	-8637
무궁	-8638
밀한	-8639
벤츠	-8640
불복	-8641
사이	-8642
야되	-8643
없음	-8644
자막	-8645
작년	-8646
전승	-8647
젖고	-8648
짜릿	-8649
차가	-8650
핀이	-8651
향이	-8652
히있	-8653
MVP	-8654
▁3,	-8655
▁??	-8656
▁⚘️	-8657
▁개학	-8658
▁걷어	-8659
▁겁이	-8660
▁나은	-8661
▁놔둠	-8662
▁다녔	-8663
▁땅치	-8664
▁멍청	-8665
▁몇일	-8666
▁밀린	-8667
▁박수	-8668
▁방학	-8669
▁방한	-8670
▁벼락	-8671
▁보소	-8672
▁볼위	-8673
▁볼피	-8674
▁센스	-8675
▁소원	-8676
▁시밬	-8677
▁여름	-8678
▁응형	-8679
▁의존	-8680
▁전개	-8681
▁정립	-8682
▁중시	-8683
▁지향	-8684
▁크로	-8685
▁타격	-8686
▁훈련	-8687
급스킬	-8688
내는거	-8689
레모니	-8690
만들어	-8691
번이다	-8692
아니고	-8693
이닌까	-8694
▁"""	-8695
▁"2,	-8696
▁104	-8697
▁간만에	-8698
▁강인아	-8699
▁거쳐서	-8700
▁결과에	-8701
▁경향이	-8702
▁공격을	-8703
▁공궤적	-8704
▁귀엽네	-8705
▁그림이	-8706
▁기어코	-8707
▁날두가	-8708
▁놓치고	-8709
▁다내줌	-8710
▁다웠다	-8711
▁마자막	-8712
▁먹은게	-8713
▁븥었을	-8714
▁빌드업	-8715
▁상단을	-8716
▁숙달이	-8717
▁숙제를	-8718
▁스핀이	-8719
▁시간에	-8720
▁앞두고	-8721
▁어린이	-8722
▁올려서	-8723
▁올스타	-8724
▁재작년	-8725
▁조밀한	-8726
▁치우는	-8727
▁투혼이	-8728
▁툭건드	-8729
▁하느냐	-8730
▁하다가	-8731
▁한게임	-8732
▁한골만	-8733
▁할려다	-8734
▁형태로	-8735
▁훈련과	-8736
▁휘젖고	-8737
▁힘들다	-8738
▁️전승	-8739
라도한다	-8740
야되는거	-8741
얻어낸게	-8742
이라더라	-8743
한다면서	-8744
▁3:26	-8745
▁겁이없음	-8746
▁고급스킬	-8747
▁능력에만	-8748
▁다녔었지	-8749
▁대표하는	-8750
▁땅치는거	-8751
▁반성하고	-8752
▁방한해서	-8753
▁벼락으로	-8754
▁볼위치에	-8755
▁볼피하는	-8756
▁세레모니	-8757
▁손흥민골	-8758
▁수비들이	-8759
▁슈퍼스타	-8760
▁스타일을	-8761
▁실력차가	-8762
▁실패해서	-8763
▁응형무궁	-8764
▁의존하는	-8765
▁정립해서	-8766
▁중시하며	-8767
▁지향하는	-8768
▁짜릿짜릿	-8769
▁크로스만	-8770
▁타격해서	-8771
▁피지컬팀	-8772
▁한국수비	-8773
▁한다거나	-8774
▁호주같은	-8775
▁강팀이닌까	-8776
▁븥었을당시	-8777
▁빠른선수를	-8778
▁선발로넣고	-8779
▁선수들사이	-8780
▁선수들하고	-8781
▁양현준같이	-8782
▁올리는거야	-8783
▁월클인거지	-8784
▁잘하던건데	-8785
▁재작년인가	-8786
▁초등학생이	-8787
▁클래스보소	-8788
▁툭건드리고	-8789
▁페널티킥이	-8790
▁프리킥인데	-8791
▁흥민이한테	-8792
▁️전승불복	-8793
만들어내는거	-8794
▁이해라도한다	-8795
▁해야한다면서	-8796
▁내보내야되는거	-8797
▁짜릿짜릿하네요	-8798
▁고급스킬이라더라	-8799
▁패널티만들어내는거	-8800
94	-8801
az	-8802
▁.	-8803
▁떄	-8804
▁윗	-8805
강에	-8806
그러	-8807
급임	-8808
님이	-8809
대고	-8810
드에	-8811
레미	-8812
막아	-8813
무승	-8814
분경	-8815
뿌려	-8816
사는	-8817
속팀	-8818
수행	-8819
시가	-8820
어줘	-8821
여주	-8822
원툴	-8823
이게	-8824
조커	-8825
존의	-8826
주도	-8827
천재	-8828
턴도	-8829
텁게	-8830
트윙	-8831
화를	-8832
흐디	-8833
,..	-8834
:03	-8835
ing	-8836
maz	-8837
▁가끔	-8838
▁가나	-8839
▁가냐	-8840
▁같고	-8841
▁개드	-8842
▁골에	-8843
▁그때	-8844
▁길게	-8845
▁나았	-8846
▁나질	-8847
▁낫고	-8848
▁다루	-8849
▁도운	-8850
▁레프	-8851
▁망할	-8852
▁먹게	-8853
▁미국	-8854
▁바탕	-8855
▁분통	-8856
▁빛니	-8857
▁빠질	-8858
▁슛타	-8859
▁싶던	-8860
▁억울	-8861
▁옵션	-8862
▁유기	-8863
▁적합	-8864
▁전수	-8865
▁좋음	-8866
▁좋응	-8867
▁턴닝	-8868
▁피했	-8869
강가서	-8870
강인이	-8871
그러다	-8872
까지만	-8873
년도를	-8874
는데요	-8875
대회됨	-8876
도없고	-8877
되었고	-8878
리스맘	-8879
무승부	-8880
미들을	-8881
반드에	-8882
받아야	-8883
부터는	-8884
설영우	-8885
속팀서	-8886
수행력	-8887
어리더	-8888
역시잘	-8889
용으로	-8890
우리가	-8891
이었나	-8892
인건지	-8893
자리로	-8894
중이고	-8895
차에서	-8896
최전방	-8897
패턴도	-8898
▁"..	-8899
▁가르지	-8900
▁공미가	-8901
▁그대신	-8902
▁기적이	-8903
▁기존의	-8904
▁김진수	-8905
▁꺄아아	-8906
▁내용의	-8907
▁넣으면	-8908
▁노력을	-8909
▁다치고	-8910
▁대표도	-8911
▁도와서	-8912
▁두텁게	-8913
▁따라서	-8914
▁때부터	-8915
▁망했고	-8916
▁머리도	-8917
▁메흐디	-8918
▁받아라	-8919
▁베이란	-8920
▁볼뿌려	-8921
▁봅시다	-8922
▁붙여주	-8923
▁서로간	-8924
▁수미로	-8925
▁승부를	-8926
▁실책과	-8927
▁실화를	-8928
▁심어줘	-8929
▁심하게	-8930
▁아님ᆢ	-8931
▁없나요	-8932
▁연계도	-8933
▁윗급임	-8934
▁이기긴	-8935
▁이길때	-8936
▁이나라	-8937
▁이란은	-8938
▁이란을	-8939
▁이란의	-8940
▁이란이	-8941
▁이상을	-8942
▁자주함	-8943
▁좋았던	-8944
▁주도성	-8945
▁지는게	-8946
▁참사는	-8947
▁타레미	-8948
▁투입이	-8949
▁패스가	-8950
▁포지션	-8951
▁한국과	-8952
▁했던거	-8953
▁힘내주	-8954
경기였고	-8955
공격시너	-8956
기보다는	-8957
살이였다	-8958
시너지가	-8959
없었으면	-8960
원툴조커	-8961
주는것도	-8962
주도성이	-8963
트윙보다	-8964
할수있게	-8965
▁1994	-8966
▁Amaz	-8967
▁강인이가	-8968
▁같이했어	-8969
▁개드럽다	-8970
▁개리스맘	-8971
▁결승골을	-8972
▁공격적인	-8973
▁그자리에	-8974
▁극대회됨	-8975
▁나았을듯	-8976
▁나오는데	-8977
▁나질않고	-8978
▁대표팀의	-8979
▁독일에서	-8980
▁득점없이	-8981
▁떨어져서	-8982
▁맞추어서	-8983
▁못나오고	-8984
▁미래에서	-8985
▁바탕으로	-8986
▁베스트임	-8987
▁분통하고	-8988
▁빛니는거	-8989
▁성공하나	-8990
▁세컨볼을	-8991
▁소속팀서	-8992
▁손흥민외	-8993
▁손흥민짱	-8994
▁수비력이	-8995
▁슛타이밍	-8996
▁승리하며	-8997
▁억울하고	-8998
▁왔는데요	-8999
▁유기적인	-9000
▁이재성은	-9001
▁인터뷰로	-9002
▁전부터는	-9003
▁진출하며	-9004
▁축구천재	-9005
▁치어리더	-9006
▁친구한테	-9007
▁카타르와	-9008
▁해주세요	-9009
▁활약으로	-9010
▁후반전에	-9011
▁희찬이는	-9012
설영우까지	-9013
역시잘막아	-9014
이재성보다	-9015
▁07:03	-9016
▁07:51	-9017
▁경기였으니	-9018
▁골대최전방	-9019
▁공미자리로	-9020
▁꺄아아아아	-9021
▁대표팀급이	-9022
▁대회까지만	-9023
▁더잘하는거	-9024
▁박용우보다	-9025
▁분석되었고	-9026
▁붙여주어야	-9027
▁선수에게서	-9028
▁성공합니다	-9029
▁승부차기에	-9030
▁연장전으로	-9031
▁왼발패턴도	-9032
▁우승합니다	-9033
▁인정했지만	-9034
▁잘해야할듯	-9035
▁잘해왔지만	-9036
▁중원미들을	-9037
▁진출합니다	-9038
▁추가시간의	-9039
▁축구선수도	-9040
▁피했을텐데	-9041
▁한국선수가	-9042
▁활약중이고	-9043
공격시너시가	-9044
아아아아아아	-9045
▁"..,..	-9046
▁......	-9047
▁감동적이었나	-9048
▁개리스맘땜에	-9049
▁공격시너지가	-9050
▁공격주도성이	-9051
▁다루어나가는	-9052
▁도운경기였고	-9053
▁두텁게하는데	-9054
▁레프트윙보다	-9055
▁베이란반드에	-9056
▁손흥민톱으로	-9057
▁신의한수였고	-9058
▁왼쪽으로가서	-9059
▁집중할수있게	-9060
▁포지션인건지	-9061
▁헤딩원툴조커	-9062
▁힘내주십시요	-9063
▁Amazing	-9064
▁라이트윙으로서	-9065
▁볼뿌려주는것도	-9066
▁잘했다기보다는	-9067
▁라이트윙이강인은	-9068
▁빛현우가없었으면	-9069
▁빛현우역시잘막아	-9070
▁연계공격시너시가	-9071
▁이기긴힘들었을듯	-9072
▁.........	-9073
▁헤딩원툴조커용으로	-9074
(3	-9075
),	-9076
~5	-9077
▁뛸	-9078
▁줌	-9079
▁춘	-9080
감사	-9081
거워	-9082
겼지	-9083
교체	-9084
기시	-9085
난발	-9086
다른	-9087
땜시	-9088
려워	-9089
로챈	-9090
리웃	-9091
만있	-9092
명보	-9093
몫을	-9094
바쁘	-9095
버텨	-9096
스시	-9097
시아	-9098
실력	-9099
안함	-9100
어지	-9101
우이	-9102
재업	-9103
제로	-9104
진건	-9105
판할	-9106
형만	-9107
▁02	-9108
▁갖다	-9109
▁경우	-9110
▁과연	-9111
▁궤도	-9112
▁그라	-9113
▁대거	-9114
▁막힌	-9115
▁못받	-9116
▁빼앗	-9117
▁신경	-9118
▁않나	-9119
▁않음	-9120
▁올해	-9121
▁요망	-9122
▁일단	-9123
▁잦다	-9124
▁제차	-9125
▁짜증	-9126
▁추춘	-9127
▁춘장	-9128
▁치곤	-9129
▁하랴	-9130
▁환해	-9131
가있는	-9132
각이다	-9133
경기력	-9134
기시작	-9135
나되니	-9136
는애들	-9137
다쳐도	-9138
만있음	-9139
못하고	-9140
무조건	-9141
바쁘고	-9142
보여요	-9143
분부터	-9144
빠지면	-9145
스템을	-9146
싶은데	-9147
액션에	-9148
에게만	-9149
으로는	-9150
이나마	-9151
하지를	-9152
한번을	-9153
해서는	-9154
,,~~	-9155
▁4~5	-9156
▁가로챈	-9157
▁가슴을	-9158
▁국대서	-9159
▁국대의	-9160
▁그몫을	-9161
▁기적임	-9162
▁까내려	-9163
▁나간게	-9164
▁나라다	-9165
▁넣어준	-9166
▁댓글수	-9167
▁두려워	-9168
▁말레이	-9169
▁멋있어	-9170
▁못버텨	-9171
▁바꿔야	-9172
▁보내자	-9173
▁비판할	-9174
▁뿐이다	-9175
▁사는게	-9176
▁선수다	-9177
▁성공못	-9178
▁손형만	-9179
▁승리한	-9180
▁안되어	-9181
▁언제간	-9182
▁올려야	-9183
▁윙에서	-9184
▁유스시	-9185
▁전적만	-9186
▁졌을듯	-9187
▁찬스를	-9188
▁커버도	-9189
▁타이밍	-9190
▁탈압박	-9191
▁패하지	-9192
▁패했을	-9193
▁필요한	-9194
▁한국에	-9195
▁헐거워	-9196
▁헐리웃	-9197
▁홍명보	-9198
▁화면이	-9199
가있는것	-9200
도안되는	-9201
때까지도	-9202
재업해야	-9203
제로라도	-9204
주고해라	-9205
패스하기	-9206
(3:30	-9207
(4:52	-9208
▁간결하게	-9209
▁감사감사	-9210
▁감사하다	-9211
▁갖다줘라	-9212
▁결과들이	-9213
▁경우에만	-9214
▁고마우이	-9215
▁그라스만	-9216
▁깔끔하고	-9217
▁뚫어줘서	-9218
▁먹었는데	-9219
▁못받아서	-9220
▁못한다고	-9221
▁바꾸는게	-9222
▁바라보고	-9223
▁빼앗겼지	-9224
▁선수교체	-9225
▁선제골을	-9226
▁소홀하게	-9227
▁수비력을	-9228
▁시작하는	-9229
▁실수난발	-9230
▁실점으로	-9231
▁실점하지	-9232
▁심장이다	-9233
▁안보여요	-9234
▁안봤는데	-9235
▁우승하기	-9236
▁위해서는	-9237
▁이거라도	-9238
▁이겼으니	-9239
▁인정한다	-9240
▁절대불가	-9241
▁지금실력	-9242
▁창의적인	-9243
▁카드땜시	-9244
▁패스안함	-9245
▁헤딩하는	-9246
▁환해져서	-9247
대한민국은	-9248
명이나되니	-9249
시아전부터	-9250
패스는커녕	-9251
(4:52)	-9252
▁그렇다쳐도	-9253
▁까내려봐라	-9254
▁나오기시작	-9255
▁대인마크만	-9256
▁못버텨내서	-9257
▁스루패스는	-9258
▁안막았어도	-9259
▁연결되는데	-9260
▁우승각이다	-9261
▁월드컵출전	-9262
▁자동문이네	-9263
▁잘해왔으면	-9264
▁절대빠지면	-9265
▁조금이나마	-9266
▁조현우한테	-9267
▁찰때까지도	-9268
▁춘장때문에	-9269
▁헐거워진건	-9270
▁황희찬한테	-9271
손흥민에게만	-9272
재업해야할듯	-9273
(3:30),	-9274
▁기본도안되는	-9275
▁김태환선수가	-9276
▁두려워하지를	-9277
▁뒤로패스하기	-9278
▁선발이었는데	-9279
▁성공못시키고	-9280
▁유스시스템을	-9281
▁추춘제로라도	-9282
▁커버도못하고	-9283
▁크로스한번을	-9284
▁패스주고해라	-9285
▁한게가있는것	-9286
▁해야지싶은데	-9287
▁헐리웃액션에	-9288
▁나머지선수들이	-9289
▁바라보고만있음	-9290
▁지금실력으로는	-9291
▁나오기시작하겠지	-9292
▁말레이시아전부터	-9293
▁기본도안되는선수가	-9294
▁뒤로패스하기바쁘고	-9295
▁창의적인패스는커녕	-9296
GK	-9297
▁딸	-9298
겟네	-9299
겠음	-9300
고생	-9301
그대	-9302
긴다	-9303
까진	-9304
내면	-9305
대도	-9306
될줄	-9307
들의	-9308
머한	-9309
승도	-9310
암튼	-9311
어는	-9312
위칭	-9313
자석	-9314
재감	-9315
전혀	-9316
조차	-9317
질이	-9318
차례	-9319
차서	-9320
탓을	-9321
투맨	-9322
▁GK	-9323
▁된거	-9324
▁뒷바	-9325
▁딸깍	-9326
▁떠먹	-9327
▁미안	-9328
▁보상	-9329
▁복귀	-9330
▁설렁	-9331
▁셋이	-9332
▁술레	-9333
▁영어	-9334
▁오며	-9335
▁자막	-9336
▁자청	-9337
▁주역	-9338
▁질러	-9339
▁착착	-9340
▁치르	-9341
▁커녕	-9342
▁하네	-9343
가지를	-9344
김진수	-9345
아니네	-9346
오니까	-9347
월드컵	-9348
존재감	-9349
지마라	-9350
▁감긴다	-9351
▁공신은	-9352
▁돌리고	-9353
▁돌리다	-9354
▁되는대	-9355
▁들어옴	-9356
▁뚫기가	-9357
▁마크안	-9358
▁맨투맨	-9359
▁모여서	-9360
▁못올라	-9361
▁보고싶	-9362
▁보면됨	-9363
▁상대도	-9364
▁수고들	-9365
▁수고에	-9366
▁수차례	-9367
▁스위칭	-9368
▁승리의	-9369
▁심한거	-9370
▁아닌거	-9371
▁이자석	-9372
▁자질이	-9373
▁전이나	-9374
▁전진은	-9375
▁죽겟네	-9376
▁지분이	-9377
▁차내면	-9378
▁패스나	-9379
▁표정봐	-9380
▁하지도	-9381
강까지는	-9382
강전이나	-9383
건지모르	-9384
그대들의	-9385
까진진짜	-9386
될줄이야	-9387
때는머한	-9388
▁4:26	-9389
▁가능한거	-9390
▁골을넣는	-9391
▁공이되고	-9392
▁김민재의	-9393
▁꾸역승도	-9394
▁끝났다고	-9395
▁나가지를	-9396
▁놓쳤으면	-9397
▁느낌이네	-9398
▁달려들면	-9399
▁당하셨네	-9400
▁대담함을	-9401
▁뒷바라지	-9402
▁라이언은	-9403
▁많았어요	-9404
▁미안하다	-9405
▁복귀해서	-9406
▁부족하다	-9407
▁비교불가	-9408
▁살아나고	-9409
▁살아나네	-9410
▁상대들이	-9411
▁생각없이	-9412
▁생각조차	-9413
▁서있다가	-9414
▁선수로서	-9415
▁수비하다	-9416
▁수준차이	-9417
▁술레잡기	-9418
▁안정되는	-9419
▁없었다면	-9420
▁우승해서	-9421
▁이름이랑	-9422
▁자막으로	-9423
▁자청해서	-9424
▁조직력도	-9425
▁주역이고	-9426
▁질러대고	-9427
▁치르느라	-9428
▁키플레이	-9429
▁확실하네	-9430
▁흥민이랑	-9431
손흥민이다	-9432
재밌었는데	-9433
▁골키퍼이고	-9434
▁공격할때도	-9435
▁딸깍축구를	-9436
▁마술입니다	-9437
▁맨투맨하고	-9438
▁보여주었다	-9439
▁스위칭하며	-9440
▁이자석들아	-9441
▁장난아니네	-9442
▁전술도없고	-9443
▁축구선수가	-9444
▁클린스만식	-9445
▁투지도없고	-9446
▁프리킥차서	-9447
▁플레이하니	-9448
▁힘들었는데	-9449
건지모르겠음	-9450
▁들어가는대도	-9451
▁매번볼때마다	-9452
▁못올라오니까	-9453
▁보게될줄이야	-9454
▁여기까진진짜	-9455
▁카타르월드컵	-9456
▁키플레이어는	-9457
요르단때는머한	-9458
▁엄청힘들었을듯	-9459
▁우승해서그대들의	-9460
▁여기까진진짜재밌었는데	-9461
요르단때는머한건지모르겠음	-9462
▁낙	-9463
▁를	-9464
▁밑	-9465
고음	-9466
남겨	-9467
너지	-9468
넕티	-9469
놨다	-9470
드네	-9471
뜨케	-9472
라이	-9473
명뿐	-9474
바닥	-9475
올때	-9476
왼쪽	-9477
있어	-9478
재주	-9479
절대	-9480
존멋	-9481
차큰	-9482
홍민	-9483
???	-9484
▁가히	-9485
▁골문	-9486
▁뛰네	-9487
▁못찾	-9488
▁밀어	-9489
▁뽑아	-9490
▁소모	-9491
▁속여	-9492
▁슬라	-9493
▁심함	-9494
▁싶을	-9495
▁아웃	-9496
▁안찾	-9497
▁약한	-9498
▁위에	-9499
▁위험	-9500
▁있나	-9501
▁제가	-9502
▁짤려	-9503
▁최홍	-9504
▁킥을	-9505
▁하셨	-9506
계시지	-9507
넕티킥	-9508
단고음	-9509
드킥에	-9510
만드네	-9511
바란다	-9512
분남겨	-9513
속였네	-9514
안한다	-9515
어뜨케	-9516
이지요	-9517
재주야	-9518
잼있어	-9519
정도의	-9520
판단하	-9521
한번은	-9522
해올때	-9523
햇을듯	-9524
▁가깝다	-9525
▁개존멋	-9526
▁골을먹	-9527
▁국대가	-9528
▁궤적은	-9529
▁길하나	-9530
▁나가는	-9531
▁낙차큰	-9532
▁난절대	-9533
▁넘쫄깃	-9534
▁넣냐고	-9535
▁다른데	-9536
▁단점이	-9537
▁대표할	-9538
▁됨으로	-9539
▁막겠냐	-9540
▁밑바닥	-9541
▁보지만	-9542
▁손홍민	-9543
▁실망임	-9544
▁얻을때	-9545
▁에너지	-9546
▁예술에	-9547
▁왼쪽에	-9548
▁이라고	-9549
▁이만큼	-9550
▁이유다	-9551
▁자신의	-9552
▁정도임	-9553
▁출근도	-9554
▁치우쳐	-9555
▁하려다	-9556
▁한명도	-9557
▁햇으면	-9558
능하다고	-9559
명뿐이고	-9560
사이드로	-9561
수비수는	-9562
왼쪽으론	-9563
이드처럼	-9564
있다는게	-9565
하고싶다	-9566
▁가만하면	-9567
▁개별적인	-9568
▁개웃기다	-9569
▁개인적인	-9570
▁골키퍼는	-9571
▁근본적인	-9572
▁기본적인	-9573
▁김승규가	-9574
▁또한번은	-9575
▁못찾는거	-9576
▁분위기가	-9577
▁뽑아주길	-9578
▁안되는건	-9579
▁야구에서	-9580
▁얻기직전	-9581
▁없었는데	-9582
▁열심히들	-9583
▁올려놨다	-9584
▁이강인과	-9585
▁잘판단하	-9586
▁저지하는	-9587
▁전술이다	-9588
▁존나좋다	-9589
▁짤려먹고	-9590
▁최홍만을	-9591
▁탑클래스	-9592
▁페넕티킥	-9593
▁하셨다고	-9594
▁한국팀이	-9595
▁할때보면	-9596
▁해주어서	-9597
분남겨놓고	-9598
수비수들이	-9599
잼있어ᄒᄒ	-9600
▁감독이라면	-9601
▁감동적일수	-9602
▁개별적으로	-9603
▁것도재주야	-9604
▁공격해올때	-9605
▁그걸만드네	-9606
▁길하나밖에	-9607
▁김태환보다	-9608
▁넘쫄깃하고	-9609
▁두번속였네	-9610
▁들어가니까	-9611
▁먹을때보면	-9612
▁밑바닥임을	-9613
▁생각안한다	-9614
▁선발이지요	-9615
▁선수들인데	-9616
▁손홍민이가	-9617
▁신의계시지	-9618
▁아니어뜨케	-9619
▁안찾는거다	-9620
▁양사이드로	-9621
▁얻을때보면	-9622
▁우승하라는	-9623
▁이선수들이	-9624
▁재밌다니까	-9625
▁차는줄알고	-9626
▁클린스만도	-9627
▁탈락햇을듯	-9628
▁패널드킥에	-9629
▁한국선수는	-9630
▁호주선수를	-9631
▁골을먹기직전	-9632
▁대표할정도의	-9633
▁슬라이드처럼	-9634
▁응원하고싶다	-9635
▁이기고있지만	-9636
▁잘판단하셔서	-9637
▁최고의선수가	-9638
▁페넕티킥이고	-9639
▁대한민국수비가	-9640
▁밀어넣어버리니	-9641
▁부분이있다는게	-9642
▁뽑아주길바란다	-9643
▁쑤셔넣어버리니	-9644
▁우승가능하다고	-9645
▁호주수비수들이	-9646
▁우리나라수비수는	-9647
▁아ᄏᄏᄏᄏᄏᄏᄏᄏ	-9648
▁패널티에어리어안에	-9649
▁패널티에어리어안의	-9650
▁넘쫄깃하고잼있어ᄒᄒ	-9651
▁아ᄏᄏᄏᄏᄏᄏᄏᄏᄏᄏᄏ	-9652
36	-9653
od	-9654
▁꽂	-9655
▁뺏	-9656
간후	-9657
관없	-9658
는다	-9659
떠나	-9660
발에	-9661
밴드	-9662
벨업	-9663
보네	-9664
시나	-9665
시대	-9666
신당	-9667
진이	-9668
클을	-9669
클한	-9670
할골	-9671
:01	-9672
▁가뜩	-9673
▁개못	-9674
▁관통	-9675
▁만세	-9676
▁말을	-9677
▁미우	-9678
▁변함	-9679
▁사회	-9680
▁손까	-9681
▁아버	-9682
▁전세	-9683
▁첨에	-9684
겠어서	-9685
관없늣	-9686
당하는	-9687
린간후	-9688
벨업할	-9689
선정은	-9690
아주지	-9691
이러면	-9692
저기서	-9693
태클을	-9694
하려면	-9695
▁다리에	-9696
▁당할골	-9697
▁돈떠나	-9698
▁돋는다	-9699
▁듣네요	-9700
▁막아도	-9701
▁목표로	-9702
▁몰랐음	-9703
▁반박의	-9704
▁뺏으면	-9705
▁송면이	-9706
▁신신당	-9707
▁쏘니다	-9708
▁아들이	-9709
▁아무상	-9710
▁여지가	-9711
▁웃기다	-9712
▁유럽빅	-9713
▁이게임	-9714
▁이유가	-9715
▁장발에	-9716
▁좋겠음	-9717
▁좋을때	-9718
▁짜증남	-9719
▁쫄깃한	-9720
▁쫄깃해	-9721
▁태클한	-9722
▁혹시나	-9723
밴드까지	-9724
▁200%	-9725
▁6:18	-9726
▁9:01	-9727
▁good	-9728
▁가뜩이나	-9729
▁감사한데	-9730
▁규성이네	-9731
▁꽂아주지	-9732
▁뛰어야함	-9733
▁레벨업할	-9734
▁미우니깐	-9735
▁박용우도	-9736
▁변함없이	-9737
▁수비수들	-9738
▁아버지가	-9739
▁재미보네	-9740
▁좋았으면	-9741
▁탈락보고	-9742
▁해설진이	-9743
▁해주시면	-9744
았어요ᄏᄏ	-9745
▁경기하는것	-9746
▁고문당하는	-9747
▁굳이저기서	-9748
▁못보겠어서	-9749
▁성장하려면	-9750
▁신신당부를	-9751
▁실수하는거	-9752
▁울버린간후	-9753
▁위치선정은	-9754
▁저런태클을	-9755
▁조규성땜에	-9756
▁축구선수로	-9757
▁패널티킥은	-9758
▁한국축구로	-9759
▁해설위원님	-9760
▁레벨업할줄은	-9761
▁아무상관없늣	-9762
▁안들어간줄알	-9763
▁유럽빅리그를	-9764
▁프리킥만큼은	-9765
▁헤어밴드까지	-9766
▁황인범이라고	-9767
▁좋았으면ᄏᄏᄏ	-9768
▁쫄깃해졌습니다	-9769
▁안들어간줄알았어요ᄏᄏ	-9770
▁해설ᄏᄏᄏᄏᄏᄏᄏᄏᄏ	-9771
al	-9772
ap	-9773
mb	-9774
▁k	-9775
▁ᄑ	-9776
▁겹	-9777
▁깐	-9778
▁늦	-9779
▁루	-9780
▁암	-9781
겠서	-9782
계가	-9783
기왜	-9784
끝날	-9785
녀슛	-9786
늠름	-9787
니ᅮ	-9788
단되	-9789
러가	-9790
많은	-9791
방관	-9792
요약	-9793
울컥	-9794
움은	-9795
줄태	-9796
직소	-9797
헤드	-9798
ant	-9799
omb	-9800
tal	-9801
▁게속	-9802
▁겹쳐	-9803
▁다알	-9804
▁다양	-9805
▁매치	-9806
▁반은	-9807
▁반증	-9808
▁붙이	-9809
▁설날	-9810
▁세게	-9811
▁스릴	-9812
▁스포	-9813
▁시점	-9814
▁예선	-9815
▁오면	-9816
▁울컥	-9817
▁이강	-9818
▁조선	-9819
▁주축	-9820
▁체크	-9821
▁특정	-9822
▁편할	-9823
▁한줄	-9824
▁혹사	-9825
가면서	-9826
겠네여	-9827
겠서여	-9828
고싶다	-9829
기왜있	-9830
까는건	-9831
는것도	-9832
늠름한	-9833
단되지	-9834
드네여	-9835
못가고	-9836
밀러가	-9837
선수만	-9838
이라봄	-9839
줄태니	-9840
터치들	-9841
팬들아	-9842
햇는데	-9843
▁ᄑᄒᄒ	-9844
▁거지만	-9845
▁걱정에	-9846
▁결국엔	-9847
▁경질이	-9848
▁국대만	-9849
▁깐다고	-9850
▁되는데	-9851
▁뒷모습	-9852
▁때려야	-9853
▁루이스	-9854
▁못이기	-9855
▁못하던	-9856
▁못하지	-9857
▁밀었네	-9858
▁박진감	-9859
▁받을때	-9860
▁보여요	-9861
▁보였을	-9862
▁본헤드	-9863
▁새끼들	-9864
▁선한데	-9865
▁소녀슛	-9866
▁수많은	-9867
▁순직소	-9868
▁쉬면서	-9869
▁시야가	-9870
▁약팀은	-9871
▁어려운	-9872
▁좁다는	-9873
▁중요함	-9874
▁칭찬받	-9875
▁한계가	-9876
▁해설의	-9877
경기보니	-9878
는거같고	-9879
플레이를	-9880
하더라고	-9881
...""	-9882
antap	-9883
ombie	-9884
orean	-9885
▁3:09	-9886
▁게속이기	-9887
▁고생이고	-9888
▁그럴까요	-9889
▁그렇지만	-9890
▁다알아서	-9891
▁다양하고	-9892
▁답이네여	-9893
▁되는거야	-9894
▁무전술에	-9895
▁붙이니까	-9896
▁뽑았어도	-9897
▁선수들만	-9898
▁스릴있고	-9899
▁시작됐다	-9900
▁시점에서	-9901
▁압박하는	-9902
▁어려움은	-9903
▁옆에다만	-9904
▁왜이렇게	-9905
▁울컥울컥	-9906
▁응원해라	-9907
▁의지하는	-9908
▁저기왜있	-9909
▁전략으로	-9910
▁차단되지	-9911
▁체력이나	-9912
▁체크하는	-9913
▁컷백할때	-9914
▁편할텐데	-9915
▁한줄요약	-9916
▁해야하니	-9917
▁황의조만	-9918
경기력인데	-9919
끝날때까지	-9920
▁10:13	-9921
▁total	-9922
▁강팀이라면	-9923
▁고마워해라	-9924
▁기대햇는데	-9925
▁넘치겠지만	-9926
▁돌아가면서	-9927
▁드라마같고	-9928
▁모르겠네여	-9929
▁못이기니ᅮ	-9930
▁물건이라봄	-9931
▁부족해보여	-9932
▁생각드네여	-9933
▁선수생명도	-9934
▁소녀슛처럼	-9935
▁순직소방관	-9936
▁쉽게가면서	-9937
▁예선전부터	-9938
▁오래못가고	-9939
▁우리선수와	-9940
▁이겨줄태니	-9941
▁이런경기로	-9942
▁일본팬들아	-9943
▁전술도없는	-9944
▁주축선수들	-9945
▁클리스만은	-9946
▁특정선수만	-9947
▁플레이부터	-9948
▁힘드겠서여	-9949
▁Mantap	-9950
▁korean	-9951
▁zombie	-9952
▁경기하더라고	-9953
▁공간플레이를	-9954
▁루이스밀러가	-9955
▁모든경기보니	-9956
▁무전술이라고	-9957
▁시키는거같고	-9958
▁저기왜있는지	-9959
▁칭찬받을만한	-9960
▁퍼스트터치들	-9961
▁게속이기는것도	-9962
ᄏᄏᄏᄏᄏᄏᄏᄏᄏᄏ진짜	-9963
▁칭찬받을만한경기력인데	-9964
vs	-9965
~♡	-9966
ᄐᄏ	-9967
▁뜯	-9968
▁싹	-9969
가자	-9970
공권	-9971
남을	-9972
다루	-9973
럽게	-9974
리안	-9975
맨쇼	-9976
바가	-9977
바빴	-9978
슈팅	-9979
시질	-9980
용이	-9981
운이	-9982
위치	-9983
쩐다	-9984
책임	-9985
치면	-9986
킨값	-9987
포네	-9988
▁기리	-9989
▁기분	-9990
▁돈과	-9991
▁뜯어	-9992
▁물어	-9993
▁슛폼	-9994
▁아대	-9995
▁얻고	-9996
▁잠을	-9997
▁잤다	-9998
▁해라	-9999
▁홍민	-10000
다루는	-10001
던지고	-10002
바빴노	-10003
버리자	-10004
불안은	-10005
시킨게	-10006
씨찬형	-10007
에서랑	-10008
연장전	-10009
제공권	-10010
조직력	-10011
^^~♡	-10012
ᄐᄏ역시	-10013
▁ᄌᄂ쌤	-10014
▁가시질	-10015
▁개쩐다	-10016
▁고치면	-10017
▁날렸고	-10018
▁날리지	-10019
▁되겠다	-10020
▁드가자	-10021
▁맛있게	-10022
▁멘탈을	-10023
▁손강재	-10024
▁손흥맨	-10025
▁알바가	-10026
▁여운이	-10027
▁원맨쇼	-10028
▁치킨값	-10029
▁코리안	-10030
▁킬포네	-10031
위치선정	-10032
.!!!!	-10033
▁4:59	-10034
▁ᄏᄏᄐᄐ	-10035
▁감독책임	-10036
▁개재밌네	-10037
▁공격력이	-10038
▁기리남을	-10039
▁볼다루는	-10040
▁양현준도	-10041
▁어찌보면	-10042
▁우승가자	-10043
▁울기직전	-10044
▁전적으로	-10045
▁홍민이형	-10046
경기하니까	-10047
연장전되니	-10048
▁뜯어버리자	-10049
▁수비조직력	-10050
▁슛폼이었다	-10051
▁존나바빴노	-10052
▁좀비축구가	-10053
▁집어던지고	-10054
▁침대축구로	-10055
▁퇴장시킨게	-10056
▁희발씨찬형	-10057
▁울기직전이네	-10058
▁ᄏᄏᄐᄐᄐᄏ역시	-10059
▁맛있게경기하니까	-10060
▁수비조직력불안은	-10061
▁이김ᄏᄏᄏᄏᄏᄏᄏᄏ	-10062
▁꺽	-10063
겠당	-10064
드피	-10065
디네	-10066
랑은	-10067
렇다	-10068
리형	-10069
보러	-10070
뽑는	-10071
시점	-10072
시죠	-10073
이리	-10074
재상	-10075
조것	-10076
좀쓰	-10077
:31	-10078
▁<<	-10079
▁관중	-10080
▁따러	-10081
▁때리	-10082
▁붙은	-10083
▁브래	-10084
▁윙어	-10085
▁점수	-10086
▁점유	-10087
▁좀만	-10088
▁주워	-10089
▁코미	-10090
가는게	-10091
개라니	-10092
넣어라	-10093
드피트	-10094
록이나	-10095
리형님	-10096
아쉬운	-10097
짓이다	-10098
형보러	-10099
▁top	-10100
▁ᄉᄇ이	-10101
▁길이다	-10102
▁꺽을때	-10103
▁넣어야	-10104
▁다했다	-10105
▁돌려봄	-10106
▁먹기로	-10107
▁못뽑는	-10108
▁무조것	-10109
▁믿었다	-10110
▁부재상	-10111
▁상황이	-10112
▁선발은	-10113
▁손좀쓰	-10114
▁슛했다	-10115
▁아는게	-10116
▁안되서	-10117
▁없으면	-10118
▁왜이리	-10119
▁위하는	-10120
▁이렇다	-10121
▁이야기	-10122
▁전반에	-10123
▁조구성	-10124
▁최악의	-10125
▁현시점	-10126
때까지는	-10127
퍼센트에	-10128
하는거지	-10129
...."	-10130
▁5:51	-10131
▁8:31	-10132
▁가야겠당	-10133
▁넣었겠네	-10134
▁두리형님	-10135
▁드는모습	-10136
▁막은거니	-10137
▁메시처럼	-10138
▁못하는거	-10139
▁보는거랑	-10140
▁설렁하게	-10141
▁시키는게	-10142
▁실제랑은	-10143
▁원톱으로	-10144
▁유효슛이	-10145
▁입장에서	-10146
▁있는거다	-10147
▁있었으면	-10148
▁전후반에	-10149
▁점유율이	-10150
▁코미디네	-10151
▁한다는게	-10152
▁화면으로	-10153
▁다르겠지만	-10154
▁달려가는게	-10155
▁대표선수들	-10156
▁들어가면서	-10157
▁못뽑는다고	-10158
▁미친짓이다	-10159
▁부재상태로	-10160
▁브래드피트	-10161
▁비교불가다	-10162
▁세트피스로	-10163
▁손좀쓰시죠	-10164
▁안하는거지	-10165
▁양현준이나	-10166
▁이강인밖에	-10167
▁잘해야겠다	-10168
▁전술인건가	-10169
▁해주었네요	-10170
▁행복했었다	-10171
▁보고싶었는데	-10172
▁손흥민형보러	-10173
▁정우영넣어라	-10174
▁ᄉᄇ이때까지는	-10175
▁못하는거겠지만	-10176
ᅡ아	-10177
▁ᄀ	-10178
▁옆	-10179
▁향	-10180
갖힘	-10181
골이	-10182
다듬	-10183
대쪽	-10184
방도	-10185
었따	-10186
원한	-10187
줌보	-10188
질병	-10189
추가	-10190
탄방	-10191
합에	-10192
흥없	-10193
히려	-10194
ᅡ아ᅡ	-10195
▁ᅡ아	-10196
▁거지	-10197
▁고침	-10198
▁고통	-10199
▁공은	-10200
▁그제	-10201
▁급한	-10202
▁나일	-10203
▁넘무	-10204
▁놓고	-10205
▁도와	-10206
▁많고	-10207
▁많냐	-10208
▁먹고	-10209
▁복습	-10210
▁슛터	-10211
▁스만	-10212
▁쓰다	-10213
▁안식	-10214
▁어둠	-10215
▁의문	-10216
▁잦은	-10217
▁제외	-10218
▁천만	-10219
▁팩트	-10220
▁팬도	-10221
▁퍼기	-10222
▁호감	-10223
▁화끈	-10224
가아아	-10225
나오지	-10226
대쪽이	-10227
만들려	-10228
먹을때	-10229
백패스	-10230
분동안	-10231
불안만	-10232
시간에	-10233
▁가는지	-10234
▁가다듬	-10235
▁감흥없	-10236
▁고질병	-10237
▁공간에	-10238
▁그대에	-10239
▁그래야	-10240
▁그래요	-10241
▁그렇긴	-10242
▁내려감	-10243
▁머하는	-10244
▁못하게	-10245
▁사람도	-10246
▁생기고	-10247
▁서있네	-10248
▁소극적	-10249
▁시합에	-10250
▁안갖힘	-10251
▁없다면	-10252
▁여전히	-10253
▁영원한	-10254
▁옆패스	-10255
▁오줌보	-10256
▁오히려	-10257
▁올릴때	-10258
▁완전한	-10259
▁이뤄낸	-10260
▁잘하긴	-10261
▁잘하노	-10262
▁저심판	-10263
▁전술만	-10264
▁제치고	-10265
▁지겨운	-10266
▁짜보자	-10267
▁터지는	-10268
▁해줘라	-10269
보고있음	-10270
종료까지	-10271
타임처럼	-10272
탄방어로	-10273
해야지요	-10274
ᅡᅡᅡ아ᅡ	-10275
▁6:05	-10276
▁경기보다	-10277
▁그제서야	-10278
▁그쪽으로	-10279
▁넣는골이	-10280
▁달려들어	-10281
▁만해한것	-10282
▁멋있었따	-10283
▁반대쪽이	-10284
▁복습하러	-10285
▁부족해서	-10286
▁상대방도	-10287
▁슛터한테	-10288
▁스만타임	-10289
▁왔습니다	-10290
▁의미없는	-10291
▁이해불가	-10292
▁자신감과	-10293
▁자신감이	-10294
▁장면에서	-10295
▁제외시켜	-10296
▁좋을텐데	-10297
▁처음부터	-10298
▁팩트라마	-10299
▁한두명은	-10300
▁향하는지	-10301
▁호감이네	-10302
▁후반추가	-10303
가아아ᅡᅡ	-10304
아니냐ᄏᄏ	-10305
▁기회만들려	-10306
▁넣는것만큼	-10307
▁뛰어나오지	-10308
▁마크해야할	-10309
▁만해하려고	-10310
▁수비불안만	-10311
▁안전했는데	-10312
▁올라왔네요	-10313
▁첫골먹을때	-10314
▁패스미스도	-10315
▁피하는거임	-10316
▁필요합니다	-10317
▁감흥없었는데	-10318
▁경기종료까지	-10319
▁그렇긴하지만	-10320
▁달려들어야지	-10321
▁돌파해야지요	-10322
▁바라보고있음	-10323
▁수고많았어요	-10324
▁퍼기타임처럼	-10325
▁화끈하네ᄏᄏ	-10326
아아가아아ᅡᅡ	-10327
▁ᅡ아ᅡᅡᅡ아ᅡ	-10328
▁가다듬어야한다	-10329
▁스만타임이라도	-10330
▁제외시켜주세요	-10331
▁터지는줄알았네	-10332
▁후반추가시간에	-10333
▁있는거아니냐ᄏᄏ	-10334
!!!!!!!!!!!!!!	-10335
▁구	-10336
▁냈	-10337
▁돼	-10338
▁테	-10339
격기	-10340
그만	-10341
따는	-10342
야ᅮ	-10343
어제	-10344
어짐	-10345
열의	-10346
왜저	-10347
원은	-10348
이제	-10349
터는	-10350
:46	-10351
▁08	-10352
▁갈색	-10353
▁냈냐	-10354
▁놔두	-10355
▁돼지	-10356
▁될듯	-10357
▁뒤집	-10358
▁못얻	-10359
▁뭐지	-10360
▁봤다	-10361
▁안갑	-10362
▁완패	-10363
▁우린	-10364
▁을봤	-10365
▁제낄	-10366
▁테클	-10367
▁판세	-10368
▁페럴	-10369
▁하필	-10370
보여서	-10371
열의를	-10372
왜저런	-10373
웠는데	-10374
하라고	-10375
해도돼	-10376
▁나는데	-10377
▁누구냐	-10378
▁누구데	-10379
▁망할듯	-10380
▁목따는	-10381
▁미드에	-10382
▁부터는	-10383
▁사실상	-10384
▁슛하자	-10385
▁아닌지	-10386
▁안되길	-10387
▁안해도	-10388
▁어린게	-10389
▁울면서	-10390
▁좋지만	-10391
▁지금은	-10392
▁폭격기	-10393
명이라도	-10394
아니였음	-10395
이제그만	-10396
▁1:46	-10397
▁결승전은	-10398
▁나머지는	-10399
▁대흥민국	-10400
▁뒤집어짐	-10401
▁선발기용	-10402
▁안갑니다	-10403
▁완패했을	-10404
▁잡아야ᅮ	-10405
▁찬스나면	-10406
▁페럴트킥	-10407
▁후반부터	-10408
강전에서는	-10409
▁08:30	-10410
▁내보내세요	-10411
▁놔두었는지	-10412
▁다치지말자	-10413
▁못얻었으면	-10414
▁무거웠는데	-10415
▁보유국이다	-10416
▁을봤습니다	-10417
▁잘하는거지	-10418
▁지쳐보여서	-10419
왜저런선수를	-10420
▁선발아니였음	-10421
이제그만해도돼	-10422
ee	-10423
구니	-10424
근처	-10425
나왔	-10426
논란	-10427
뒤에	-10428
렸네	-10429
맡아	-10430
매번	-10431
벅차	-10432
생각	-10433
수에	-10434
오바	-10435
자로	-10436
자체	-10437
질수	-10438
칭이	-10439
팀은	-10440
피서	-10441
▁99	-10442
▁ᄀᄂ	-10443
▁가서	-10444
▁거이	-10445
▁골안	-10446
▁관여	-10447
▁꽤나	-10448
▁끝에	-10449
▁놓치	-10450
▁대책	-10451
▁덴장	-10452
▁먹히	-10453
▁몇명	-10454
▁뿐만	-10455
▁않냐	-10456
▁어처	-10457
▁에도	-10458
▁영입	-10459
▁이루	-10460
▁조옷	-10461
▁차질	-10462
▁참나	-10463
▁편임	-10464
▁포트	-10465
구니가	-10466
기오는	-10467
나라를	-10468
나왔음	-10469
는거는	-10470
사람을	-10471
슈팅이	-10472
아니라	-10473
오는거	-10474
이아닌	-10475
자체도	-10476
히있냐	-10477
>>>>	-10478
?!""	-10479
▁걷어네	-10480
▁결과는	-10481
▁결과지	-10482
▁골문에	-10483
▁그뒤에	-10484
▁그렇지	-10485
▁넣는거	-10486
▁대표해	-10487
▁뛰고있	-10488
▁맞다고	-10489
▁메시도	-10490
▁모습도	-10491
▁미드랑	-10492
▁본인의	-10493
▁살렸네	-10494
▁소수에	-10495
▁수비들	-10496
▁실수한	-10497
▁악마는	-10498
▁안보는	-10499
▁안좋고	-10500
▁없었다	-10501
▁오피서	-10502
▁월클이	-10503
▁의견이	-10504
▁있던걸	-10505
▁조예선	-10506
▁첫경기	-10507
▁최소한	-10508
▁턴오바	-10509
▁편인데	-10510
▁한방도	-10511
▁헤딩이	-10512
▁호칭이	-10513
감독논란	-10514
거같아서	-10515
규성이고	-10516
근처에선	-10517
기오는듯	-10518
맡아야지	-10519
매치에서	-10520
전사들은	-10521
▁골안으로	-10522
▁공격수는	-10523
▁날려먹는	-10524
▁놓치더라	-10525
▁대책없나	-10526
▁뛰었다고	-10527
▁많은거냐	-10528
▁몇명빼고	-10529
▁무너질수	-10530
▁바레인이	-10531
▁볼터치도	-10532
▁불안하다	-10533
▁아니라고	-10534
▁않는다면	-10535
▁오현규가	-10536
▁욕나왔음	-10537
▁유일한데	-10538
▁응원하지	-10539
▁이긴팀은	-10540
▁이루어낸	-10541
▁자체라고	-10542
▁쫄깃하나	-10543
▁포트리스	-10544
▁국민이라면	-10545
▁다른나라를	-10546
▁들어오는데	-10547
▁뛰고있으니	-10548
▁뛰어오는거	-10549
▁먹히는거는	-10550
▁멍청히있냐	-10551
▁보여줬다고	-10552
▁뿐만아니라	-10553
▁수비라인좀	-10554
▁양현준이고	-10555
▁어처구니가	-10556
▁오피서들이	-10557
▁올라왔나요	-10558
▁월드컵보면	-10559
▁유효슈팅이	-10560
▁이재성이고	-10561
▁준결승까지	-10562
▁칭찬하는데	-10563
▁황인범으로	-10564
▁골대근처에선	-10565
▁기운기오는듯	-10566
▁날라다니더만	-10567
▁대표팀이지만	-10568
▁대한전사들은	-10569
▁아닌거같아서	-10570
▁역습상황에서	-10571
▁응원해주는게	-10572
▁조옷규성이고	-10573
사람을맡아야지	-10574
▁하이라이트로만	-10575
▁하이라이트인데	-10576
sg	-10577
xx	-10578
~"	-10579
▁갔	-10580
고늘	-10581
공항	-10582
기자	-10583
는소	-10584
대기	-10585
만호	-10586
말배	-10587
문임	-10588
미니	-10589
워온	-10590
있나	-10591
중국	-10592
줘봐	-10593
찬아	-10594
초크	-10595
칠만	-10596
▁xx	-10597
▁골먹	-10598
▁그땐	-10599
▁뛰지	-10600
▁많네	-10601
▁맞냐	-10602
▁사탕	-10603
▁인천	-10604
▁코치	-10605
▁하자	-10606
▁할말	-10607
▁해보	-10608
▁했음	-10609
▁호박	-10610
가서나	-10611
가즈아	-10612
나라에	-10613
들이냐	-10614
리그에	-10615
었던거	-10616
이한국	-10617
인터뷰	-10618
잘했음	-10619
초크는	-10620
했네요	-10621
!!~"	-10622
▁psg	-10623
▁가거나	-10624
▁갔다는	-10625
▁그리운	-10626
▁그중에	-10627
▁날린다	-10628
▁너희는	-10629
▁도대체	-10630
▁떄문임	-10631
▁물고늘	-10632
▁빡칠만	-10633
▁빼고는	-10634
▁싸대기	-10635
▁왜중국	-10636
▁재생이	-10637
▁진다고	-10638
▁포기한	-10639
▁히찬아	-10640
강인싸움	-10641
기자처럼	-10642
나라사람	-10643
는거보소	-10644
는소리는	-10645
말배워온	-10646
이기전에	-10647
이아니고	-10648
인터뷰때	-10649
하나줘봐	-10650
▁결승에서	-10651
▁달나라에	-10652
▁두번다시	-10653
▁박수만호	-10654
▁불었던거	-10655
▁살고있다	-10656
▁손까들은	-10657
▁안했는데	-10658
▁어디있나	-10659
▁오지마라	-10660
▁우리호주	-10661
▁유럽파가	-10662
▁이와중에	-10663
▁인천공항	-10664
▁준결승때	-10665
▁필드골은	-10666
▁해보시지	-10667
▁해줘축구	-10668
가서나하고	-10669
같은선수는	-10670
▁12:33	-10671
▁결승가즈아	-10672
▁마크안하네	-10673
▁물고늘어지	-10674
▁빡칠만할듯	-10675
▁손흥민두고	-10676
▁외국에서는	-10677
▁인간이기를	-10678
▁존나잘했음	-10679
▁중국이한국	-10680
▁즐비하다고	-10681
▁헤어초크는	-10682
말배워온건가	-10683
▁사탕하나줘봐	-10684
▁어느나라사람	-10685
▁왜중국리그에	-10686
▁유럽파했네요	-10687
▁중국기자처럼	-10688
▁코치이기전에	-10689
▁할말있습니다	-10690
강인싸움때문에	-10691
▁손흥민같은선수는	-10692
▁달나라에가서나하고	-10693
▁물고늘어지는거보소	-10694
▁어느나라사람들이냐	-10695
▁손흥민이강인싸움때문에	-10696
▁중국이한국말배워온건가	-10697
▁랄	-10698
▁멸	-10699
▁섭	-10700
▁탁	-10701
가치	-10702
경쟁	-10703
금씩	-10704
넘는	-10705
던듯	-10706
동무	-10707
말곤	-10708
망치	-10709
미나	-10710
벌려	-10711
산다	-10712
산을	-10713
생을	-10714
생자	-10715
성기	-10716
스태	-10717
씩조	-10718
외했	-10719
자질	-10720
진구	-10721
츠고	-10722
케인	-10723
하사	-10724
:10	-10725
;;;	-10726
▁간다	-10727
▁근무	-10728
▁노란	-10729
▁뛸때	-10730
▁랄을	-10731
▁믿는	-10732
▁손이	-10733
▁시장	-10734
▁싫다	-10735
▁싸운	-10736
▁쓸대	-10737
▁아이	-10738
▁양팔	-10739
▁얻게	-10740
▁요구	-10741
▁웃겨	-10742
▁저를	-10743
▁족쳐	-10744
▁족칠	-10745
▁주셨	-10746
▁탄식	-10747
▁하려	-10748
▁하심	-10749
▁협회	-10750
▁확인	-10751
부터좀	-10752
생자를	-10753
스태프	-10754
스템이	-10755
아니다	-10756
안가네	-10757
에서의	-10758
이니라	-10759
▁190	-10760
▁20%	-10761
▁기본기	-10762
▁기본이	-10763
▁기회는	-10764
▁나온다	-10765
▁나이도	-10766
▁날개인	-10767
▁다만들	-10768
▁더럽게	-10769
▁멸망치	-10770
▁섭외했	-10771
▁성적만	-10772
▁세상을	-10773
▁손웅정	-10774
▁실력은	-10775
▁애들이	-10776
▁여진구	-10777
▁영생을	-10778
▁이처럼	-10779
▁자마다	-10780
▁전성기	-10781
▁지원은	-10782
▁팀에게	-10783
▁한건지	-10784
▁해설자	-10785
▁협회를	-10786
경쟁하고	-10787
고있는데	-10788
되어있다	-10789
씩조금씩	-10790
케인이랑	-10791
트래핑은	-10792
▁공격수야	-10793
▁국대에선	-10794
▁국대자질	-10795
▁낳고싶다	-10796
▁노련미나	-10797
▁당하는지	-10798
▁독생자를	-10799
▁될때까지	-10800
▁많았던듯	-10801
▁본받아야	-10802
▁볼트래핑	-10803
▁사랑하사	-10804
▁수비수야	-10805
▁시스템이	-10806
▁시장가치	-10807
▁싸운거나	-10808
▁쓸대없는	-10809
▁아무래도	-10810
▁아쉬운것	-10811
▁양팔벌려	-10812
▁어깨동무	-10813
▁요구하는	-10814
▁음바페랑	-10815
▁잘하지만	-10816
▁족쳐야지	-10817
▁족칠려면	-10818
▁좋아하고	-10819
▁주셨으니	-10820
▁즐비한대	-10821
▁지금부터	-10822
▁축구협회	-10823
▁친구인지	-10824
▁하나님이	-10825
▁하는거야	-10826
▁하지마라	-10827
▁헤딩말곤	-10828
▁흥민이가	-10829
▁흥민이는	-10830
줄알았네ᄒ	-10831
▁11:10	-10832
▁근무입니다	-10833
▁다만들었네	-10834
▁떨어지더라	-10835
▁마찬가지임	-10836
▁섭외했는지	-10837
▁아이들에게	-10838
▁안되어있는	-10839
▁어디안가네	-10840
▁연습부터좀	-10841
▁우리나라의	-10842
▁전성기보다	-10843
▁클리스만에	-10844
▁하심이니라	-10845
▁국대경기보면	-10846
▁득점경쟁하고	-10847
▁본받아야할듯	-10848
▁잘못되어있다	-10849
▁조금씩조금씩	-10850
▁해리케인이랑	-10851
▁떨어지고있는데	-10852
▁날개인줄알았네ᄒ	-10853
ᅮ두	-10854
▁니	-10855
건치	-10856
굘때	-10857
기대	-10858
넣네	-10859
놈의	-10860
마냥	-10861
뭐해	-10862
배는	-10863
분쯤	-10864
빠짐	-10865
빨리	-10866
살기	-10867
설은	-10868
알이	-10869
앗냐	-10870
였나	-10871
이긴	-10872
츠는	-10873
하냐	-10874
형중	-10875
ᅡ져야	-10876
▁ᄌ같	-10877
▁간게	-10878
▁갓음	-10879
▁도박	-10880
▁둘다	-10881
▁마냥	-10882
▁말해	-10883
▁못놓	-10884
▁뭐니	-10885
▁배워	-10886
▁스트	-10887
▁실존	-10888
▁않네	-10889
▁억까	-10890
▁왜케	-10891
▁코다	-10892
건치네	-10893
기대됨	-10894
들중에	-10895
라이크	-10896
안간다	-10897
안한거	-10898
않했음	-10899
알이와	-10900
앞에서	-10901
오지도	-10902
차기가	-10903
▁감스트	-10904
▁감전된	-10905
▁개고생	-10906
▁거였나	-10907
▁김형중	-10908
▁답이야	-10909
▁더ᅮ두	-10910
▁뚫리고	-10911
▁막앗냐	-10912
▁뭐하냐	-10913
▁운빨로	-10914
▁이긴건	-10915
▁저놈의	-10916
▁전부임	-10917
▁전설은	-10918
▁짤라야	-10919
▁첫굘때	-10920
▁최고지	-10921
▁포기함	-10922
▁필살기	-10923
▁해설원	-10924
디어빠짐	-10925
많이넣네	-10926
안한거야	-10927
▁4:44	-10928
▁ᄌ같다고	-10929
▁ᄏᄏ계속	-10930
▁각도에서	-10931
▁경질하자	-10932
▁과정이니	-10933
▁국대들이	-10934
▁눈물나냐	-10935
▁도박으로	-10936
▁들어가네	-10937
▁말해뭐해	-10938
▁못놓어서	-10939
▁박알이와	-10940
▁보고있네	-10941
▁사람마냥	-10942
▁수비하러	-10943
▁스포츠는	-10944
▁실존했다	-10945
▁전술이니	-10946
▁좋겠다고	-10947
▁코다리는	-10948
▁하루빨리	-10949
▁감아차기가	-10950
▁개고생하고	-10951
▁골문앞에서	-10952
▁교체로넣고	-10953
▁내려오지도	-10954
▁멤버들중에	-10955
▁스트라이크	-10956
▁실수않했음	-10957
▁안보고싶음	-10958
▁이해안간다	-10959
▁전설은계속	-10960
▁조규성이드	-10961
▁필살기같은	-10962
▁ᄌᄂ많이넣네	-10963
▁기용안한거야	-10964
▁더ᅮ두ᅡ져야	-10965
▁들어가고나서	-10966
▁보여주는데도	-10967
▁양현준기대됨	-10968
▁ᄏᄏᄏᄏᄏ그냥	-10969
▁경질하자는애들	-10970
▁막앗냐ᄏᄏᄏᄏ	-10971
▁조규성이드디어빠짐	-10972
▁짓	-10973
▁취	-10974
▁핑	-10975
걸까	-10976
겨서	-10977
겨진	-10978
계로	-10979
계보	-10980
고차	-10981
근을	-10982
길한	-10983
녀문	-10984
년간	-10985
놔야	-10986
는가	-10987
니고	-10988
도적	-10989
때가	-10990
또한	-10991
력없	-10992
롭고	-10993
름길	-10994
리잘	-10995
린건	-10996
멸로	-10997
멸의	-10998
못히	-10999
받고	-11000
밥을	-11001
법부	-11002
법원	-11003
분할	-11004
성시	-11005
수성	-11006
순간	-11007
스로	-11008
습을	-11009
안을	-11010
안해	-11011
야제	-11012
우는	-11013
우즈	-11014
월세	-11015
위를	-11016
유재	-11017
자꾸	-11018
족소	-11019
좋게	-11020
짓을	-11021
찾기	-11022
코어	-11023
풀백	-11024
호해	-11025
혼할	-11026
▁)!	-11027
▁vs	-11028
▁고집	-11029
▁구으	-11030
▁금족	-11031
▁기량	-11032
▁나무	-11033
▁내는	-11034
▁내립	-11035
▁넣네	-11036
▁답은	-11037
▁되고	-11038
▁듣고	-11039
▁듣기	-11040
▁마당	-11041
▁맞게	-11042
▁모는	-11043
▁무고	-11044
▁배심	-11045
▁범죄	-11046
▁벤치	-11047
▁부디	-11048
▁성을	-11049
▁세입	-11050
▁어휴	-11051
▁위한	-11052
▁일은	-11053
▁재산	-11054
▁저자	-11055
▁정의	-11056
▁좋와	-11057
▁주었	-11058
▁진주	-11059
▁천거	-11060
▁취지	-11061
▁침해	-11062
▁현실	-11063
게임이	-11064
고차도	-11065
김영권	-11066
나라는	-11067
내용이	-11068
놔야돼	-11069
라고요	-11070
못히지	-11071
법부는	-11072
법원이	-11073
성시합	-11074
숨겨진	-11075
이나라	-11076
자린데	-11077
정도로	-11078
포일뿐	-11079
하고있	-11080
하기도	-11081
할거면	-11082
화하고	-11083
흥민이	-11084
▁감수성	-11085
▁건전한	-11086
▁걸려서	-11087
▁걸리지	-11088
▁고안해	-11089
▁공로가	-11090
▁국가가	-11091
▁국가는	-11092
▁국가의	-11093
▁기본권	-11094
▁나라가	-11095
▁되어야	-11096
▁되었지	-11097
▁마님은	-11098
▁무거운	-11099
▁민족소	-11100
▁믿어야	-11101
▁받나요	-11102
▁발린거	-11103
▁발린건	-11104
▁방안을	-11105
▁보는중	-11106
▁보호해	-11107
▁불길한	-11108
▁사람만	-11109
▁사회통	-11110
▁상식에	-11111
▁성인지	-11112
▁세우는	-11113
▁스스로	-11114
▁스코어	-11115
▁실력에	-11116
▁아쉽네	-11117
▁악습을	-11118
▁알겠지	-11119
▁압도적	-11120
▁열녀문	-11121
▁요리잘	-11122
▁욕할거	-11123
▁운좋게	-11124
▁이니고	-11125
▁이혼할	-11126
▁인생에	-11127
▁입장에	-11128
▁있으니	-11129
▁접근을	-11130
▁지름길	-11131
▁지위를	-11132
▁질때가	-11133
▁터치를	-11134
▁특유재	-11135
▁파멸로	-11136
▁판결을	-11137
▁핑계로	-11138
▁하는것	-11139
▁한걸까	-11140
▁했다고	-11141
계보에서	-11142
김영권이	-11143
력없어서	-11144
생각나네	-11145
시대처럼	-11146
하는거냐	-11147
▁ᄌ린스만	-11148
▁ᄒᄒ자꾸	-11149
▁것입니다	-11150
▁결과보다	-11151
▁국가에서	-11152
▁그런데도	-11153
▁기분이네	-11154
▁김영권을	-11155
▁나쁜짓을	-11156
▁남자들이	-11157
▁내립니까	-11158
▁넘어가네	-11159
▁넣는것이	-11160
▁누구세요	-11161
▁누구탓을	-11162
▁드는순간	-11163
▁만들어냈	-11164
▁못합니다	-11165
▁무고하고	-11166
▁무서워서	-11167
▁배심원도	-11168
▁범죄자가	-11169
▁사법부는	-11170
▁상식적인	-11171
▁성범죄는	-11172
▁세입자가	-11173
▁신성시합	-11174
▁아닙니까	-11175
▁아직월드	-11176
▁않습니까	-11177
▁알아야제	-11178
▁어렵다고	-11179
▁어렵다는	-11180
▁없다라는	-11181
▁이정도는	-11182
▁있는거냐	-11183
▁재산분할	-11184
▁저자리는	-11185
▁적극기용	-11186
▁정의롭고	-11187
▁주십시요	-11188
▁주었는가	-11189
▁증거없이	-11190
▁증거찾기	-11191
▁짓인가요	-11192
▁처벌하는	-11193
▁처벌해야	-11194
▁최악이네	-11195
▁취지이지	-11196
▁치명적인	-11197
▁치우쳐서	-11198
▁크리스만	-11199
▁판결하고	-11200
▁판단하고	-11201
▁함께든다	-11202
▁해야할듯	-11203
게임이겨서	-11204
준비하는데	-11205
ᄏᄏᄒᄒᄒᄒ	-11206
▁감수성이란	-11207
▁개못한다고	-11208
▁경기내용이	-11209
▁고집하고있	-11210
▁공로라고요	-11211
▁눈감고차도	-11212
▁돌파하라고	-11213
▁마지막보고	-11214
▁몇번째인데	-11215
▁민족소멸의	-11216
▁믿어야하는	-11217
▁백패스하지	-11218
▁보호해줘야	-11219
▁생각하기도	-11220
▁성범죄자가	-11221
▁수비못히지	-11222
▁악마화하고	-11223
▁않았나라는	-11224
▁양현준이여	-11225
▁오른쪽풀백	-11226
▁요르단전엔	-11227
▁우리흥민이	-11228
▁잡아넣어야	-11229
▁침해입니다	-11230
▁클린스만아	-11231
▁터치정도로	-11232
▁특유재산을	-11233
▁패널티받고	-11234
▁풀백놔야돼	-11235
우즈베키스탄	-11236
▁돌파력없어서	-11237
▁사회통념으로	-11238
▁신성시합니까	-11239
▁우즈베키스탄	-11240
▁이렇게할거면	-11241
▁조선시대처럼	-11242
▁지름길입니다	-11243
▁해야하는거냐	-11244
......?!	-11245
▁들어가는자린데	-11246
▁아직월드클래스	-11247
▁ᄒᄒ자꾸생각나네	-11248
▁고집하고있는거야	-11249
▁운좋게게임이겨서	-11250
▁크로스준비하는데	-11251
▁오른쪽풀백계보에서	-11252
▁C	-11253
▁놈	-11254
▁똥	-11255
골씩	-11256
귀자	-11257
네일	-11258
력도	-11259
성주	-11260
줄탑	-11261
하죠	-11262
▁84	-11263
▁감각	-11264
▁개아	-11265
▁나랑	-11266
▁놈이	-11267
▁맛애	-11268
▁방어	-11269
▁산다	-11270
▁슛좀	-11271
▁신화	-11272
▁암걸	-11273
▁어이	-11274
▁왜있	-11275
▁원탑	-11276
▁의아	-11277
▁정복	-11278
▁폼을	-11279
▁형님	-11280
아왔네	-11281
해설은	-11282
▁김성주	-11283
▁낫겠다	-11284
▁때려라	-11285
▁똥줄탑	-11286
▁사귀자	-11287
▁시작된	-11288
▁안정환	-11289
▁이어질	-11290
▁잘했네	-11291
▁잤는데	-11292
▁저기도	-11293
▁쪽이고	-11294
▁패턴은	-11295
▁하려고	-11296
크로스도	-11297
▁개아깝다	-11298
▁개지린다	-11299
▁골먹는거	-11300
▁돌아왔네	-11301
▁박스에서	-11302
▁발리는게	-11303
▁방어하지	-11304
▁수비력도	-11305
▁안때려서	-11306
▁암걸리는	-11307
▁어이없는	-11308
▁역전하죠	-11309
▁왜있나요	-11310
▁이란이나	-11311
▁주고나서	-11312
▁첫골에서	-11313
▁카타르에	-11314
▁하나밖에	-11315
▁하는거냐	-11316
▁12:40	-11317
▁객관적으로	-11318
▁김태환선수	-11319
▁똥줄탑니다	-11320
▁시작합시다	-11321
▁안들어가는	-11322
▁역시해설은	-11323
▁연장전같이	-11324
▁개아깝다ᅲᅲᅲᅲ	-11325
ᅲ말	-11326
구만	-11327
기네	-11328
남아	-11329
놔라	-11330
들던	-11331
빼지	-11332
얼굴	-11333
었기	-11334
여대	-11335
응이	-11336
이링	-11337
지ᅲ	-11338
팬들	-11339
▁갈려	-11340
▁길목	-11341
▁넣게	-11342
▁늦고	-11343
▁듯요	-11344
▁미디	-11345
▁발생	-11346
▁빼자	-11347
▁세모	-11348
▁싶다	-11349
▁싶지	-11350
▁앞서	-11351
▁애가	-11352
▁위장	-11353
▁조용	-11354
▁차례	-11355
▁태도	-11356
▁태업	-11357
▁풀림	-11358
겨보지	-11359
골ᅲ말	-11360
년동안	-11361
당기네	-11362
덕이다	-11363
들어갈	-11364
싸움만	-11365
어야지	-11366
이는걸	-11367
이란거	-11368
판단도	-11369
필더는	-11370
하고도	-11371
하지도	-11372
▁귀여워	-11373
▁느렸다	-11374
▁다한거	-11375
▁덴마크	-11376
▁동남아	-11377
▁되려고	-11378
▁떠들던	-11379
▁떠먹여	-11380
▁띄워서	-11381
▁리그는	-11382
▁반응이	-11383
▁부정확	-11384
▁않는데	-11385
▁않았고	-11386
▁애들도	-11387
▁위험한	-11388
▁있었기	-11389
▁자리에	-11390
▁자체도	-11391
▁정도는	-11392
▁정신만	-11393
▁제치지	-11394
▁차리고	-11395
▁찾아감	-11396
▁축팬들	-11397
▁하드만	-11398
▁화이링	-11399
▁힘드네	-11400
넣어줘야	-11401
부터빼지	-11402
오오오오	-11403
▁3:10	-11404
▁갈려다가	-11405
▁그리없나	-11406
▁길목으로	-11407
▁남을텐데	-11408
▁누구더라	-11409
▁돌려보니	-11410
▁백패스만	-11411
▁아는거지	-11412
▁위장까지	-11413
▁이후부터	-11414
▁있었다면	-11415
▁정말ᄏᄏ	-11416
▁찼어야지	-11417
▁챙겨보지	-11418
▁포기부터	-11419
▁해들어갈	-11420
▁해줬으면	-11421
퍼센트인줄	-11422
▁김태환처럼	-11423
▁끌어당기네	-11424
▁다한거지ᅲ	-11425
▁떠먹이는걸	-11426
▁막혔을텐데	-11427
▁만들어주는	-11428
▁무전술이랑	-11429
▁미디필더는	-11430
▁발생하지도	-11431
▁보이는구만	-11432
▁부정확하고	-11433
▁상대선수가	-11434
▁상황판단도	-11435
▁심판덕이다	-11436
▁어깨싸움만	-11437
▁태업하고도	-11438
▁무전술이란거	-11439
▁상황이었는데	-11440
▁쑤셔넣어줘야	-11441
▁김영권부터빼지	-11442
!!!!!!!!!!	-11443
▁ᄏᄏᄏᄏᄏᄏᄏᄏᄏᄏᄏᄏᄏᄏ	-11444
BB	-11445
▁<	-11446
갔다	-11447
강못	-11448
골대	-11449
기살	-11450
꺼야	-11451
르자	-11452
만빼	-11453
무언	-11454
보시	-11455
부은	-11456
쓰지	-11457
여버	-11458
조현	-11459
지지	-11460
철서	-11461
BBC	-11462
▁만원	-11463
▁아차	-11464
▁여성	-11465
▁원툴	-11466
▁지하	-11467
▁폭언	-11468
경기엔	-11469
만빼면	-11470
무언가	-11471
병이냐	-11472
보기가	-11473
주는데	-11474
죽여버	-11475
쳤다고	-11476
▁BBC	-11477
▁경기만	-11478
▁나을듯	-11479
▁넣어라	-11480
▁백배는	-11481
▁부르자	-11482
▁야구냐	-11483
▁없어선	-11484
▁위험해	-11485
▁전술은	-11486
▁죽기살	-11487
▁쳐쓰지	-11488
▁퍼부은	-11489
강못갔다	-11490
골대까지	-11491
보시는분	-11492
이기는걸	-11493
▁눈물겹다	-11494
▁눈물나는	-11495
▁담경기엔	-11496
▁때리라고	-11497
▁무너지지	-11498
▁상황에도	-11499
▁아차하면	-11500
▁전술없이	-11501
▁제낄꺼야	-11502
▁지하철서	-11503
▁축구선수	-11504
조현병이냐	-11505
죽여버린다	-11506
;;;;;;	-11507
▁문전에서는	-11508
▁살려주는데	-11509
▁애들보기가	-11510
▁죽기살기로	-11511
▁쉽게이기는걸	-11512
▁이거보시는분	-11513
▁조레이만빼면	-11514
;;;;;;;;;;	-11515
33	-11516
ep	-11517
ᄀᄉ	-11518
ᄂ쌤	-11519
▁찌	-11520
같음	-11521
끼는	-11522
니드	-11523
듣고	-11524
랐네	-11525
랙유	-11526
레기	-11527
록바	-11528
리티	-11529
명제	-11530
벌써	-11531
쓰는	-11532
주일	-11533
커가	-11534
코치	-11535
한당	-11536
형의	-11537
epl	-11538
ᄀᄉ은	-11539
ᄌᄂ쌤	-11540
▁33	-11541
▁>>	-11542
▁과언	-11543
▁두세	-11544
▁마땅	-11545
▁졌디	-11546
▁집에	-11547
▁찌발	-11548
▁커피	-11549
▁흥이	-11550
는선수	-11551
든다고	-11552
록바네	-11553
손가락	-11554
식으로	-11555
으로만	-11556
▁epl	-11557
▁나이가	-11558
▁멋있는	-11559
▁못한다	-11560
▁미니드	-11561
▁밀리다	-11562
▁손흥이	-11563
▁승내는	-11564
▁안되나	-11565
▁일주일	-11566
▁잘한당	-11567
▁최전방	-11568
▁커피는	-11569
▁퀄리티	-11570
▁크랙유	-11571
▁클럽팀	-11572
▁키커가	-11573
명제끼는	-11574
안되네요	-11575
▁6:20	-11576
▁ᄌᄀᄉ은	-11577
▁까는애들	-11578
▁다르다고	-11579
▁못하는걸	-11580
▁선수탓을	-11581
▁쓰는것도	-11582
▁아닐까요	-11583
▁안막았음	-11584
▁찌발랐네	-11585
▁차는거봐	-11586
▁칭찬듣고	-11587
는선수에요	-11588
든다고해도	-11589
하는거로도	-11590
▁ᄌᄂᄌᄂ쌤	-11591
▁갈린다ᅲᅲ	-11592
▁과언이아닌	-11593
▁그런식으로	-11594
▁나이가벌써	-11595
▁다섯손가락	-11596
▁대표팀에서	-11597
▁마땅하다고	-11598
▁맞는건가요	-11599
▁메가커피다	-11600
▁박수받아야	-11601
▁손흥민보다	-11602
▁일주일동안	-11603
▁정우영보다	-11604
▁조현우님이	-11605
▁좋은것같음	-11606
▁퀄리티차이	-11607
▁크랙유형의	-11608
▁클린스만임	-11609
▁플레이어도	-11610
▁대표팀에서랑	-11611
▁두세명제끼는	-11612
▁미니드록바네	-11613
▁클럽팀에서랑	-11614
▁하이라이트만	-11615
▁쓰는것도아니고	-11616
▁안에든다고해도	-11617
▁이해가안되네요	-11618
▁마땅하다고봅니다	-11619
▁이정도하는거로도	-11620
▁ᄏᄏᄏᄏᄏᄏᄏᄏᄏ	-11621
▁날라다니는선수에요	-11622
▁ᄌᄂᄌᄂ쌤ᄏᄏᄏᄏᄏᄏᄏᄏ	-11623
가냐	-11624
감정	-11625
값이	-11626
격을	-11627
고마	-11628
까여	-11629
나냐	-11630
답이	-11631
떄려	-11632
량해	-11633
런을	-11634
르서	-11635
많으	-11636
밥그	-11637
법자	-11638
서로	-11639
속이	-11640
야에	-11641
영광	-11642
워여	-11643
차냐	-11644
치껏	-11645
탈락	-11646
▁ok	-11647
▁결집	-11648
▁그심	-11649
▁누적	-11650
▁더미	-11651
▁동선	-11652
▁뛸지	-11653
▁만날	-11654
▁뭐임	-11655
▁벅차	-11656
▁세부	-11657
▁얘도	-11658
▁요약	-11659
▁일만	-11660
▁있냐	-11661
▁재현	-11662
▁카티	-11663
▁평가	-11664
감정은	-11665
값이괜	-11666
다했던	-11667
량해전	-11668
많으셨	-11669
스에서	-11670
애국가	-11671
어버림	-11672
템포씩	-11673
현석은	-11674
힘니다	-11675
<<<<	-11676
▁ᄅᄋ로	-11677
▁간격을	-11678
▁경험치	-11679
▁골넣을	-11680
▁골대만	-11681
▁공격시	-11682
▁그냥은	-11683
▁김영광	-11684
▁끝나면	-11685
▁남았네	-11686
▁너희들	-11687
▁넣어도	-11688
▁눈치껏	-11689
▁늦다가	-11690
▁당하노	-11691
▁만들고	-11692
▁많이함	-11693
▁못가지	-11694
▁무법자	-11695
▁문제점	-11696
▁벌리는	-11697
▁슛하면	-11698
▁시키는	-11699
▁실점할	-11700
▁안떄려	-11701
▁약속이	-11702
▁어디로	-11703
▁어려서	-11704
▁억까를	-11705
▁역시다	-11706
▁원툴이	-11707
▁일본과	-11708
▁재능은	-11709
▁정리가	-11710
▁좁히는	-11711
▁진거나	-11712
▁차이로	-11713
▁찬스가	-11714
▁침투나	-11715
▁혼나냐	-11716
▁확실해	-11717
▁황야에	-11718
고마워여	-11719
너무고생	-11720
름값이괜	-11721
얼굴보니	-11722
홍현석은	-11723
히있는게	-11724
▁감독한테	-11725
▁개발이라	-11726
▁걷어차냐	-11727
▁그심정이	-11728
▁노량해전	-11729
▁답이없다	-11730
▁더미런을	-11731
▁든든하다	-11732
▁멍청하게	-11733
▁뭐하는데	-11734
▁박용우는	-11735
▁반템포씩	-11736
▁붙어줘야	-11737
▁세부전술	-11738
▁안나가고	-11739
▁안되어있	-11740
▁이감정은	-11741
▁있는거지	-11742
▁좋아하지	-11743
▁카티르서	-11744
▁해외가냐	-11745
▁후반까지	-11746
부를때마다	-11747
▁경기력으론	-11748
▁공격수에게	-11749
▁김영광선수	-11750
▁벅차오르는	-11751
▁손흥민존은	-11752
▁안되어있네	-11753
▁<<<<<<	-11754
▁원툴이냐ᄏᄏ	-11755
▁최선을다했던	-11756
너무고생많으셨	-11757
우리대표선수들	-11758
히있는게아니다	-11759
▁붙어줘야하는데	-11760
▁안되어있으니까	-11761
애국가부를때마다	-11762
▁대체ᄏᄏᄏᄏᄏᄏ	-11763
▁손흥민이름값이괜	-11764
▁손흥민이름값이괜히있는게아니다	-11765
aw	-11766
ew	-11767
▁ᄂ	-11768
▁촉	-11769
▁커	-11770
견될	-11771
구석	-11772
나감	-11773
나임	-11774
다보	-11775
동작	-11776
딱도	-11777
라에	-11778
래가	-11779
리골	-11780
리며	-11781
무관	-11782
보임	-11783
부석	-11784
생과	-11785
실패	-11786
안에	-11787
았고	-11788
인방	-11789
자는	-11790
재명	-11791
종차	-11792
주기	-11793
지랄	-11794
차림	-11795
피한	-11796
하긴	-11797
한텐	-11798
ooo	-11799
▁가격	-11800
▁국미	-11801
▁들고	-11802
▁먼산	-11803
▁몸사	-11804
▁빠져	-11805
▁뻗어	-11806
▁사악	-11807
▁에휴	-11808
▁외교	-11809
▁움츠	-11810
▁촉망	-11811
▁커서	-11812
▁타점	-11813
▁흔드	-11814
그러지	-11815
글자로	-11816
는거만	-11817
다보듯	-11818
동작이	-11819
떨어지	-11820
려하고	-11821
리에서	-11822
마비로	-11823
만가서	-11824
발리골	-11825
발이긴	-11826
별이러	-11827
부석이	-11828
성이나	-11829
소생과	-11830
스럽다	-11831
시대에	-11832
이러슈	-11833
이런팀	-11834
좋았음	-11835
피한애	-11836
awin	-11837
eeew	-11838
▁Koo	-11839
▁ᄃ지게	-11840
▁골들어	-11841
▁국대라	-11842
▁나는게	-11843
▁다해줌	-11844
▁단어는	-11845
▁든든함	-11846
▁들어도	-11847
▁등딱도	-11848
▁마라도	-11849
▁맞지만	-11850
▁몇개냐	-11851
▁못차림	-11852
▁박지성	-11853
▁발목을	-11854
▁방구석	-11855
▁보려고	-11856
▁비견될	-11857
▁빼야함	-11858
▁선수지	-11859
▁실력도	-11860
▁실수는	-11861
▁에라이	-11862
▁이름만	-11863
▁이재명	-11864
▁이지랄	-11865
▁인종차	-11866
▁일부러	-11867
▁장래가	-11868
▁저사람	-11869
▁전세계	-11870
▁죽는거	-11871
▁지금도	-11872
▁찰라에	-11873
▁최고는	-11874
▁침투도	-11875
실패해서	-11876
키자체도	-11877
하긴했던	-11878
▁ᄂ이러슈	-11879
▁ᄏᄏᄏ하	-11880
▁가격하네	-11881
▁감독으로	-11882
▁고생했고	-11883
▁골문으로	-11884
▁공피한애	-11885
▁괜찮았고	-11886
▁그만해라	-11887
▁그시대에	-11888
▁김민재는	-11889
▁대체자로	-11890
▁따로없네	-11891
▁뚫어놓고	-11892
▁뛰어줬음	-11893
▁말하겠다	-11894
▁망부석이	-11895
▁맞추려고	-11896
▁몸사리는	-11897
▁못하드라	-11898
▁보고있음	-11899
▁분석적인	-11900
▁빠져나감	-11901
▁사회자는	-11902
▁상당히큼	-11903
▁세계선수	-11904
▁역동작이	-11905
▁영입한게	-11906
▁올려주기	-11907
▁움츠리며	-11908
▁유럽가서	-11909
▁이러는데	-11910
▁지나가는	-11911
▁짤라가는	-11912
▁차범근임	-11913
▁처다보듯	-11914
▁촉망된다	-11915
▁카드였음	-11916
▁크로스로	-11917
▁크로스에	-11918
▁호주전엔	-11919
발이긴한데	-11920
별이러는데	-11921
>>>>>>	-11922
oooore	-11923
▁나왔었으면	-11924
▁다섯글자로	-11925
▁뒤로만가서	-11926
▁때리는거지	-11927
▁마라도나임	-11928
▁못넣었어서	-11929
▁부담스럽다	-11930
▁심장마비로	-11931
▁아주좋았음	-11932
▁역사상이란	-11933
▁올라갔으면	-11934
▁전반발리골	-11935
▁전반이였음	-11936
▁조규성보다	-11937
▁조규성한텐	-11938
▁좋았을거임	-11939
▁천운소생과	-11940
▁천운이라고	-11941
▁타점자체도	-11942
▁흔드는거만	-11943
▁힘들거같음	-11944
이런팀상대로	-11945
▁걷어내려하고	-11946
▁골들어가는데	-11947
▁더잘하긴했던	-11948
▁비견될만하다	-11949
▁영입실패해서	-11950
▁이지랄하는데	-11951
▁호주선수들이	-11952
eeewawin	-11953
▁>>>>>>>	-11954
▁맞추려고하니까	-11955
▁세모발이긴한데	-11956
▁못넣었어서그러지	-11957
▁인종차별이러는데	-11958
▁하이라이트만봐도	-11959
▁Koooooore	-11960
▁ᄏᄏᄏ이런팀상대로	-11961
▁더잘하긴했던거같음	-11962
▁ᄏᄏᄏᄏᄏᄏᄏᄏᄏᄏᄏᄏᄏᄏᄏ	-11963
간결	-11964
관여	-11965
구먼	-11966
대야	-11967
데다	-11968
들고	-11969
받냐	-11970
받어	-11971
배들	-11972
빼자	-11973
승에	-11974
쓰자	-11975
어만	-11976
어시	-11977
용지	-11978
우팅	-11979
이자	-11980
적을	-11981
졌노	-11982
족들	-11983
직접	-11984
토마	-11985
ᅮ엄청	-11986
▁개느	-11987
▁난생	-11988
▁못즐	-11989
▁뭐라	-11990
▁배운	-11991
▁분량	-11992
▁불켜	-11993
▁싫음	-11994
▁쓰고	-11995
▁앉아	-11996
▁약함	-11997
▁어우	-11998
▁오죽	-11999
▁제출	-12000
▁지르	-12001
▁차면	-12002
간결함	-12003
년때도	-12004
백들고	-12005
벅차오	-12006
빼니까	-12007
빼자좀	-12008
이자나	-12009
하나도	-12010
하는건	-12011
했다고	-12012
▁;;;	-12013
▁걸리면	-12014
▁골넣고	-12015
▁골이야	-12016
▁널렸고	-12017
▁대중이	-12018
▁되는걸	-12019
▁많은데	-12020
▁못넣어	-12021
▁미토마	-12022
▁배워야	-12023
▁빈데다	-12024
▁샤우팅	-12025
▁써라고	-12026
▁악센트	-12027
▁예상은	-12028
▁욕먹음	-12029
▁있구먼	-12030
▁있다가	-12031
▁저기가	-12032
▁저만큼	-12033
▁중계냐	-12034
▁지적을	-12035
▁페이가	-12036
▁하지마	-12037
▁해설을	-12038
▁후배들	-12039
가는속도	-12040
관여해서	-12041
어시받어	-12042
연장으로	-12043
있는다고	-12044
▁3:18	-12045
▁7:35	-12046
▁감독인가	-12047
▁개느리고	-12048
▁그러는지	-12049
▁극장승에	-12050
▁기대할수	-12051
▁김민재도	-12052
▁나이먹고	-12053
▁못즐기고	-12054
▁뭐라하면	-12055
▁배운대로	-12056
▁분량으로	-12057
▁불켜졌노	-12058
▁뽑지마라	-12059
▁살짝아쉬	-12060
▁역습따라	-12061
▁오죽하면	-12062
▁욕하니까	-12063
▁윙백쓰자	-12064
▁전술없다	-12065
▁조선족들	-12066
▁지르는거	-12067
▁한준희지	-12068
▁홍현석도	-12069
마크안하고	-12070
벅차오른다	-12071
유도했지만	-12072
▁ᄅᄋ간결함	-12073
▁괜찮은건가	-12074
▁마크하나도	-12075
▁뭐하는거야	-12076
▁박용우한테	-12077
▁어어어어만	-12078
▁올라왔더만	-12079
▁제출하세요	-12080
▁지적을받냐	-12081
▁혼자하는건	-12082
백들고나오고	-12083
직접관여해서	-12084
▁김태환빼자좀	-12085
▁마크안했다고	-12086
▁부담스러운데	-12087
▁앉아있는다고	-12088
▁조규성빼니까	-12089
▁클린스만ᄏᄏ	-12090
▁가슴벅차오른다	-12091
▁보고있네ᄏᄏᄏ	-12092
▁살짝아쉬었지만	-12093
▁손흥민존이자나	-12094
▁지르는거ᅮ엄청	-12095
▁역습따라가는속도	-12096
▁상대선수마크안하고	-12097
격대	-12098
곡의	-12099
과를	-12100
다리	-12101
라진	-12102
려있	-12103
리들	-12104
리를	-12105
뭔데	-12106
부처	-12107
분위	-12108
분활	-12109
살남	-12110
엔진	-12111
왤캐	-12112
이끈	-12113
정과	-12114
차대	-12115
티피	-12116
▁개네	-12117
▁개쓰	-12118
▁그외	-12119
▁너네	-12120
▁다룰	-12121
▁되내	-12122
▁떨게	-12123
▁막히	-12124
▁빨로	-12125
▁뻔히	-12126
▁뽑았	-12127
▁살떨	-12128
▁아흐	-12129
▁어거	-12130
▁오랜	-12131
▁졸잼	-12132
▁천수	-12133
▁킹갓	-12134
격대장	-12135
곡의벽	-12136
엄청난	-12137
티피야	-12138
호주의	-12139
▁가지고	-12140
▁기분탓	-12141
▁다리를	-12142
▁달라진	-12143
▁만드니	-12144
▁멤버를	-12145
▁몸살남	-12146
▁물리고	-12147
▁받쳐줄	-12148
▁밤마다	-12149
▁배워라	-12150
▁부족함	-12151
▁빠지고	-12152
▁성과를	-12153
▁안주는	-12154
▁어디감	-12155
▁여전한	-12156
▁열려있	-12157
▁전술을	-12158
▁좋을듯	-12159
▁지각을	-12160
▁쳐다만	-12161
▁최고에	-12162
▁최악에	-12163
▁치면서	-12164
▁풀백이	-12165
▁한국어	-12166
떨어지던	-12167
분위기가	-12168
분활용이	-12169
이라고는	-12170
▁개개인이	-12171
▁개쓰레기	-12172
▁겁나차대	-12173
▁김태환쪽	-12174
▁능력으로	-12175
▁댓글이네	-12176
▁돌격대장	-12177
▁두번했어	-12178
▁들어갈때	-12179
▁막히니까	-12180
▁미드엔진	-12181
▁비교되는	-12182
▁뽑았기에	-12183
▁사우디의	-12184
▁살떨리게	-12185
▁상당했음	-12186
▁선수들로	-12187
▁승리이끈	-12188
▁어거지로	-12189
▁오랜만에	-12190
▁졸잼인데	-12191
▁짤라야함	-12192
▁천수부처	-12193
▁통곡의벽	-12194
▁해설뭔데	-12195
▁호주왤캐	-12196
▁그럼엄청난	-12197
▁다룰줄알고	-12198
▁부족해보임	-12199
▁스포티피야	-12200
▁실력으로만	-12201
▁열려있는데	-12202
▁의아하네요	-12203
▁좋을듯한데	-12204
▁침대축구와	-12205
▁킹갓호주의	-12206
▁홍민이형만	-12207
▁홍민이형이	-12208
▁게임분위기가	-12209
▁기분탓인가요	-12210
▁만들어냈는데	-12211
▁만들어냈었음	-12212
▁전술이라고는	-12213
▁겁나차대는거지	-12214
▁아시안컵이었다	-12215
겹네	-12216
근데	-12217
납다	-12218
런건	-12219
력은	-12220
발은	-12221
본에	-12222
분도	-12223
설정	-12224
성지	-12225
여진	-12226
이의	-12227
짜리	-12228
차려	-12229
▁ᄉᄉ	-12230
▁가설	-12231
▁개꿀	-12232
▁개판	-12233
▁뚫릴	-12234
▁뛰면	-12235
▁머노	-12236
▁반짝	-12237
▁배당	-12238
▁여튼	-12239
▁의해	-12240
▁자격	-12241
▁전문	-12242
▁지들	-12243
▁차별	-12244
▁토쟁	-12245
꾸라질	-12246
대면서	-12247
르는건	-12248
멋들은	-12249
선발은	-12250
없으면	-12251
여대라	-12252
왔는지	-12253
좋은디	-12254
하고는	-12255
하는것	-12256
해했음	-12257
▁ᄌ됐다	-12258
▁가겠네	-12259
▁각본에	-12260
▁감놔라	-12261
▁것들이	-12262
▁괴성지	-12263
▁그만좀	-12264
▁니들이	-12265
▁담력은	-12266
▁듣기거	-12267
▁메시들	-12268
▁배놔라	-12269
▁보냈고	-12270
▁사납다	-12271
▁손까들	-12272
▁손으로	-12273
▁승부가	-12274
▁싸우고	-12275
▁아닌듯	-12276
▁역겹네	-12277
▁연습좀	-12278
▁일본은	-12279
▁정답이	-12280
▁짜여진	-12281
▁채는거	-12282
▁클리토	-12283
성이런건	-12284
여대는지	-12285
▁개꿀이다	-12286
▁개못해서	-12287
▁개판이긴	-12288
▁결정되는	-12289
▁뚫릴텐데	-12290
▁라인설정	-12291
▁보는내내	-12292
▁아니근데	-12293
▁오현규는	-12294
▁자격이나	-12295
▁정신차려	-12296
▁지들끼리	-12297
▁토쟁이의	-12298
아니였으면	-12299
▁12:52	-12300
▁다행이지만	-12301
▁답답하더라	-12302
▁반짝하고는	-12303
▁안나왔는지	-12304
▁어어어어어	-12305
▁의아해했음	-12306
▁정말아니다	-12307
▁조규성처럼	-12308
▁진짜좋은디	-12309
▁차별하는것	-12310
오오오오오오	-12311
▁괴성지르는건	-12312
▁김민재없으면	-12313
▁전문성이런건	-12314
▁조규성선발은	-12315
▁진짜ᄏᄏᄏᄏ	-12316
▁클리토리스만	-12317
▁조현우아니였으면	-12318
zz	-12319
▁캐	-12320
가튼	-12321
같네	-12322
겁나	-12323
다대	-12324
배한	-12325
버지	-12326
상들	-12327
스터	-12328
와라	-12329
을수	-12330
잉인	-12331
질러	-12332
코칭	-12333
and	-12334
ied	-12335
our	-12336
▁개족	-12337
▁괴음	-12338
▁눈이	-12339
▁도움	-12340
▁발림	-12341
▁비명	-12342
▁사진	-12343
▁속이	-12344
▁수영	-12345
▁아침	-12346
▁울산	-12347
▁자원	-12348
▁장사	-12349
▁한데	-12350
다대지	-12351
▁Zzz	-12352
▁감정과	-12353
▁끝났다	-12354
▁넘하네	-12355
▁도배한	-12356
▁드럽게	-12357
▁듣기가	-12358
▁머리만	-12359
▁못잡고	-12360
▁발로도	-12361
▁뽑을수	-12362
▁아니야	-12363
▁암이고	-12364
▁없다한	-12365
▁없어요	-12366
▁영상들	-12367
▁잘넣는	-12368
▁캐스터	-12369
▁클버지	-12370
▁한분이	-12371
▁해줘서	-12372
겁나질러	-12373
영상보니	-12374
와라ᄏᄏ	-12375
▁감독빼고	-12376
▁개족가튼	-12377
▁고맙기는	-12378
▁국대코칭	-12379
▁그만하자	-12380
▁듣다보니	-12381
▁메시같네	-12382
▁미치겠네	-12383
▁비명소리	-12384
▁사진으로	-12385
▁수영해서	-12386
▁시원하네	-12387
▁일본탈락	-12388
▁입다물자	-12389
▁자원인데	-12390
▁집중하고	-12391
▁한준희의	-12392
다대지말고	-12393
스태프분들	-12394
ourand	-12395
▁감정과잉인	-12396
▁경기봤으면	-12397
▁공격수로서	-12398
▁소리겁나질러	-12399
▁진짜영상보니	-12400
▁가져다대지말고	-12401
▁수영해서와라ᄏᄏ	-12402
▁국대코칭스태프분들	-12403
▁ᄏᄏᄏᄏᄏᄏᄏᄏᄏᄏᄏᄏ	-12404
ᅳᅳ	-12405
ᅳ돈	-12406
ᅳ왜	-12407
▁군	-12408
▁맡	-12409
▁죄	-12410
가르	-12411
간의	-12412
강한	-12413
거수	-12414
것같	-12415
경에	-12416
교해	-12417
그런	-12418
냐면	-12419
대보	-12420
러를	-12421
마에	-12422
만불	-12423
만이	-12424
먹는	-12425
못간	-12426
받게	-12427
부로	-12428
뺴면	-12429
설렁	-12430
성은	-12431
손과	-12432
손한	-12433
수있	-12434
습게	-12435
싫어	-12436
완성	-12437
일투	-12438
잇노	-12439
정책	-12440
정한	-12441
주십	-12442
항서	-12443
혔다	-12444
화가	-12445
:15	-12446
▁"4	-12447
▁국뽕	-12448
▁그것	-12449
▁끝남	-12450
▁낫다	-12451
▁낭비	-12452
▁너가	-12453
▁너는	-12454
▁너의	-12455
▁대하	-12456
▁된다	-12457
▁두명	-12458
▁때문	-12459
▁물병	-12460
▁상처	-12461
▁수가	-12462
▁슛도	-12463
▁쓰레	-12464
▁안아	-12465
▁죄송	-12466
▁주시	-12467
▁터질	-12468
▁퇴출	-12469
▁해당	-12470
가르칠	-12471
강탈락	-12472
강한자	-12473
것이다	-12474
규성좀	-12475
냅시다	-12476
대표를	-12477
딱이랑	-12478
먹잇다	-12479
비교해	-12480
사람의	-12481
성경에	-12482
손하자	-12483
손할수	-12484
애들이	-12485
왜냐면	-12486
이것은	-12487
인간의	-12488
일투족	-12489
자원이	-12490
팬들이	-12491
하나를	-12492
ᅳ돈먹는	-12493
▁ᄌ같이	-12494
▁감독을	-12495
▁감정을	-12496
▁골결이	-12497
▁공정한	-12498
▁군대보	-12499
▁근본은	-12500
▁다혔다	-12501
▁달러를	-12502
▁당하고	-12503
▁많으니	-12504
▁맡아야	-12505
▁박항서	-12506
▁별로고	-12507
▁보내냐	-12508
▁불안해	-12509
▁빠지면	-12510
▁살았다	-12511
▁선수에	-12512
▁설수있	-12513
▁소홀히	-12514
▁송흥민	-12515
▁안뺴면	-12516
▁우습게	-12517
▁울화가	-12518
▁이거는	-12519
▁일거수	-12520
▁자만이	-12521
▁작대로	-12522
▁터치도	-12523
▁팬들은	-12524
▁하마에	-12525
▁하였다	-12526
▁함부로	-12527
강도못간	-12528
만불짜리	-12529
완성이다	-12530
이야말로	-12531
인방보면	-12532
정책이다	-12533
주십시다	-12534
프로선수	-12535
하게되면	-12536
하나ᅳᅳ	-12537
▁9:15	-12538
▁ᄌᄂ싫어	-12539
▁ᄌ규성좀	-12540
▁ᅳ자원이	-12541
▁교체로만	-12542
▁국대모두	-12543
▁꿀리스만	-12544
▁대하거나	-12545
▁때문이다	-12546
▁불안하고	-12547
▁사랑뿐이	-12548
▁사악하기	-12549
▁사악함을	-12550
▁상처받게	-12551
▁설렁설렁	-12552
▁순간부터	-12553
▁쓰레기라	-12554
▁안아줘라	-12555
▁외국인들	-12556
▁이긴거지	-12557
▁이재성이	-12558
▁이제성은	-12559
▁인정하지	-12560
▁있는것은	-12561
▁조규성만	-12562
▁조규성좀	-12563
▁죄송한데	-12564
▁주시하고	-12565
▁축구국가	-12566
▁터질것같	-12567
▁퇴출하고	-12568
▁트이네요	-12569
▁하지말고	-12570
▁해당되는	-12571
▁해외파외	-12572
▁호주전에	-12573
강한자만이	-12574
손할수있다	-12575
▁너무먹잇다	-12576
▁당하고잇노	-12577
▁모든사람의	-12578
▁모든인간의	-12579
▁반성하라고	-12580
▁백패스하다	-12581
▁벤치딱이랑	-12582
▁설수있다고	-12583
▁실력비교해	-12584
▁외교관이다	-12585
▁외국인한테	-12586
▁있는데ᅳ왜	-12587
▁축구팬들이	-12588
▁하나하나를	-12589
▁국내프로선수	-12590
▁국대완성이다	-12591
▁군대보냅시다	-12592
▁그것이야말로	-12593
▁기회주십시다	-12594
▁낭비하나ᅳᅳ	-12595
▁보고싶습니다	-12596
▁상대선수에게	-12597
▁외교정책이다	-12598
▁일거수일투족	-12599
▁축구선수들과	-12600
▁폭발하게되면	-12601
▁ᄌᄂ싫어하는데	-12602
▁국대모두에게도	-12603
▁맡아야ᅳ돈먹는	-12604
▁축구국가대표를	-12605
▁터질것같습니다	-12606
▁해당되는것이다	-12607
▁낭비하나ᅳᅳ가르칠	-12608
ᅳ골	-12609
▁병	-12610
▁찬	-12611
날이	-12612
념은	-12613
높은	-12614
덕방	-12615
때믄	-12616
레지	-12617
미냐	-12618
솔까	-12619
스포	-12620
실히	-12621
싫다	-12622
아도	-12623
않함	-12624
양이	-12625
에휴	-12626
엽이	-12627
예인	-12628
자들	-12629
츠가	-12630
트남	-12631
힐때	-12632
man	-12633
▁결혼	-12634
▁급변	-12635
▁니는	-12636
▁술래	-12637
▁악명	-12638
▁암울	-12639
▁온통	-12640
▁은퇴	-12641
▁좀심	-12642
▁태국	-12643
같더라	-12644
때믄에	-12645
먹지만	-12646
앞날이	-12647
양이군	-12648
완인지	-12649
잡기나	-12650
집념은	-12651
쳐먹을	-12652
하는꼴	-12653
▁개싫다	-12654
▁객관적	-12655
▁공격만	-12656
▁규성아	-12657
▁그러나	-12658
▁끝으로	-12659
▁독일도	-12660
▁뛰어라	-12661
▁말레지	-12662
▁뭐하고	-12663
▁발전이	-12664
▁베트남	-12665
▁병미냐	-12666
▁복덕방	-12667
▁부탁좀	-12668
▁성실히	-12669
▁세모인	-12670
▁쓰레기	-12671
▁아이고	-12672
▁안봤음	-12673
▁애들임	-12674
▁연예인	-12675
▁접어라	-12676
▁팀한테	-12677
▁할배는	-12678
경기력만	-12679
다니면서	-12680
불안해서	-12681
생각엽이	-12682
스포츠가	-12683
이닌하다	-12684
지도자들	-12685
▁3:24	-12686
▁거의않함	-12687
▁골먹힐때	-12688
▁나오지마	-12689
▁답답하네	-12690
▁못넣으면	-12691
▁못보겠다	-12692
▁실력으로	-12693
▁악명높은	-12694
▁안되더만	-12695
▁암울하네	-12696
▁은퇴해라	-12697
▁있는건지	-12698
▁제발ᅮᅮ	-12699
▁찬양이군	-12700
▁쳐하면서	-12701
▁급변하겠지	-12702
▁김태완인지	-12703
▁너희때믄에	-12704
▁말레지아도	-12705
▁받아먹지만	-12706
▁받아쳐먹을	-12707
▁생각으로만	-12708
▁수비하는꼴	-12709
▁술래잡기나	-12710
▁좀비축구임	-12711
▁좀심각하다	-12712
▁축구앞날이	-12713
▁축구하는데	-12714
▁한국축구의	-12715
▁결승에서ᅳ골	-12716
▁따라다니면서	-12717
▁뛰는거같더라	-12718
▁문제이닌하다	-12719
▁불안불안해서	-12720
▁아무생각엽이	-12721
▁이번아시안컵	-12722
▁축구지도자들	-12723
▁쓰레기스포츠가	-12724
▁밥	-12725
끄러	-12726
끼고	-12727
마이	-12728
빼라	-12729
살다	-12730
심을	-12731
어논	-12732
역하	-12733
온통	-12734
원의	-12735
은건	-12736
준걸	-12737
해ᄏ	-12738
혼자	-12739
▁감히	-12740
▁구려	-12741
▁못재	-12742
▁미만	-12743
▁보기	-12744
▁빠지	-12745
▁전념	-12746
▁조작	-12747
▁중립	-12748
▁투성	-12749
▁평정	-12750
산다에	-12751
어리들	-12752
어야되	-12753
역하노	-12754
완전히	-12755
정도는	-12756
해주길	-12757
▁가야지	-12758
▁그것이	-12759
▁나혼자	-12760
▁시끄러	-12761
▁시마이	-12762
▁싫은건	-12763
▁안쓰면	-12764
▁풀리네	-12765
▁해설이	-12766
강인이가	-12767
르지말고	-12768
▁감독얼굴	-12769
▁개역하노	-12770
▁공격수들	-12771
▁극적으로	-12772
▁나도해ᄏ	-12773
▁못재끼고	-12774
▁빠지니까	-12775
▁살다살다	-12776
▁수비한명	-12777
▁수준이네	-12778
▁유지하고	-12779
▁저정도는	-12780
▁전념하기	-12781
▁조작이다	-12782
▁중립적인	-12783
▁짜증나서	-12784
▁처음이네	-12785
▁투성이네	-12786
▁평정심을	-12787
▁품격이다	-12788
▁흥분하고	-12789
▁개못하더라	-12790
▁게임이었네	-12791
▁공만돌리고	-12792
▁떠먹여준걸	-12793
▁시끄러운데	-12794
▁풀리네ᄏᄏ	-12795
▁해설아닌가	-12796
▁해설위원은	-12797
▁해설위원의	-12798
▁해설해주길	-12799
▁나혼자산다에	-12800
▁조규성좀빼라	-12801
▁소리지르지말고	-12802
▁하이라이트에서	-12803
ᄇ떨	-12804
ᄐᄒ	-12805
▁짐	-12806
간수	-12807
기냐	-12808
긴햇	-12809
나음	-12810
넘고	-12811
놈도	-12812
는것	-12813
는과	-12814
리할	-12815
못한	-12816
박아	-12817
비뽑	-12818
새끼	-12819
억버	-12820
여간	-12821
이되	-12822
임값	-12823
지마	-12824
차피	-12825
천억	-12826
팀아	-12827
한적	-12828
▁ᄉᄑ	-12829
▁ᄌ나	-12830
▁구사	-12831
▁냉정	-12832
▁돈앞	-12833
▁뭐해	-12834
▁빌딩	-12835
▁빼야	-12836
▁사는	-12837
▁사서	-12838
▁아오	-12839
▁조축	-12840
▁주서	-12841
▁피곤	-12842
▁피도	-12843
▁한해	-12844
겠는데	-12845
규성은	-12846
긴햇나	-12847
너무약	-12848
된슈팅	-12849
라고만	-12850
리아와	-12851
못한건	-12852
못한다	-12853
못했음	-12854
민이는	-12855
빼고는	-12856
살짜리	-12857
처넘고	-12858
하다햇	-12859
ᄇ떨지마	-12860
▁700	-12861
▁ᄀᄐᄒ	-12862
▁간거야	-12863
▁개패스	-12864
▁결혼도	-12865
▁관리할	-12866
▁그림만	-12867
▁꼴보기	-12868
▁너네가	-12869
▁네임값	-12870
▁눈물도	-12871
▁다했네	-12872
▁다행이	-12873
▁대한민	-12874
▁못한거	-12875
▁미래는	-12876
▁미스코	-12877
▁볼간수	-12878
▁사실임	-12879
▁살까지	-12880
▁수십채	-12881
▁수천억	-12882
▁어차피	-12883
▁이놈도	-12884
▁재산을	-12885
▁절었고	-12886
▁제비뽑	-12887
▁처박아	-12888
▁파리면	-12889
▁하여간	-12890
▁한명이	-12891
개넣은거	-12892
는과정과	-12893
떨어지네	-12894
슈팅파워	-12895
억버는것	-12896
▁개린스만	-12897
▁거의없고	-12898
▁결혼할듯	-12899
▁구사하는	-12900
▁김민재니	-12901
▁냉정하게	-12902
▁답답해서	-12903
▁도움이되	-12904
▁못하는데	-12905
▁못하니까	-12906
▁못하더라	-12907
▁변화구를	-12908
▁보는데도	-12909
▁부탁이다	-12910
▁빌런새끼	-12911
▁빼야한다	-12912
▁없어보임	-12913
▁원툴팀아	-12914
▁이게나음	-12915
▁이겼지만	-12916
▁주서먹을	-12917
▁중거리슛	-12918
너무약하고	-12919
된슈팅한적	-12920
라고만하고	-12921
정말못한건	-12922
하다햇지만	-12923
▁ᄋᄇ떨지마	-12924
▁ᄌᄂ못했음	-12925
▁관리할지가	-12926
▁너무못한다	-12927
▁돈앞에서는	-12928
▁모르겠는데	-12929
▁못한거맞음	-12930
▁이강인이니	-12931
▁제비뽑기냐	-12932
▁처박아대고	-12933
강까지가는데	-12934
개넣은거말고	-12935
▁다행이겠지만	-12936
▁만드는과정과	-12937
▁미스코리아와	-12938
▁프리킥빼고는	-12939
▁도움이되긴햇나	-12940
▁이번아시안컵에	-12941
▁피곤하다햇지만	-12942
된슈팅한적도없고	-12943
▁네임값정말못한건	-12944
슈팅파워너무약하고	-12945
▁주서먹을라고만하고	-12946
▁제대로된슈팅한적도없고	-12947
뛰나	-12948
▁밥그	-12949
▁크아	-12950
잡는데	-12951
▁걸리네	-12952
▁공잡고	-12953
▁막하고	-12954
▁경기뛰나	-12955
▁기억하자	-12956
▁긴장하시고	-12957
▁안타깝지만	-12958
▁자세잡는데	-12959
"(	-12960
"️	-12961
05	-12962
07	-12963
09	-12964
27	-12965
2~	-12966
4:	-12967
52	-12968
54	-12969
56	-12970
=(	-12971
>.	-12972
MV	-12973
oa	-12974
ro	-12975
we	-12976
ye	-12977
ᄂᄌ	-12978
ᄌᄀ	-12979
ᄏᄐ	-12980
ᄏ와	-12981
ᅮ엄	-12982
ᅲ계	-12983
▁;	-12984
▁g	-12985
▁겠	-12986
▁🇰	-12987
가로	-12988
가리	-12989
가만	-12990
가설	-12991
가시	-12992
가없	-12993
가운	-12994
가즈	-12995
각도	-12996
각입	-12997
각하	-12998
각할	-12999
cu	-13000
la	-13001
ᄏ머	-13002
간게	-13003
간만	-13004
감수	-13005
강재	-13006
갖고	-13007
같아	-13008
개개	-13009
개깔	-13010
개똥	-13011
개쌉	-13012
개재	-13013
거릴	-13014
거봐	-13015
거인	-13016
거임	-13017
건이	-13018
걸려	-13019
걸작	-13020
것들	-13021
게다	-13022
게도	-13023
게할	-13024
겨낸	-13025
겨준	-13026
격에	-13027
격적	-13028
격진	-13029
격하	-13030
견인	-13031
결하	-13032
겼는	-13033
계진	-13034
고봅	-13035
고에	-13036
고잼	-13037
골넣	-13038
골들	-13039
공은	-13040
공피	-13041
광선	-13042
괜히	-13043
구대	-13044
구머	-13045
구선	-13046
구팬	-13047
구하	-13048
굳이	-13049
굴보	-13050
궁금	-13051
귀여	-13052
규도	-13053
그나	-13054
그시	-13055
그야	-13056
그중	-13057
극기	-13058
극적	-13059
금같	-13060
기까	-13061
기막	-13062
기색	-13063
기어	-13064
기오	-13065
기진	-13066
기타	-13067
기했	-13068
기회	-13069
긴해	-13070
긴힘	-13071
길래	-13072
김성	-13073
김승	-13074
깃한	-13075
깨동	-13076
깨싸	-13077
꺼버	-13078
꺼주	-13079
꿀리	-13080
꿔주	-13081
끌고	-13082
끝으	-13083
낌이	-13084
나기	-13085
나되	-13086
나일	-13087
나하	-13088
난아	-13089
난이	-13090
났던	-13091
났을	-13092
낳고	-13093
내가	-13094
내프	-13095
냈는	-13096
냉정	-13097
냥은	-13098
너졌	-13099
결되	-13100
계플	-13101
구로	-13102
국임	-13103
금치	-13104
기동	-13105
기부	-13106
꽂아	-13107
끄는	-13108
너질	-13109
넘잘	-13110
넣을	-13111
노란	-13112
노량	-13113
놀이	-13114
눈으	-13115
눈이	-13116
는대	-13117
는자	-13118
늘로	-13119
늘은	-13120
다섯	-13121
다한	-13122
다했	-13123
단때	-13124
당되	-13125
당부	-13126
대경	-13127
대까	-13128
대들	-13129
대머	-13130
대모	-13131
대박	-13132
대선	-13133
대장	-13134
더블	-13135
덕에	-13136
던게	-13137
던경	-13138
던져	-13139
도다	-13140
도없	-13141
도였	-13142
독이	-13143
돌기	-13144
돌리	-13145
동과	-13146
동남	-13147
동양	-13148
동이	-13149
동해	-13150
동했	-13151
되긴	-13152
되었	-13153
될까	-13154
두게	-13155
두에	-13156
둘이	-13157
드까	-13158
드는	-13159
드역	-13160
들로	-13161
들만	-13162
들모	-13163
듯한	-13164
등골	-13165
등으	-13166
디감	-13167
디로	-13168
딩뿐	-13169
딩원	-13170
딩이	-13171
때려	-13172
때처	-13173
떨어	-13174
라가	-13175
라야	-13176
란에	-13177
래못	-13178
래에	-13179
램입	-13180
랬더	-13181
러감	-13182
러는	-13183
러명	-13184
러운	-13185
런데	-13186
런은	-13187
럽파	-13188
렇긴	-13189
레드	-13190
려들	-13191
려움	-13192
력과	-13193
력방	-13194
력에	-13195
련미	-13196
련함	-13197
렵게	-13198
렵고	-13199
08	-13200
Pk	-13201
vp	-13202
▁T	-13203
각나	-13204
감탄	-13205
같습	-13206
골에	-13207
구도	-13208
군대	-13209
그림	-13210
글고	-13211
난거	-13212
능한	-13213
도해	-13214
뚫려	-13215
뛸지	-13216
랐을	-13217
레프	-13218
렸습	-13219
렸지	-13220
로라	-13221
로졌	-13222
료직	-13223
르게	-13224
르느	-13225
르는	-13226
르에	-13227
름답	-13228
름돋	-13229
리나	-13230
리로	-13231
리자	-13232
리짓	-13233
리킥	-13234
리토	-13235
리하	-13236
릴있	-13237
림같	-13238
립니	-13239
립람	-13240
립해	-13241
릿했	-13242
마우	-13243
마지	-13244
막음	-13245
만ᄏ	-13246
만세	-13247
만아	-13248
만안	-13249
만할	-13250
많고	-13251
많다	-13252
맙습	-13253
맥이	-13254
맨날	-13255
맨뒤	-13256
먹어	-13257
먹힐	-13258
메시	-13259
며서	-13260
멱살	-13261
면을	-13262
면좋	-13263
모른	-13264
모아	-13265
몰갰	-13266
몸싸	-13267
몸으	-13268
몸이	-13269
몸조	-13270
못살	-13271
못올	-13272
못해	-13273
못했	-13274
무거	-13275
무것	-13276
무너	-13277
무리	-13278
무시	-13279
문이	-13280
물난	-13281
물도	-13282
뭉치	-13283
뭐라	-13284
뭐임	-13285
미래	-13286
미우	-13287
미틴	-13288
민골	-13289
민과	-13290
민국	-13291
민은	-13292
민좀	-13293
민했	-13294
믿기	-13295
믿을	-13296
믿음	-13297
밀렸	-13298
바꿈	-13299
ᄒᄃ	-13300
▁벅	-13301
가까	-13302
각이	-13303
갚아	-13304
개라	-13305
게넣	-13306
고올	-13307
고하	-13308
골부	-13309
과연	-13310
관전	-13311
구죠	-13312
기려	-13313
기직	-13314
김ᄏ	-13315
내든	-13316
늘어	-13317
능하	-13318
다햇	-13319
독기	-13320
됐는	-13321
들거	-13322
따돌	-13323
때부	-13324
로고	-13325
먹게	-13326
먼저	-13327
몇년	-13328
뭐하	-13329
밀려	-13330
바꿔	-13331
바네	-13332
바로	-13333
반으	-13334
반전	-13335
발가	-13336
발목	-13337
방능	-13338
백업	-13339
백이	-13340
버린	-13341
번만	-13342
벌겋	-13343
범의	-13344
벗겨	-13345
벽축	-13346
병미	-13347
보겠	-13348
보냅	-13349
보답	-13350
보하	-13351
보호	-13352
복귀	-13353
복부	-13354
복의	-13355
복합	-13356
본기	-13357
본사	-13358
볼려	-13359
볼만	-13360
볼뿌	-13361
볼위	-13362
볼이	-13363
봅시	-13364
봐서	-13365
봐주	-13366
부디	-13367
분석	-13368
불짜	-13369
붙어	-13370
블로	-13371
비너	-13372
비단	-13373
비력	-13374
비수	-13375
비슷	-13376
비형	-13377
빛현	-13378
쁨과	-13379
사력	-13380
사악	-13381
사에	-13382
사우	-13383
사의	-13384
살떨	-13385
살려	-13386
삼을	-13387
상당	-13388
상보	-13389
상잘	-13390
상적	-13391
새삼	-13392
색했	-13393
생많	-13394
생한	-13395
서까	-13396
서는	-13397
석들	-13398
선곡	-13399
60	-13400
7.	-13401
GG	-13402
▁줘	-13403
가보	-13404
강부	-13405
괜찮	-13406
구랑	-13407
구인	-13408
그제	-13409
극장	-13410
기연	-13411
끝남	-13412
넣음	-13413
닌하	-13414
대코	-13415
던것	-13416
든사	-13417
땀방	-13418
라봅	-13419
람만	-13420
런팀	-13421
로없	-13422
리도	-13423
믄에	-13424
바람	-13425
박까	-13426
봤는	-13427
선량	-13428
선시	-13429
선임	-13430
선족	-13431
선택	-13432
설이	-13433
설탕	-13434
성도	-13435
성장	-13436
센터	-13437
셨습	-13438
셨어	-13439
소같	-13440
소개	-13441
소녀	-13442
소린	-13443
소방	-13444
소원	-13445
소처	-13446
소홀	-13447
속경	-13448
손잡	-13449
손할	-13450
손형	-13451
송면	-13452
송흥	-13453
쇼에	-13454
수다	-13455
수였	-13456
수지	-13457
수차	-13458
술은	-13459
술적	-13460
슛처	-13461
슛했	-13462
스까	-13463
스나	-13464
스밀	-13465
스식	-13466
스였	-13467
슴을	-13468
습으	-13469
승가	-13470
승길	-13471
승때	-13472
승리	-13473
승이	-13474
승컵	-13475
시도	-13476
시발	-13477
시보	-13478
식에	-13479
식재	-13480
신난	-13481
신만	-13482
신선	-13483
실에	-13484
심한	-13485
십자	-13486
싶네	-13487
싶은	-13488
싸는	-13489
쌉꿀	-13490
써야	-13491
쏘네	-13492
쏜이	-13493
쐐기	-13494
쑤셔	-13495
쓰겠	-13496
쓰레	-13497
씩봄	-13498
아나	-13499
!~	-13500
26	-13501
▁종	-13502
▁햇	-13503
간대	-13504
겠습	-13505
고입	-13506
골로	-13507
공놀	-13508
공정	-13509
구에	-13510
국의	-13511
그날	-13512
꼈습	-13513
남부	-13514
당연	-13515
데도	-13516
돈떠	-13517
드였	-13518
뚫거	-13519
런식	-13520
로된	-13521
로서	-13522
르기	-13523
면의	-13524
목터	-13525
바지	-13526
받을	-13527
발아	-13528
볼장	-13529
봤었	-13530
부끄	-13531
부모	-13532
빼주	-13533
뽑아	-13534
상깊	-13535
서그	-13536
속으	-13537
손으	-13538
심지	-13539
아무	-13540
아시	-13541
아졌	-13542
아질	-13543
아짐	-13544
아침	-13545
아팠	-13546
악바	-13547
악에	-13548
악하	-13549
안가	-13550
안겨	-13551
안되	-13552
안된	-13553
안떄	-13554
안막	-13555
안보	-13556
안쓰	-13557
안정	-13558
안주	-13559
안컵	-13560
않네	-13561
않앗	-13562
알고	-13563
알마	-13564
알못	-13565
알수	-13566
알지	-13567
앗는	-13568
았기	-13569
았지	-13570
앞으	-13571
야구	-13572
약간	-13573
약체	-13574
약함	-13575
어난	-13576
어당	-13577
어두	-13578
어둠	-13579
어떤	-13580
어렵	-13581
어버	-13582
어보	-13583
어온	-13584
어우	-13585
어주	-13586
어줬	-13587
어질	-13588
어찌	-13589
언급	-13590
얻고	-13591
얻은	-13592
얼떨	-13593
업자	-13594
업하	-13595
없겠	-13596
었나	-13597
었는	-13598
에고	-13599
ta	-13600
개시	-13601
격할	-13602
계기	-13603
고선	-13604
고침	-13605
공짜	-13606
기념	-13607
기장	-13608
껴짐	-13609
나쁜	-13610
니냐	-13611
니면	-13612
다ᅲ	-13613
대에	-13614
대햇	-13615
두들	-13616
드캐	-13617
란거	-13618
랍니	-13619
랑스	-13620
름과	-13621
마를	-13622
만원	-13623
말잘	-13624
모든	-13625
미첼	-13626
민도	-13627
밀린	-13628
발휘	-13629
밤마	-13630
보물	-13631
보인	-13632
보지	-13633
볼트	-13634
봤어	-13635
부재	-13636
붙은	-13637
비당	-13638
빠진	-13639
뺴야	-13640
승은	-13641
아들	-13642
악함	-13643
않냐	-13644
암이	-13645
양팔	-13646
어필	-13647
에이	-13648
에진	-13649
여ᅮ	-13650
여러	-13651
여전	-13652
역동	-13653
역승	-13654
역이	-13655
연계	-13656
였습	-13657
였어	-13658
였으	-13659
영리	-13660
영웅	-13661
영입	-13662
영해	-13663
예상	-13664
오고	-13665
오드	-13666
오면	-13667
올까	-13668
옵니	-13669
옵이	-13670
완벽	-13671
왤케	-13672
외교	-13673
외파	-13674
요ᄏ	-13675
요ᅲ	-13676
요즘	-13677
요한	-13678
욕까	-13679
용어	-13680
우에	-13681
우역	-13682
우와	-13683
우주	-13684
우한	-13685
우형	-13686
운빨	-13687
울리	-13688
움도	-13689
움에	-13690
움직	-13691
웅이	-13692
워주	-13693
워준	-13694
원톱	-13695
원했	-13696
위기	-13697
위원	-13698
윙백	-13699
.!	-13700
것을	-13701
격의	-13702
경제	-13703
관중	-13704
나간	-13705
나쁠	-13706
넣었	-13707
능해	-13708
다웠	-13709
단단	-13710
단전	-13711
대담	-13712
대팀	-13713
도는	-13714
독보	-13715
독을	-13716
동영	-13717
두경	-13718
럴리	-13719
린선	-13720
만가	-13721
많음	-13722
멋들	-13723
멋지	-13724
몸을	-13725
못재	-13726
무슨	-13727
무지	-13728
뭔지	-13729
박빙	-13730
방학	-13731
비축	-13732
사황	-13733
설뭔	-13734
세적	-13735
세트	-13736
손까	-13737
손하	-13738
스에	-13739
스톱	-13740
습부	-13741
승부	-13742
씬밀	-13743
야수	-13744
어렴	-13745
에대	-13746
여부	-13747
열심	-13748
와우	-13749
왜이	-13750
웠던	-13751
유국	-13752
유스	-13753
유형	-13754
으려	-13755
으신	-13756
으싸	-13757
은경	-13758
을다	-13759
을만	-13760
을써	-13761
음봄	-13762
음으	-13763
의계	-13764
의심	-13765
이강	-13766
이거	-13767
이걸	-13768
이겨	-13769
이구	-13770
이길	-13771
이난	-13772
이대	-13773
이래	-13774
이루	-13775
이미	-13776
이부	-13777
이어	-13778
이유	-13779
이재	-13780
이저	-13781
이정	-13782
이한	-13783
이해	-13784
인기	-13785
인도	-13786
인선	-13787
인성	-13788
인업	-13789
인으	-13790
인은	-13791
인의	-13792
인재	-13793
인적	-13794
일까	-13795
일났	-13796
일뽕	-13797
일인	-13798
임인	-13799
1:	-13800
3:	-13801
걸리	-13802
것에	-13803
고들	-13804
고만	-13805
골ᅲ	-13806
골도	-13807
골키	-13808
공과	-13809
근성	-13810
기일	-13811
껴보	-13812
는구	-13813
니선	-13814
락하	-13815
려드	-13816
려버	-13817
로가	-13818
리대	-13819
리해	-13820
마화	-13821
만도	-13822
만축	-13823
반짝	-13824
번엔	-13825
분한	-13826
사걸	-13827
소중	-13828
손흥	-13829
수교	-13830
수는	-13831
수들	-13832
슷하	-13833
승패	-13834
심원	-13835
십니	-13836
싸워	-13837
어냈	-13838
얻어	-13839
영어	-13840
오히	-13841
워해	-13842
음경	-13843
이넣	-13844
이악	-13845
임이	-13846
임하	-13847
입꾹	-13848
입이	-13849
있구	-13850
있더	-13851
있던	-13852
있었	-13853
있으	-13854
자동	-13855
자랑	-13856
자러	-13857
작됐	-13858
작품	-13859
잔뜩	-13860
잘막	-13861
잘쉬	-13862
잘찼	-13863
잘판	-13864
잘햇	-13865
잠설	-13866
잡았	-13867
잤다	-13868
장넘	-13869
장벽	-13870
장에	-13871
장전	-13872
장창	-13873
장할	-13874
장후	-13875
잦은	-13876
재는	-13877
재능	-13878
재라	-13879
재산	-13880
재형	-13881
잼인	-13882
저때	-13883
저빛	-13884
적으	-13885
적은	-13886
적의	-13887
적임	-13888
전ᄏ	-13889
전골	-13890
전까	-13891
전도	-13892
전되	-13893
전뛰	-13894
전율	-13895
절히	-13896
점골	-13897
접촉	-13898
정답	-13899
11	-13900
rs	-13901
ᄌᄂ	-13902
▁b	-13903
▁프	-13904
강팀	-13905
걷어	-13906
게든	-13907
굉장	-13908
구앞	-13909
구의	-13910
그리	-13911
그자	-13912
기력	-13913
끝까	-13914
나ᅳ	-13915
는팀	-13916
니였	-13917
답임	-13918
도봐	-13919
되거	-13920
두개	-13921
드카	-13922
든하	-13923
든한	-13924
들떠	-13925
려와	-13926
리남	-13927
막까	-13928
많았	-13929
맙고	-13930
모발	-13931
물같	-13932
물이	-13933
민이	-13934
반에	-13935
벽의	-13936
벽하	-13937
봅니	-13938
빨간	-13939
수생	-13940
스루	-13941
스준	-13942
습도	-13943
앙으	-13944
어색	-13945
어케	-13946
오를	-13947
요리	-13948
움츠	-13949
윙으	-13950
이를	-13951
인신	-13952
잡다	-13953
저선	-13954
적처	-13955
전개	-13956
점장	-13957
정립	-13958
정비	-13959
정선	-13960
정으	-13961
정적	-13962
제가	-13963
제봐	-13964
제차	-13965
제출	-13966
져라	-13967
졌더	-13968
졌어	-13969
조구	-13970
조규	-13971
조는	-13972
조밀	-13973
조작	-13974
조직	-13975
조축	-13976
조하	-13977
조회	-13978
족해	-13979
존나	-13980
존재	-13981
졸이	-13982
종수	-13983
좋고	-13984
좋아	-13985
주네	-13986
주로	-13987
주를	-13988
주신	-13989
주심	-13990
주었	-13991
주장	-13992
주전	-13993
죽여	-13994
준같	-13995
준도	-13996
준듯	-13997
준은	-13998
준이	-13999
!‘	-14000
38	-14001
39	-14002
▁솔	-14003
▁엄	-14004
개별	-14005
거니	-14006
겁이	-14007
격력	-14008
고의	-14009
관통	-14010
그가	-14011
그래	-14012
금족	-14013
김민	-14014
김태	-14015
났음	-14016
내뚜	-14017
넘치	-14018
다들	-14019
닮음	-14020
답해	-14021
돌진	-14022
두려	-14023
떨리	-14024
런말	-14025
로보	-14026
린스	-14027
말도	-14028
맙다	-14029
모으	-14030
몸살	-14031
물건	-14032
미자	-14033
민의	-14034
방한	-14035
비다	-14036
선발	-14037
선을	-14038
설영	-14039
셀틱	-14040
수고	-14041
수분	-14042
쉬는	-14043
쉬움	-14044
스랑	-14045
시부	-14046
시작	-14047
쓰면	-14048
아오	-14049
어떻	-14050
올려	-14051
왔다	-14052
우가	-14053
의아	-14054
이렇	-14055
인상	-14056
저렇	-14057
저상	-14058
전해	-14059
제발	-14060
제쳐	-14061
졌을	-14062
주같	-14063
주려	-14064
준최	-14065
줄거	-14066
중립	-14067
중재	-14068
중저	-14069
줬지	-14070
지ᄏ	-14071
지금	-14072
지까	-14073
지나	-14074
지네	-14075
지선	-14076
지싶	-14077
지향	-14078
직도	-14079
직스	-14080
직했	-14081
직히	-14082
진진	-14083
진하	-14084
질주	-14085
집중	-14086
짓이	-14087
짜여	-14088
짜잘	-14089
짜증	-14090
짤려	-14091
째는	-14092
쪼리	-14093
쯤되	-14094
찍는	-14095
찔하	-14096
차겠	-14097
차고	-14098
차내	-14099
12	-14100
20	-14101
Al	-14102
ed	-14103
of	-14104
가뜩	-14105
가장	-14106
각함	-14107
각했	-14108
갓이	-14109
강으	-14110
같지	-14111
경지	-14112
고갈	-14113
기쁘	-14114
기스	-14115
니어	-14116
다줘	-14117
담스	-14118
대부	-14119
뛰는	-14120
러웠	-14121
런선	-14122
리라	-14123
멋진	-14124
몇개	-14125
물병	-14126
민들	-14127
박스	-14128
발로	-14129
발을	-14130
배짱	-14131
번대	-14132
본전	-14133
볼을	-14134
비록	-14135
비하	-14136
빛을	-14137
뽑았	-14138
뿐만	-14139
사합	-14140
설날	-14141
센스	-14142
손에	-14143
송한	-14144
시라	-14145
아먹	-14146
아와	-14147
악습	-14148
어린	-14149
얼마	-14150
업할	-14151
여있	-14152
오늘	-14153
요르	-14154
우골	-14155
운을	-14156
원래	-14157
일한	-14158
잡으	-14159
재미	-14160
졸라	-14161
좋겠	-14162
준건	-14163
중간	-14164
중하	-14165
직관	-14166
차라	-14167
차면	-14168
차오	-14169
착하	-14170
찬ᄃ	-14171
찬과	-14172
찬선	-14173
찬의	-14174
찬이	-14175
찬할	-14176
찬했	-14177
찰때	-14178
찼어	-14179
창의	-14180
창조	-14181
채력	-14182
채팅	-14183
책과	-14184
챙기	-14185
처따	-14186
처에	-14187
처참	-14188
천사	-14189
첫아	-14190
청나	-14191
청해	-14192
체가	-14193
체력	-14194
체선	-14195
체적	-14196
쳐맞	-14197
쳐발	-14198
쳐주	-14199
99	-14200
ᄅᄋ	-14201
ᄉ은	-14202
▁씨	-14203
가대	-14204
거고	-14205
거의	-14206
공에	-14207
공이	-14208
구가	-14209
그걸	-14210
그것	-14211
그저	-14212
기하	-14213
김영	-14214
끄고	-14215
끈경	-14216
님ᆢ	-14217
대책	-14218
동점	-14219
될놈	-14220
라다	-14221
러니	-14222
럽습	-14223
루빨	-14224
리선	-14225
리턴	-14226
막겠	-14227
만드	-14228
만하	-14229
명하	-14230
못잊	-14231
민선	-14232
반포	-14233
방에	-14234
버해	-14235
번봐	-14236
부전	-14237
비가	-14238
비는	-14239
살아	-14240
생하	-14241
성선	-14242
쉽게	-14243
스미	-14244
실천	-14245
싸운	-14246
쌓으	-14247
안씀	-14248
얘기	-14249
여하	-14250
오른	-14251
오며	-14252
왔서	-14253
우도	-14254
우승	-14255
월클	-14256
잘살	-14257
잘준	-14258
잠들	-14259
장도	-14260
전력	-14261
정되	-14262
조금	-14263
주자	-14264
쥐는	-14265
짜ᄏ	-14266
찬받	-14267
첫출	-14268
쳤고	-14269
쳤네	-14270
쳤다	-14271
쳤어	-14272
쳤었	-14273
쳤으	-14274
최강	-14275
최근	-14276
최대	-14277
최선	-14278
최초	-14279
출은	-14280
출이	-14281
충분	-14282
취지	-14283
측면	-14284
치게	-14285
치딱	-14286
치루	-14287
치킨	-14288
친듯	-14289
카타	-14290
캡틴	-14291
컬팀	-14292
컵보	-14293
컵출	-14294
켜내	-14295
켜면	-14296
쿠플	-14297
크게	-14298
크고	-14299
▁플	-14300
▁항	-14301
개잘	-14302
격이	-14303
공을	-14304
구를	-14305
국말	-14306
극전	-14307
급변	-14308
기본	-14309
꿔야	-14310
눈에	-14311
단이	-14312
단하	-14313
대단	-14314
대하	-14315
더ᅮ	-14316
동적	-14317
드컵	-14318
드클	-14319
드필	-14320
딩골	-14321
딱어	-14322
랑해	-14323
록이	-14324
막에	-14325
맙던	-14326
모여	-14327
무릎	-14328
무한	-14329
뭔가	-14330
밀집	-14331
밌었	-14332
바란	-14333
반드	-14334
번에	-14335
변화	-14336
분부	-14337
사랑	-14338
수십	-14339
숨이	-14340
습했	-14341
역사	-14342
와역	-14343
완전	-14344
운도	-14345
움찔	-14346
위험	-14347
을려	-14348
이서	-14349
인정	-14350
있을	-14351
잘하	-14352
장큰	-14353
재껴	-14354
저런	-14355
전사	-14356
접으	-14357
준선	-14358
진정	-14359
차뻘	-14360
처박	-14361
추어	-14362
크는	-14363
크로	-14364
크해	-14365
큰경	-14366
클급	-14367
클라	-14368
클래	-14369
클리	-14370
클린	-14371
클인	-14372
키가	-14373
키듯	-14374
키심	-14375
키플	-14376
킥감	-14377
킥넣	-14378
킥도	-14379
킥으	-14380
킥은	-14381
킥을	-14382
킥이	-14383
킨게	-14384
킬이	-14385
킬패	-14386
킬포	-14387
킹강	-14388
타까	-14389
타이	-14390
탓인	-14391
태극	-14392
태도	-14393
태어	-14394
태완	-14395
태클	-14396
태환	-14397
터빼	-14398
터지	-14399
16	-14400
55	-14401
6.	-14402
PK	-14403
rr	-14404
갈색	-14405
강진	-14406
강탈	-14407
거처	-14408
고구	-14409
고를	-14410
고맙	-14411
국이	-14412
권의	-14413
그게	-14414
그동	-14415
그라	-14416
깍축	-14417
껴져	-14418
납니	-14419
내보	-14420
내용	-14421
다라	-14422
다하	-14423
단한	-14424
따로	-14425
라면	-14426
럽가	-14427
럽고	-14428
려봅	-14429
력적	-14430
릿하	-14431
마음	-14432
막게	-14433
만히	-14434
면됨	-14435
목으	-14436
무도	-14437
무조	-14438
배치	-14439
별풍	-14440
비를	-14441
빠른	-14442
새로	-14443
세보	-14444
수인	-14445
슛을	-14446
시봐	-14447
아직	-14448
않으	-14449
양팀	-14450
예술	-14451
음출	-14452
이보	-14453
인넘	-14454
자기	-14455
자신	-14456
잘못	-14457
재시	-14458
저걸	-14459
저리	-14460
족가	-14461
존경	-14462
주가	-14463
지분	-14464
짐하	-14465
짜영	-14466
짜좋	-14467
찔러	-14468
처음	-14469
초등	-14470
탄탄	-14471
테는	-14472
통했	-14473
퇴장	-14474
투지	-14475
투하	-14476
툴조	-14477
트가	-14478
트다	-14479
트랑	-14480
트로	-14481
트롤	-14482
트를	-14483
트이	-14484
트인	-14485
트치	-14486
트하	-14487
튼에	-14488
틀때	-14489
티르	-14490
티를	-14491
티비	-14492
티켓	-14493
티킥	-14494
팀보	-14495
팅을	-14496
팅입	-14497
파는	-14498
파력	-14499
0:	-14500
So	-14501
가벌	-14502
각합	-14503
갓현	-14504
결정	-14505
고비	-14506
골과	-14507
구는	-14508
국내	-14509
권이	-14510
그때	-14511
기분	-14512
기의	-14513
길패	-14514
까던	-14515
나를	-14516
나의	-14517
나혼	-14518
놓치	-14519
니라	-14520
니란	-14521
니었	-14522
더군	-14523
더미	-14524
덕분	-14525
되길	-14526
두골	-14527
드랑	-14528
랑한	-14529
랑합	-14530
량만	-14531
러다	-14532
렇고	-14533
로써	-14534
른건	-14535
매우	-14536
멋있	-14537
몰랐	-14538
밀러	-14539
본인	-14540
봤네	-14541
비유	-14542
생방	-14543
서의	-14544
설ᄏ	-14545
스도	-14546
심어	-14547
심함	-14548
알바	-14549
어봐	-14550
얻을	-14551
없었	-14552
었으	-14553
오도	-14554
오현	-14555
왜냐	-14556
왜안	-14557
외가	-14558
원시	-14559
원하	-14560
위하	-14561
점에	-14562
주골	-14563
주한	-14564
준을	-14565
짠하	-14566
차범	-14567
찬도	-14568
출연	-14569
치를	-14570
테공	-14571
틱듀	-14572
판매	-14573
판에	-14574
판이	-14575
패널	-14576
패여	-14577
퍼는	-14578
퍼도	-14579
퍼센	-14580
페널	-14581
페인	-14582
편안	-14583
편이	-14584
편하	-14585
편할	-14586
포르	-14587
폭발	-14588
폭의	-14589
폭이	-14590
폼이	-14591
표를	-14592
표정	-14593
표하	-14594
표할	-14595
표해	-14596
표현	-14597
풀로	-14598
풀릴	-14599
25	-14600
2:	-14601
35	-14602
▁E	-14603
각은	-14604
갈릴	-14605
강까	-14606
같았	-14607
격까	-14608
겼네	-14609
공시	-14610
관심	-14611
구국	-14612
국에	-14613
귀엽	-14614
기끝	-14615
날개	-14616
낳은	-14617
널브	-14618
다치	-14619
대적	-14620
되게	-14621
될듯	-14622
두리	-14623
둘씩	-14624
럼의	-14625
력불	-14626
력비	-14627
로운	-14628
마디	-14629
면에	-14630
몇골	-14631
물론	-14632
박수	-14633
버도	-14634
번경	-14635
본이	-14636
브로	-14637
블이	-14638
살렸	-14639
선방	-14640
성을	-14641
쉬시	-14642
쉬운	-14643
슛좀	-14644
스가	-14645
아차	-14646
았는	-14647
언은	-14648
연골	-14649
오나	-14650
워가	-14651
원할	-14652
의외	-14653
임으	-14654
있기	-14655
작함	-14656
장경	-14657
저는	-14658
젠틀	-14659
졌지	-14660
족한	-14661
좁히	-14662
증명	-14663
쭉쭉	-14664
차다	-14665
출하	-14666
침투	-14667
탄함	-14668
태에	-14669
팠습	-14670
패를	-14671
풀림	-14672
풀어	-14673
풀출	-14674
풀타	-14675
풍김	-14676
프사	-14677
플레	-14678
피스	-14679
피야	-14680
피케	-14681
하ᄏ	-14682
하늘	-14683
하드	-14684
하루	-14685
하셨	-14686
하이	-14687
하필	-14688
하해	-14689
학생	-14690
한가	-14691
한계	-14692
한골	-14693
한두	-14694
한마	-14695
한몫	-14696
한번	-14697
한분	-14698
한선	-14699
!♡	-14700
8:	-14701
▁템	-14702
가더	-14703
가슴	-14704
간에	-14705
갑니	-14706
개꿀	-14707
개추	-14708
거는	-14709
국민	-14710
금만	-14711
놔두	-14712
누워	-14713
느끼	-14714
닌지	-14715
다깨	-14716
다녔	-14717
다던	-14718
다해	-14719
달려	-14720
당히	-14721
도면	-14722
드디	-14723
람들	-14724
력좋	-14725
먹었	-14726
몇번	-14727
못하	-14728
민을	-14729
바랍	-14730
범이	-14731
벤치	-14732
보유	-14733
복축	-14734
볼수	-14735
부임	-14736
부진	-14737
사실	-14738
살먹	-14739
서서	-14740
선의	-14741
설진	-14742
술하	-14743
슴이	-14744
시종	-14745
심이	-14746
아깝	-14747
악물	-14748
않나	-14749
어가	-14750
우의	-14751
웃겨	-14752
자주	-14753
잘줬	-14754
장난	-14755
전체	-14756
제대	-14757
종일	-14758
주관	-14759
지렷	-14760
짖기	-14761
체로	-14762
타고	-14763
투혼	-14764
팔리	-14765
풀리	-14766
한심	-14767
한준	-14768
한층	-14769
할려	-14770
할말	-14771
할지	-14772
함께	-14773
합니	-14774
해보	-14775
해봅	-14776
해줘	-14777
해했	-14778
핸들	-14779
했는	-14780
했지	-14781
헐거	-14782
험이	-14783
험해	-14784
헤딩	-14785
현병	-14786
혔음	-14787
혼과	-14788
홍명	-14789
홍선	-14790
홍현	-14791
홍형	-14792
화감	-14793
화같	-14794
화면	-14795
화이	-14796
확달	-14797
확도	-14798
확실	-14799
->	-14800
MO	-14801
ce	-14802
▁훌	-14803
가히	-14804
개네	-14805
거실	-14806
게이	-14807
겼다	-14808
고안	-14809
그럼	-14810
기운	-14811
끔하	-14812
닙니	-14813
돋을	-14814
드립	-14815
들소	-14816
들한	-14817
때까	-14818
라일	-14819
러주	-14820
려낸	-14821
려라	-14822
름이	-14823
마비	-14824
멋져	-14825
멋짐	-14826
명심	-14827
민아	-14828
밌게	-14829
벽에	-14830
봤음	-14831
사하	-14832
세게	-14833
세상	-14834
속였	-14835
스와	-14836
승전	-14837
아감	-14838
아저	-14839
악착	-14840
알아	-14841
야기	-14842
어났	-14843
어준	-14844
억이	-14845
열정	-14846
열하	-14847
유는	-14848
음직	-14849
장까	-14850
장승	-14851
저씨	-14852
젊은	-14853
점으	-14854
점의	-14855
제비	-14856
져요	-14857
좋습	-14858
주무	-14859
주셔	-14860
착같	-14861
최홍	-14862
치이	-14863
카롭	-14864
토트	-14865
피드	-14866
할게	-14867
했으	-14868
확연	-14869
확이	-14870
확정	-14871
환은	-14872
활력	-14873
활약	-14874
홧팅	-14875
황상	-14876
황에	-14877
황의	-14878
황인	-14879
황희	-14880
회가	-14881
회까	-14882
회됨	-14883
회를	-14884
회의	-14885
회창	-14886
회통	-14887
효슈	-14888
후까	-14889
후방	-14890
후회	-14891
훨씬	-14892
휴식	-14893
흔들	-14894
흘러	-14895
희망	-14896
희해	-14897
히니	-14898
히들	-14899
Am	-14900
ᄒ자	-14901
각보	-14902
게게	-14903
고도	-14904
국은	-14905
국자	-14906
국팀	-14907
기열	-14908
기였	-14909
기임	-14910
까웠	-14911
꺾고	-14912
나에	-14913
남자	-14914
냐ᄏ	-14915
는경	-14916
는내	-14917
답답	-14918
답했	-14919
독일	-14920
동반	-14921
똘똘	-14922
뛰더	-14923
라갈	-14924
라를	-14925
라의	-14926
랑하	-14927
루도	-14928
마도	-14929
만져	-14930
바꾸	-14931
박진	-14932
뽐내	-14933
선입	-14934
성하	-14935
세계	-14936
셨나	-14937
셨더	-14938
쉬워	-14939
쉽지	-14940
스는	-14941
스를	-14942
습이	-14943
신력	-14944
아쉽	-14945
여준	-14946
역전	-14947
였는	-14948
옆패	-14949
옐로	-14950
옵사	-14951
우선	-14952
우씨	-14953
운과	-14954
을돌	-14955
이였	-14956
이하	-14957
잊겠	-14958
자세	-14959
장때	-14960
제일	-14961
주상	-14962
지렸	-14963
지말	-14964
지있	-14965
케어	-14966
쿠팡	-14967
터탑	-14968
투성	-14969
팀이	-14970
팬이	-14971
피가	-14972
픽픽	-14973
해봐	-14974
환상	-14975
희옹	-14976
힘든	-14977
힘들	-14978
힘이	-14979
🥹🥹	-14980
..!	-14981
..,	-14982
1:1	-14983
3:0	-14984
5:1	-14985
6:0	-14986
7:5	-14987
9:0	-14988
9:1	-14989
:05	-14990
:33	-14991
:37	-14992
>>>	-14993
bes	-14994
cer	-14995
ent	-14996
kor	-14997
~~♡	-14998
ᄏᄏᄐ	-14999
02	-15000
22	-15001
90	-15002
가완	-15003
결함	-15004
골막	-15005
극복	-15006
금한	-15007
기겠	-15008
기니	-15009
기안	-15010
내주	-15011
너게	-15012
널트	-15013
닐까	-15014
닥치	-15015
단인	-15016
담감	-15017
답하	-15018
대되	-15019
도파	-15020
독의	-15021
되도	-15022
또로	-15023
려갔	-15024
력인	-15025
렸을	-15026
로중	-15027
륭한	-15028
막는	-15029
만타	-15030
맞다	-15031
매너	-15032
명품	-15033
미있	-15034
믿고	-15035
박하	-15036
배웠	-15037
부상	-15038
불기	-15039
뻔하	-15040
상관	-15041
상없	-15042
새벽	-15043
술이	-15044
쉽네	-15045
스안	-15046
승으	-15047
싫음	-15048
심으	-15049
아닐	-15050
안나	-15051
어오	-15052
영화	-15053
위로	-15054
윗급	-15055
인과	-15056
임없	-15057
입니	-15058
저기	-15059
전략	-15060
전반	-15061
접어	-15062
정상	-15063
찰라	-15064
처리	-15065
철벽	-15066
칙도	-15067
친재	-15068
팅창	-15069
패하	-15070
해놓	-15071
현재	-15072
혹시	-15073
환이	-15074
환쪽	-15075
황소	-15076
ᄏᄏ신	-15077
ᄏᄏ와	-15078
ᄏᄏ진	-15079
ᄒᄃᄃ	-15080
ᅲᅲ이	-15081
▁"8	-15082
▁"🇰	-15083
▁1:	-15084
▁2:	-15085
▁Ko	-15086
▁ep	-15087
▁mv	-15088
▁th	-15089
▁ᄌᄀ	-15090
▁가르	-15091
▁간만	-15092
▁갈거	-15093
▁같았	-15094
▁개리	-15095
▁개부	-15096
▁개쩐	-15097
▁거릴	-15098
▁거였	-15099
0.	-15100
7:	-15101
el	-15102
가기	-15103
거냐	-15104
겨우	-15105
격차	-15106
과잉	-15107
까이	-15108
깡따	-15109
껴졌	-15110
내에	-15111
념으	-15112
념하	-15113
놓지	-15114
눕방	-15115
느껴	-15116
다면	-15117
돌고	-15118
동을	-15119
뒤로	-15120
들린	-15121
떴으	-15122
력훈	-15123
련만	-15124
로잘	-15125
리액	-15126
림인	-15127
만은	-15128
맞붙	-15129
멀뚱	-15130
몸소	-15131
못되	-15132
무래	-15133
받은	-15134
발할	-15135
복수	-15136
부차	-15137
빌드	-15138
살리	-15139
상기	-15140
식적	-15141
신들	-15142
알러	-15143
았으	-15144
애국	-15145
양형	-15146
어볼	-15147
어코	-15148
없늣	-15149
없을	-15150
왔으	-15151
원합	-15152
이경	-15153
인터	-15154
전은	-15155
주던	-15156
쪽에	-15157
최악	-15158
치며	-15159
컵때	-15160
큰거	-15161
클이	-15162
킥에	-15163
통해	-15164
틴입	-15165
퍼들	-15166
필드	-15167
합시	-15168
혼의	-15169
후부	-15170
▁4:	-15171
▁건전	-15172
▁것입	-15173
▁경향	-15174
▁공정	-15175
▁과거	-15176
▁교훈	-15177
▁그니	-15178
▁그뒤	-15179
▁그시	-15180
▁그쪽	-15181
▁김영	-15182
▁끊기	-15183
▁나갈	-15184
▁날개	-15185
▁내주	-15186
▁넘잘	-15187
▁넘하	-15188
▁누군	-15189
▁누굴	-15190
▁다안	-15191
▁단점	-15192
▁더ᅮ	-15193
▁더더	-15194
▁도전	-15195
▁동남	-15196
▁되도	-15197
▁두려	-15198
▁두시	-15199
3.	-15200
32	-15201
40	-15202
6:	-15203
rl	-15204
th	-15205
▁m	-15206
각낭	-15207
각만	-15208
각안	-15209
간건	-15210
개멋	-15211
게없	-15212
고다	-15213
골정	-15214
공만	-15215
그들	-15216
기같	-15217
길안	-15218
깃하	-15219
꾸는	-15220
나름	-15221
놀라	-15222
는줄	-15223
닌가	-15224
되네	-15225
두힘	-15226
뒷커	-15227
드골	-15228
드냐	-15229
떡찬	-15230
뛰어	-15231
라와	-15232
럼에	-15233
럽에	-15234
력으	-15235
명일	-15236
무튼	-15237
민인	-15238
받기	-15239
발재	-15240
방이	-15241
분히	-15242
비도	-15243
비롯	-15244
빼앗	-15245
뻗어	-15246
성좀	-15247
세컨	-15248
슛으	-15249
스런	-15250
시비	-15251
싶음	-15252
아름	-15253
아마	-15254
워진	-15255
윙어	-15256
은근	-15257
인간	-15258
인물	-15259
접근	-15260
정우	-15261
중볼	-15262
쥐리	-15263
증남	-15264
초반	-15265
커로	-15266
클럽	-15267
탄한	-15268
터졌	-15269
포츠	-15270
한결	-15271
함ᄏ	-15272
헐이	-15273
환을	-15274
▁두텁	-15275
▁듣다	-15276
▁들떠	-15277
▁때에	-15278
▁떠들	-15279
▁뛰게	-15280
▁라이	-15281
▁리액	-15282
▁만큼	-15283
▁많으	-15284
▁말레	-15285
▁망부	-15286
▁맨투	-15287
▁먹던	-15288
▁몇년	-15289
▁못차	-15290
▁바란	-15291
▁박지	-15292
▁반드	-15293
▁반응	-15294
▁반코	-15295
▁반하	-15296
▁받았	-15297
▁발광	-15298
▁밤마	-15299
!^	-15300
37	-15301
49	-15302
is	-15303
ᄅᄌ	-15304
▁규	-15305
▁봅	-15306
개를	-15307
겹쳐	-15308
고ᅲ	-15309
관대	-15310
길수	-15311
나밖	-15312
나옵	-15313
남았	-15314
노래	-15315
늘이	-15316
대인	-15317
댓글	-15318
동치	-15319
랑살	-15320
런게	-15321
마술	-15322
마치	-15323
매튜	-15324
몸에	-15325
못버	-15326
무척	-15327
무하	-15328
밌음	-15329
받아	-15330
백승	-15331
별로	-15332
빡쳐	-15333
술사	-15334
승하	-15335
실책	-15336
실하	-15337
쓰러	-15338
쓰시	-15339
악명	-15340
았습	-15341
앙돌	-15342
앙에	-15343
야할	-15344
어놓	-15345
었어	-15346
역꾸	-15347
오니	-15348
음에	-15349
이때	-15350
잘넣	-15351
잘합	-15352
잡아	-15353
전불	-15354
전설	-15355
좋았	-15356
좋와	-15357
줄인	-15358
지린	-15359
지와	-15360
킥골	-15361
투입	-15362
펑펑	-15363
편의	-15364
풋이	-15365
했나	-15366
허벅	-15367
희발	-15368
▁날리	-15369
▁달러	-15370
▁먹기	-15371
▁무법	-15372
▁배짱	-15373
▁백배	-15374
▁백승	-15375
▁버리	-15376
▁벌겋	-15377
▁보냈	-15378
▁복덕	-15379
▁부러	-15380
▁부르	-15381
▁불길	-15382
▁빛나	-15383
▁빨간	-15384
▁빨라	-15385
▁빼셨	-15386
▁사법	-15387
▁사소	-15388
▁살았	-15389
▁샤신	-15390
▁선택	-15391
▁소녀	-15392
▁소유	-15393
▁손에	-15394
▁손홍	-15395
▁수많	-15396
▁숨막	-15397
▁슛하	-15398
▁스스	-15399
50	-15400
PL	-15401
ᄋᄋ	-15402
강하	-15403
개쩐	-15404
갠적	-15405
경고	-15406
고울	-15407
골인	-15408
교관	-15409
구보	-15410
극찬	-15411
금까	-15412
기적	-15413
긴게	-15414
끝난	-15415
나머	-15416
난게	-15417
넘에	-15418
넣은	-15419
넣지	-15420
느낌	-15421
대는	-15422
대옆	-15423
데에	-15424
도움	-15425
도하	-15426
돈앞	-15427
등공	-15428
뜯어	-15429
라온	-15430
맞나	-15431
머지	-15432
반칙	-15433
번쩍	-15434
베스	-15435
벽까	-15436
보냈	-15437
볼컨	-15438
불구	-15439
비조	-15440
빌미	-15441
뻔히	-15442
사적	-15443
살면	-15444
살잡	-15445
서있	-15446
수와	-15447
숨걸	-15448
숨막	-15449
슈퍼	-15450
신ᄏ	-15451
심하	-15452
써라	-15453
안한	-15454
여기	-15455
역습	-15456
왔네	-15457
우쳐	-15458
위주	-15459
의찬	-15460
인들	-15461
저건	-15462
적극	-15463
전맡	-15464
전인	-15465
점자	-15466
조던	-15467
조레	-15468
주선	-15469
주축	-15470
준의	-15471
중앙	-15472
지럴	-15473
진작	-15474
칙으	-15475
타깝	-15476
템을	-15477
해들	-15478
7:0	-15479
▁Al	-15480
▁개웃	-15481
▁맞붙	-15482
▁스위	-15483
▁시합	-15484
▁싸우	-15485
▁아깝	-15486
▁악바	-15487
▁안갖	-15488
▁안된	-15489
▁안떄	-15490
▁안보	-15491
▁안자	-15492
▁않겠	-15493
▁알러	-15494
▁앞쪽	-15495
▁야유	-15496
▁어릴	-15497
▁어마	-15498
▁어어	-15499
2-	-15500
5:	-15501
Zo	-15502
ne	-15503
ᄋ이	-15504
간절	-15505
감하	-15506
강심	-15507
개못	-15508
거기	-15509
게아	-15510
격수	-15511
고ᅥ	-15512
곱상	-15513
곳에	-15514
국보	-15515
국축	-15516
글이	-15517
깃쫄	-15518
나지	-15519
날리	-15520
네명	-15521
년인	-15522
노련	-15523
누구	-15524
누굴	-15525
능했	-15526
도에	-15527
딩밖	-15528
렁설	-15529
마들	-15530
만잡	-15531
맛애	-15532
물나	-15533
물어	-15534
박으	-15535
범도	-15536
범은	-15537
본팬	-15538
선했	-15539
섯명	-15540
속올	-15541
순직	-15542
슬픔	-15543
습좀	-15544
시는	-15545
신입	-15546
야말	-15547
어줄	-15548
었달	-15549
여자	-15550
오시	-15551
오자	-15552
오지	-15553
원함	-15554
을겁	-15555
이처	-15556
자에	-15557
자의	-15558
절함	-15559
정체	-15560
중동	-15561
중요	-15562
지난	-15563
직하	-15564
최후	-15565
치선	-15566
켜주	-15567
코너	-15568
큰실	-15569
튼하	-15570
파울	-15571
펙이	-15572
현시	-15573
▁김진	-15574
▁뛰던	-15575
▁어쩐	-15576
▁얻기	-15577
▁없나	-15578
▁역동	-15579
▁열심	-15580
▁오피	-15581
▁오히	-15582
▁요리	-15583
▁욕나	-15584
▁욕안	-15585
▁욕할	-15586
▁우주	-15587
▁운좋	-15588
▁울부	-15589
▁원터	-15590
▁원톱	-15591
▁유스	-15592
▁의견	-15593
▁이감	-15594
▁이경	-15595
▁이만	-15596
▁이였	-15597
▁이지	-15598
▁인사	-15599
.3	-15600
간큰	-15601
거쳐	-15602
그땐	-15603
그몫	-15604
냉장	-15605
넘사	-15606
다합	-15607
단했	-15608
달고	-15609
던놈	-15610
독책	-15611
돈과	-15612
돋아	-15613
될지	-15614
두번	-15615
둘다	-15616
둘어	-15617
드겠	-15618
드셨	-15619
들려	-15620
들수	-15621
딸깍	-15622
란은	-15623
람인	-15624
려놓	-15625
렵겠	-15626
리뛰	-15627
리미	-15628
리했	-15629
맞뒈	-15630
맞습	-15631
먹여	-15632
멋졌	-15633
메이	-15634
명장	-15635
문제	-15636
미침	-15637
바레	-15638
반처	-15639
발ᅮ	-15640
버로	-15641
보려	-15642
보완	-15643
불고	-15644
붙는	-15645
블한	-15646
빌런	-15647
뺀질	-15648
사리	-15649
생아	-15650
습에	-15651
실화	-15652
약한	-15653
어다	-15654
어든	-15655
오긴	-15656
웠습	-15657
으셨	-15658
이면	-15659
입견	-15660
장하	-15661
점만	-15662
조용	-15663
지들	-15664
지키	-15665
짓었	-15666
첫경	-15667
출했	-15668
켜준	-15669
팀중	-15670
팅파	-15671
패했	-15672
험도	-15673
혔었	-15674
힘니	-15675
▁가관	-15676
▁가운	-15677
▁똥줄	-15678
▁무지	-15679
▁밑바	-15680
▁열번	-15681
▁오고	-15682
▁이영	-15683
▁인간	-15684
▁인종	-15685
▁입꾹	-15686
▁있기	-15687
▁있도	-15688
▁있었	-15689
▁자동	-15690
▁자잘	-15691
▁잘려	-15692
▁잘줬	-15693
▁잘합	-15694
▁잡았	-15695
▁전후	-15696
▁정면	-15697
▁정치	-15698
▁정확	-15699
nn	-15700
간인	-15701
갈아	-15702
개야	-15703
겠고	-15704
겨주	-15705
결이	-15706
경스	-15707
경찰	-15708
과들	-15709
굴욕	-15710
깊었	-15711
껴지	-15712
끔했	-15713
네ᄏ	-15714
놀랐	-15715
니들	-15716
닥임	-15717
당할	-15718
도운	-15719
라오	-15720
략이	-15721
런태	-15722
로넣	-15723
루어	-15724
리만	-15725
면때	-15726
믿어	-15727
반보	-15728
반부	-15729
벌리	-15730
보았	-15731
뻔했	-15732
생했	-15733
서도	-15734
성만	-15735
세명	-15736
수임	-15737
스질	-15738
스프	-15739
실축	-15740
아있	-15741
아하	-15742
안줄	-15743
않았	-15744
알겠	-15745
알면	-15746
어냄	-15747
어밴	-15748
언제	-15749
오던	-15750
온전	-15751
욕먹	-15752
워라	-15753
을지	-15754
음ᄏ	-15755
자마	-15756
저지	-15757
점일	-15758
점점	-15759
주니	-15760
지하	-15761
진에	-15762
집착	-15763
쪽풀	-15764
차별	-15765
축하	-15766
커카	-15767
크가	-15768
킥까	-15769
툭건	-15770
편집	-15771
포먼	-15772
프린	-15773
하려	-15774
한건	-15775
해버	-15776
해줬	-15777
형ᄏ	-15778
흥행	-15779
▁간격	-15780
▁감차	-15781
▁기존	-15782
▁두게	-15783
▁정리	-15784
▁제비	-15785
▁제쳐	-15786
▁조회	-15787
▁주구	-15788
▁줄이	-15789
▁즁간	-15790
▁지름	-15791
▁지린	-15792
▁지분	-15793
▁지위	-15794
▁진거	-15795
▁질렀	-15796
▁짜보	-15797
▁짠하	-15798
▁차내	-15799
"3	-15800
80	-15801
wi	-15802
ᅲ이	-15803
갈거	-15804
갈렸	-15805
게서	-15806
계선	-15807
고났	-15808
공세	-15809
구사	-15810
글도	-15811
기인	-15812
길이	-15813
노력	-15814
단순	-15815
대해	-15816
더럽	-15817
도못	-15818
돋았	-15819
뛰었	-15820
려놨	-15821
로카	-15822
름을	-15823
릴대	-15824
무좋	-15825
뭔소	-15826
미토	-15827
발했	-15828
복회	-15829
볼피	-15830
쁘겠	-15831
사함	-15832
석잘	-15833
손가	-15834
쉽다	-15835
시하	-15836
신수	-15837
싫은	-15838
아전	-15839
을텐	-15840
의문	-15841
일만	-15842
재고	-15843
절했	-15844
정복	-15845
제꾸	-15846
졸잼	-15847
줄이	-15848
중여	-15849
중해	-15850
지리	-15851
째골	-15852
쪼개	-15853
찬해	-15854
천운	-15855
첨보	-15856
첫번	-15857
출을	-15858
치라	-15859
칭찬	-15860
탑스	-15861
탑클	-15862
티유	-15863
팅수	-15864
행복	-15865
헤더	-15866
화나	-15867
확중	-15868
흐름	-15869
흥미	-15870
🇷🇰	-15871
:56	-15872
Son	-15873
▁사우	-15874
▁차단	-15875
▁처따	-15876
▁쳐다	-15877
▁초등	-15878
▁최강	-15879
▁축팬	-15880
▁카타	-15881
▁크리	-15882
▁클래	-15883
▁킬포	-15884
▁토너	-15885
▁팀워	-15886
▁팀중	-15887
▁파고	-15888
▁판매	-15889
▁풀어	-15890
▁하얗	-15891
▁하이	-15892
▁할배	-15893
▁해봐	-15894
▁했더	-15895
▁현장	-15896
▁현지	-15897
▁화나	-15898
▁확연	-15899
.?	-15900
ot	-15901
감격	-15902
감전	-15903
거보	-15904
건강	-15905
결말	-15906
과감	-15907
과정	-15908
구왈	-15909
그를	-15910
그와	-15911
기쁩	-15912
나던	-15913
날카	-15914
낭만	-15915
넘넘	-15916
높아	-15917
단함	-15918
당신	-15919
도잘	-15920
드로	-15921
듣다	-15922
때되	-15923
떡벌	-15924
람의	-15925
렁하	-15926
로간	-15927
마같	-15928
막내	-15929
만으	-15930
멕시	-15931
몇명	-15932
못막	-15933
무십	-15934
미치	-15935
밌다	-15936
받았	-15937
발견	-15938
배더	-15939
배웁	-15940
백쓰	-15941
보배	-15942
봤으	-15943
비에	-15944
비현	-15945
빛이	-15946
쁩니	-15947
살고	-15948
생긴	-15949
승까	-15950
야했	-15951
어간	-15952
오후	-15953
와중	-15954
요할	-15955
웁니	-15956
음바	-15957
음의	-15958
의해	-15959
입합	-15960
장골	-15961
재가	-15962
저심	-15963
제끼	-15964
제서	-15965
졌겠	-15966
졌네	-15967
주팀	-15968
죽을	-15969
출용	-15970
태위	-15971
틀만	-15972
파도	-15973
피하	-15974
▁되려	-15975
▁잘햇	-15976
▁차출	-15977
▁찬양	-15978
▁클라	-15979
▁황희	-15980
가부를	-15981
간으로	-15982
감하다	-15983
강심장	-15984
강인보	-15985
강인싸	-15986
건이라	-15987
걸리는	-15988
게게임	-15989
게경기	-15990
게까지	-15991
게하고	-15992
겨놓고	-15993
겨주는	-15994
격수가	-15995
격이다	-15996
격하게	-15997
경기뛰	-15998
경기연	-15999
"🇰	-16000
9:	-16001
so	-16002
▁납	-16003
▁져	-16004
▁친	-16005
감차	-16006
갖춘	-16007
개선	-16008
경험	-16009
고했	-16010
김테	-16011
끝에	-16012
놓침	-16013
는순	-16014
니가	-16015
니당	-16016
다ᅮ	-16017
던건	-16018
도네	-16019
도라	-16020
들보	-16021
디전	-16022
떨지	-16023
러모	-16024
려봐	-16025
력딸	-16026
리니	-16027
릴텐	-16028
멤버	-16029
물해	-16030
민손	-16031
밤잠	-16032
방패	-16033
벽수	-16034
복이	-16035
쁜데	-16036
사처	-16037
소극	-16038
속해	-16039
수여	-16040
수하	-16041
스주	-16042
스카	-16043
신상	-16044
안들	-16045
않겠	-16046
언이	-16047
외국	-16048
유명	-16049
이간	-16050
이시	-16051
자만	-16052
잡을	-16053
장시	-16054
적일	-16055
전처	-16056
정하	-16057
져오	-16058
죄는	-16059
주셨	-16060
주하	-16061
준것	-16062
줄여	-16063
중시	-16064
줬으	-16065
지던	-16066
찌나	-16067
차버	-16068
청하	-16069
치광	-16070
타는	-16071
팀퍼	-16072
펑울	-16073
하프	-16074
한사	-16075
해뭐	-16076
해올	-16077
했습	-16078
히더	-16079
▁여진	-16080
▁차넣	-16081
▁천상	-16082
▁패하	-16083
겼지만	-16084
경기장	-16085
경까지	-16086
고하고	-16087
고했다	-16088
골이라	-16089
과보다	-16090
관하네	-16091
괜히있	-16092
구하는	-16093
구한테	-16094
규성만	-16095
규성선	-16096
규성의	-16097
규성처	-16098
규성한	-16099
"8	-16100
ᄌ규	-16101
ᅮᅲ	-16102
ᆢ감	-16103
가끔	-16104
갈겨	-16105
감있	-16106
공중	-16107
국심	-16108
규에	-16109
기존	-16110
꿀이	-16111
넓은	-16112
높이	-16113
는동	-16114
다ᄏ	-16115
다짐	-16116
단히	-16117
대의	-16118
덕도	-16119
데뷔	-16120
도자	-16121
돌입	-16122
되더	-16123
뒤흔	-16124
뛰네	-16125
란이	-16126
려보	-16127
막으	-16128
만했	-16129
말할	-16130
민존	-16131
배컴	-16132
별적	-16133
부서	-16134
불끈	-16135
뷔전	-16136
빅리	-16137
빨려	-16138
샤신	-16139
성과	-16140
수로	-16141
숨줄	-16142
신은	-16143
써요	-16144
았을	-16145
야ᅲ	-16146
업적	-16147
에다	-16148
온후	-16149
운선	-16150
위상	-16151
위해	-16152
은것	-16153
이김	-16154
있습	-16155
자다	-16156
작해	-16157
전적	-16158
전환	-16159
졌거	-16160
조국	-16161
주다	-16162
주세	-16163
즁간	-16164
처도	-16165
천하	-16166
체격	-16167
치열	-16168
컵대	-16169
크를	-16170
팅하	-16171
하더	-16172
함ᅮ	-16173
해입	-16174
허술	-16175
ᅳᅳ가	-16176
▁넘쫄	-16177
▁선곡	-16178
▁실화	-16179
▁준결	-16180
▁차범	-16181
규에게	-16182
근보다	-16183
금심장	-16184
금이나	-16185
금처럼	-16186
금한게	-16187
기겠다	-16188
기까지	-16189
기려고	-16190
기하지	-16191
깃하고	-16192
까는게	-16193
까지가	-16194
까지보	-16195
깨싸움	-16196
꺽을때	-16197
께해주	-16198
꿔주는	-16199
01	-16200
ᆞ강	-16201
ᆞ오	-16202
가골	-16203
가깝	-16204
가커	-16205
걱정	-16206
겹도	-16207
과는	-16208
구지	-16209
금심	-16210
끊기	-16211
느낄	-16212
대놓	-16213
더인	-16214
도저	-16215
돌았	-16216
동입	-16217
득점	-16218
들하	-16219
똑같	-16220
뚜렷	-16221
뛴다	-16222
뜨겁	-16223
래드	-16224
랬어	-16225
림이	-16226
마였	-16227
막그	-16228
많긴	-16229
멘탈	-16230
명쾌	-16231
무서	-16232
무잘	-16233
물겹	-16234
박항	-16235
발씨	-16236
복했	-16237
볼돌	-16238
부담	-16239
붉은	-16240
생들	-16241
서사	-16242
스하	-16243
싸웠	-16244
아할	-16245
았어	-16246
엇보	-16247
었습	-16248
예감	-16249
오심	-16250
와감	-16251
의조	-16252
임팩	-16253
잠을	-16254
장을	-16255
전을	-16256
정입	-16257
정합	-16258
제점	-16259
졌습	-16260
조별	-16261
좋을	-16262
주에	-16263
즈백	-16264
지더	-16265
찬은	-16266
찮으	-16267
쳤더	-16268
카네	-16269
탄하	-16270
티에	-16271
퍼포	-16272
하셔	-16273
하합	-16274
형태	-16275
환도	-16276
환보	-16277
히놀	-16278
힘내	-16279
▁멋지	-16280
▁발휘	-16281
▁차뻘	-16282
▁하닌	-16283
가시간	-16284
곤하다	-16285
기가없	-16286
끈경기	-16287
끈하네	-16288
낀건데	-16289
낌이었	-16290
나더라	-16291
나라의	-16292
나밖에	-16293
나와서	-16294
낫다고	-16295
널티만	-16296
넣었다	-16297
넣은게	-16298
네ᅮᅮ	-16299
1.	-16300
ᄏ할	-16301
▁텐	-16302
객관	-16303
거알	-16304
격과	-16305
격성	-16306
격시	-16307
고해	-16308
관람	-16309
기보	-16310
나가	-16311
당했	-16312
데ᄏ	-16313
도높	-16314
든데	-16315
들듯	-16316
뚜드	-16317
뛰드	-16318
라ᄃ	-16319
래야	-16320
렸ᄃ	-16321
말아	-16322
먹네	-16323
박알	-16324
방압	-16325
붙이	-16326
빛났	-16327
뺏기	-16328
스정	-16329
시끄	-16330
시느	-16331
시켯	-16332
식껍	-16333
신기	-16334
쓰리	-16335
어디	-16336
억인	-16337
없냐	-16338
었겠	-16339
었었	-16340
연결	-16341
열번	-16342
용안	-16343
우수	-16344
원해	-16345
의신	-16346
이까	-16347
이들	-16348
잘안	-16349
잤는	-16350
전하	-16351
전했	-16352
정만	-16353
제나	-16354
제는	-16355
제치	-16356
존하	-16357
주애	-16358
진ᄍ	-16359
진감	-16360
체도	-16361
켯으	-16362
트래	-16363
틀쉬	-16364
품격	-16365
할만	-16366
해줌	-16367
했었	-16368
히뛰	-16369
6:3	-16370
▁괴성	-16371
▁싫은	-16372
끔하게	-16373
났다고	-16374
놈이다	-16375
느나라	-16376
느리고	-16377
는거랑	-16378
는거임	-16379
는사람	-16380
는줄알	-16381
능한거	-16382
니드록	-16383
닌하다	-16384
다ᄃᄃ	-16385
다ᄏᄏ	-16386
다줘라	-16387
단하고	-16388
단했음	-16389
담스럽	-16390
당하고	-16391
당했음	-16392
대경기	-16393
대까지	-16394
대보냅	-16395
대최고	-16396
대축구	-16397
던사람	-16398
도적인	-16399
4.	-16400
5.	-16401
9.	-16402
tv	-16403
ᄏ걍	-16404
가라	-16405
가봐	-16406
간하	-16407
갈린	-16408
개역	-16409
거아	-16410
게까	-16411
고가	-16412
기제	-16413
나더	-16414
냐하	-16415
능지	-16416
담백	-16417
담하	-16418
당하	-16419
대가	-16420
대성	-16421
돋보	-16422
돕는	-16423
됬지	-16424
때마	-16425
력좀	-16426
력하	-16427
르겠	-16428
리오	-16429
막바	-16430
못찾	-16431
미런	-16432
반성	-16433
발패	-16434
벌을	-16435
복잘	-16436
블도	-16437
블은	-16438
성한	-16439
션에	-16440
소통	-16441
슛하	-16442
신이	-16443
십번	-16444
씁시	-16445
악플	-16446
안내	-16447
앉아	-16448
애쓴	-16449
용병	-16450
장신	-16451
장인	-16452
전과	-16453
전된	-16454
정치	-16455
좀비	-16456
주급	-16457
준에	-16458
첫굘	-16459
체되	-16460
치우	-16461
키고	-16462
키워	-16463
텨내	-16464
통하	-16465
페이	-16466
평생	-16467
하느	-16468
할뿐	-16469
해집	-16470
현실	-16471
홀히	-16472
8:3	-16473
▁남았	-16474
▁도배	-16475
▁도저	-16476
▁잘찼	-16477
▁조연	-16478
▁줄여	-16479
▁한템	-16480
국에서	-16481
도하는	-16482
도한다	-16483
독으로	-16484
독한테	-16485
돋보이	-16486
동문임	-16487
동할수	-16488
되는것	-16489
되니까	-16490
된점이	-16491
됨으로	-16492
두에게	-16493
드필더	-16494
든하다	-16495
듣네요	-16496
들어내	-16497
들어서	-16498
들어야	-16499
".	-16500
18	-16501
가능	-16502
가져	-16503
간창	-16504
겨다	-16505
고돌	-16506
고라	-16507
교훈	-16508
궤도	-16509
기다	-16510
꾸준	-16511
누웠	-16512
눈돌	-16513
는어	-16514
대빠	-16515
대참	-16516
더잘	-16517
도와	-16518
돕든	-16519
들까	-16520
딩하	-16521
러준	-16522
럽지	-16523
륭했	-16524
막은	-16525
만듦	-16526
명적	-16527
목숨	-16528
믿게	-16529
백하	-16530
볔에	-16531
분하	-16532
뺀게	-16533
뺏으	-16534
석은	-16535
석이	-16536
수밖	-16537
스피	-16538
싯다	-16539
싶어	-16540
싸우	-16541
않게	-16542
야겠	-16543
어져	-16544
어쩐	-16545
영원	-16546
온우	-16547
외에	-16548
용하	-16549
웠을	-16550
유한	-16551
인마	-16552
점유	-16553
족하	-16554
주와	-16555
지장	-16556
차네	-16557
치명	-16558
컬이	-16559
트만	-16560
튼튼	-16561
판을	-16562
한편	-16563
현이	-16564
현해	-16565
환빼	-16566
활용	-16567
후보	-16568
흥분	-16569
7:4	-16570
▁안맞	-16571
▁윗급	-16572
▁죽겟	-16573
개할때	-16574
권부터	-16575
기보다	-16576
내세요	-16577
드카드	-16578
들어오	-16579
들이라	-16580
때보면	-16581
떠나서	-16582
떨결에	-16583
뛰네요	-16584
라ᄃᄃ	-16585
라가네	-16586
라보고	-16587
라와서	-16588
라인좀	-16589
락하는	-16590
란엄청	-16591
람이었	-16592
랍니다	-16593
랑하는	-16594
래핑은	-16595
러대고	-16596
러분이	-16597
러운데	-16598
런선수	-16599
53	-16600
▁털	-16601
간끌	-16602
감붙	-16603
굼떴	-16604
그전	-16605
기여	-16606
는일	-16607
니는	-16608
다도	-16609
단과	-16610
대축	-16611
됨으	-16612
떨결	-16613
마워	-16614
맡느	-16615
몫했	-16616
뭐냐	-16617
미들	-16618
반인	-16619
방을	-16620
번다	-16621
벽해	-16622
별예	-16623
보셨	-16624
본과	-16625
브였	-16626
빛니	-16627
빼야	-16628
뽕이	-16629
쁘네	-16630
상으	-16631
생축	-16632
서들	-16633
석되	-16634
선에	-16635
선은	-16636
성취	-16637
소화	-16638
스의	-16639
아낌	-16640
아닙	-16641
안착	-16642
앙수	-16643
야하	-16644
양쪽	-16645
어졌	-16646
어쩜	-16647
얼릉	-16648
올바	-16649
옹기	-16650
워ᅲ	-16651
음부	-16652
이쯤	-16653
족함	-16654
주랑	-16655
주위	-16656
주지	-16657
지원	-16658
쩍들	-16659
취감	-16660
침대	-16661
태한	-16662
터한	-16663
티가	-16664
팀에	-16665
판도	-16666
표인	-16667
프트	-16668
피했	-16669
하닌	-16670
하세	-16671
한경	-16672
화해	-16673
힘겨	-16674
▁손좀	-16675
▁없었	-16676
▁주관	-16677
▁지각	-16678
▁질때	-16679
▁풀출	-16680
격이나	-16681
들어냈	-16682
럴트킥	-16683
렁하게	-16684
레기스	-16685
레이부	-16686
레이시	-16687
레이였	-16688
레인전	-16689
려버리	-16690
력인데	-16691
력하고	-16692
렸지만	-16693
로스질	-16694
로패스	-16695
료까지	-16696
루는데	-16697
루어낸	-16698
뤄지로	-16699
,~	-16700
15	-16701
ᄋᄇ	-16702
ᄏ나	-16703
▁B	-16704
강찬	-16705
개학	-16706
고최	-16707
공하	-16708
그럴	-16709
금이	-16710
기쁨	-16711
긱하	-16712
긴것	-16713
깔만	-16714
꺼내	-16715
꿀벌	-16716
끈기	-16717
눈감	-16718
느꼈	-16719
니죠	-16720
다나	-16721
담되	-16722
담없	-16723
두시	-16724
들렸	-16725
또는	-16726
라로	-16727
람마	-16728
련과	-16729
로다	-16730
름새	-16731
리야	-16732
막상	-16733
만나	-16734
박을	-16735
발생	-16736
별이	-16737
봤습	-16738
분동	-16739
생긱	-16740
설자	-16741
세이	-16742
스위	-16743
슷한	-16744
아냈	-16745
아봐	-16746
애리	-16747
영넣	-16748
오네	-16749
왔었	-16750
움때	-16751
음껏	-16752
이름	-16753
재야	-16754
잼으	-16755
정타	-16756
제경	-16757
좀주	-16758
주어	-16759
죽어	-16760
쪽으	-16761
최소	-16762
친건	-16763
커라	-16764
켜줬	-16765
튜라	-16766
팀께	-16767
파랭	-16768
팬인	-16769
표님	-16770
피파	-16771
한걸	-16772
환희	-16773
힐뻔	-16774
▁개고	-16775
▁머릿	-16776
▁빛밖	-16777
▁시스	-16778
▁하더	-16779
너무못	-16780
럽에서	-16781
류하지	-16782
르는거	-16783
르는게	-16784
르단과	-16785
르단전	-16786
른나라	-16787
른선수	-16788
리라고	-16789
리블로	-16790
리블이	-16791
리선수	-16792
리하게	-16793
린트랑	-16794
릴대로	-16795
마나연	-16796
막하고	-16797
만들었	-16798
만축구	-16799
▁훈	-16800
각들	-16801
거여	-16802
것만	-16803
것처	-16804
게만	-16805
날두	-16806
났는	-16807
니잔	-16808
드땜	-16809
든선	-16810
듯요	-16811
떨렸	-16812
렷습	-16813
로회	-16814
를하	-16815
름다	-16816
린간	-16817
막혔	-16818
목이	-16819
묵묵	-16820
민한	-16821
밌어	-16822
받쳐	-16823
배를	-16824
백번	-16825
번한	-16826
복하	-16827
본적	-16828
불굴	-16829
브라	-16830
비들	-16831
비와	-16832
비장	-16833
새고	-16834
새도	-16835
생겨	-16836
설사	-16837
셔넣	-16838
셨으	-16839
손강	-16840
시연	-16841
아프	-16842
안와	-16843
양반	-16844
에있	-16845
여ᅲ	-16846
였지	-16847
옜날	-16848
은보	-16849
을꺼	-16850
이더	-16851
이아	-16852
일들	-16853
있음	-16854
자청	-16855
잘려	-16856
잠시	-16857
잠이	-16858
전문	-16859
절도	-16860
좀만	-16861
좁은	-16862
주수	-16863
지라	-16864
지모	-16865
지쳐	-16866
집수	-16867
차출	-16868
쳐보	-16869
추춘	-16870
캔맥	-16871
트의	-16872
특근	-16873
패배	-16874
퍼기	-16875
포가	-16876
푹쉬	-16877
프네	-16878
피로	-16879
하길	-16880
할배	-16881
해내	-16882
▁4~	-16883
▁가리	-16884
▁슴막	-16885
▁오기	-16886
▁파워	-16887
만하고	-16888
만하면	-16889
많았다	-16890
많이넣	-16891
망된다	-16892
망스럽	-16893
맞으면	-16894
면ᄏᄏ	-16895
명빼고	-16896
명하다	-16897
못하는	-16898
문인가	-16899
0%	-16900
감겨	-16901
갔을	-16902
개놀	-16903
겨들	-16904
계잘	-16905
계하	-16906
고였	-16907
국인	-16908
근임	-16909
글수	-16910
금세	-16911
긴박	-16912
내봅	-16913
내선	-16914
낸거	-16915
다ᄒ	-16916
대앞	-16917
독없	-16918
동량	-16919
동은	-16920
듯해	-16921
력까	-16922
로는	-16923
로치	-16924
릿해	-16925
못갔	-16926
발이	-16927
발해	-16928
백에	-16929
번선	-16930
벌릴	-16931
보상	-16932
분까	-16933
빼면	-16934
생명	-16935
선한	-16936
수보	-16937
숙달	-16938
숨찬	-16939
슛은	-16940
신장	-16941
않은	-16942
알려	-16943
앙현	-16944
야한	-16945
어갔	-16946
억해	-16947
오랫	-16948
울림	-16949
은듯	-16950
을라	-16951
음ᅲ	-16952
음보	-16953
이엇	-16954
인능	-16955
잼이	-16956
전희	-16957
질렀	-16958
체였	-16959
탑으	-16960
팀의	-16961
파아	-16962
판결	-16963
표도	-16964
픔의	-16965
한방	-16966
할까	-16967
해외	-16968
활동	-16969
회기	-16970
회는	-16971
회사	-16972
희는	-16973
희때	-16974
ᄏᄏ한	-16975
▁때쯤	-16976
▁천사	-16977
갑니다	-16978
강하다	-16979
래잡기	-16980
리호주	-16981
뭐하는	-16982
민이라	-16983
민이형	-16984
민재가	-16985
민재도	-16986
민재없	-16987
밌어요	-16988
박까지	-16989
받아서	-16990
발씨찬	-16991
방압박	-16992
방어로	-16993
배더라	-16994
백에서	-16995
백으로	-16996
범근임	-16997
범죄는	-16998
베스트	-16999
ou	-17000
개쩔	-17001
거겠	-17002
거웠	-17003
거하	-17004
겁니	-17005
규보	-17006
꽤나	-17007
나길	-17008
낫다	-17009
넣으	-17010
느낀	-17011
니아	-17012
대라	-17013
대명	-17014
동선	-17015
드록	-17016
등번	-17017
딩말	-17018
따러	-17019
때보	-17020
뛰던	-17021
레알	-17022
리한	-17023
마운	-17024
막을	-17025
면으	-17026
무나	-17027
무엇	-17028
미트	-17029
박임	-17030
받길	-17031
방법	-17032
방으	-17033
버래	-17034
버얼	-17035
버햄	-17036
변수	-17037
보라	-17038
보람	-17039
본한	-17040
볼다	-17041
사나	-17042
사네	-17043
색없	-17044
수라	-17045
스페	-17046
싶었	-17047
써보	-17048
아낸	-17049
아보	-17050
안질	-17051
안풀	-17052
어거	-17053
오버	-17054
우측	-17055
운동	-17056
운명	-17057
울버	-17058
의않	-17059
의한	-17060
이영	-17061
임처	-17062
적합	-17063
정면	-17064
준팬	-17065
중거	-17066
중원	-17067
즐기	-17068
지름	-17069
지친	-17070
질리	-17071
쩔던	-17072
천상	-17073
청빠	-17074
체라	-17075
측이	-17076
컷백	-17077
코다	-17078
트윌	-17079
한줄	-17080
현중	-17081
화구	-17082
확보	-17083
▁공궤	-17084
▁본받	-17085
까지뛰	-17086
룰줄알	-17087
벽까지	-17088
벽축구	-17089
벽하다	-17090
보는게	-17091
보시지	-17092
복하게	-17093
복했고	-17094
봐도봐	-17095
봐도손	-17096
봤네요	-17097
부끄럽	-17098
부터빼	-17099
-1	-17100
17	-17101
개싫	-17102
개웃	-17103
걸로	-17104
관적	-17105
기깔	-17106
기넼	-17107
기세	-17108
끔한	-17109
내자	-17110
넼ᄏ	-17111
대역	-17112
더이	-17113
두면	-17114
들자	-17115
디아	-17116
려먹	-17117
루패	-17118
맘대	-17119
맞네	-17120
명성	-17121
못미	-17122
바랄	-17123
방송	-17124
버티	-17125
상태	-17126
생에	-17127
성대	-17128
수입	-17129
승자	-17130
심사	-17131
쌤ᄏ	-17132
쏟는	-17133
안바	-17134
양하	-17135
어넣	-17136
어던	-17137
어마	-17138
억하	-17139
에블	-17140
오래	-17141
오프	-17142
용기	-17143
우아	-17144
윙보	-17145
음가	-17146
의선	-17147
일동	-17148
정력	-17149
제간	-17150
조로	-17151
주시	-17152
찼나	-17153
챙겨	-17154
쳤던	-17155
쳤음	-17156
컵인	-17157
코리	-17158
태현	-17159
파생	-17160
파악	-17161
파이	-17162
파했	-17163
팬됐	-17164
혔겠	-17165
▁가지	-17166
▁개깔	-17167
▁멋잇	-17168
▁첫아	-17169
▁퀄리	-17170
과전율	-17171
국이다	-17172
들끼리	-17173
려주는	-17174
로스준	-17175
립람이	-17176
뭐하고	-17177
벽으로	-17178
분하지	-17179
붙는데	-17180
브였다	-17181
비축구	-17182
비하는	-17183
비하면	-17184
비한대	-17185
비해서	-17186
빛흥민	-17187
뽕이고	-17188
뿐이고	-17189
뿐이다	-17190
쁨보다	-17191
사하는	-17192
상관없	-17193
생으로	-17194
생축구	-17195
석적인	-17196
선수밖	-17197
선수분	-17198
선수인	-17199
ᄌ될	-17200
간줄	-17201
경이	-17202
경합	-17203
구수	-17204
급상	-17205
꼴임	-17206
나줘	-17207
날려	-17208
는중	-17209
능임	-17210
도손	-17211
되나	-17212
되풀	-17213
드다	-17214
때만	-17215
띄었	-17216
람에	-17217
람은	-17218
러닝	-17219
런지	-17220
레전	-17221
로웠	-17222
막았	-17223
막힘	-17224
맞겨	-17225
맞는	-17226
맨하	-17227
명만	-17228
미가	-17229
민족	-17230
벽히	-17231
비진	-17232
빛밖	-17233
빨라	-17234
살짝	-17235
술의	-17236
슴졸	-17237
습하	-17238
시스	-17239
신흥	-17240
아흐	-17241
안날	-17242
안될	-17243
안띄	-17244
안썼	-17245
업은	-17246
올리	-17247
이던	-17248
있도	-17249
장유	-17250
전진	-17251
주먹	-17252
주함	-17253
찬형	-17254
청난	-17255
치로	-17256
카우	-17257
컵을	-17258
킥유	-17259
테클	-17260
투갈	-17261
팅해	-17262
하구	-17263
합쳐	-17264
혔을	-17265
혼으	-17266
희생	-17267
▁어떻	-17268
▁열녀	-17269
▁음바	-17270
▁이자	-17271
▁좁히	-17272
강인도	-17273
결하는	-17274
계선수	-17275
끼면서	-17276
니다ᅲ	-17277
도에서	-17278
른쪽에	-17279
바지에	-17280
선수임	-17281
선수입	-17282
선수탓	-17283
섯명이	-17284
성대로	-17285
성선수	-17286
성이네	-17287
성하게	-17288
성하고	-17289
세보면	-17290
센트에	-17291
셨나요	-17292
소리는	-17293
소멸의	-17294
속해서	-17295
수였다	-17296
술이다	-17297
술이란	-17298
스만도	-17299
ᄉᄁ	-17300
ᄏ역	-17301
가관	-17302
고서	-17303
그니	-17304
그상	-17305
급하	-17306
나연	-17307
낫겠	-17308
내냐	-17309
넣기	-17310
네ᅲ	-17311
놈이	-17312
느려	-17313
다안	-17314
달리	-17315
더먹	-17316
든든	-17317
딩으	-17318
딱이	-17319
뚫기	-17320
뛰게	-17321
락한	-17322
람ᄉ	-17323
러면	-17324
려웠	-17325
르네	-17326
리더	-17327
막힌	-17328
망이	-17329
맞냐	-17330
맨마	-17331
멋잇	-17332
면알	-17333
몆골	-17334
모님	-17335
목표	-17336
미보	-17337
배심	-17338
비아	-17339
새볔	-17340
서울	-17341
시급	-17342
쓰거	-17343
약팀	-17344
어감	-17345
어려	-17346
여줬	-17347
완해	-17348
이젠	-17349
임보	-17350
입돼	-17351
입하	-17352
있지	-17353
작했	-17354
재의	-17355
전후	-17356
접뛴	-17357
정용	-17358
좋으	-17359
줄어	-17360
짜로	-17361
촉했	-17362
출됨	-17363
치들	-17364
표지	-17365
해볼	-17366
형오	-17367
호가	-17368
회자	-17369
5:5	-17370
▁뛰었	-17371
▁보지	-17372
▁쓰겠	-17373
▁안한	-17374
▁어지	-17375
▁열세	-17376
▁페인	-17377
격까지	-17378
경기를	-17379
낌이네	-17380
든선수	-17381
려놓고	-17382
스만만	-17383
스만식	-17384
스만이	-17385
스만타	-17386
스트레	-17387
습니디	-17388
습부터	-17389
습에도	-17390
승불복	-17391
승에서	-17392
승호가	-17393
시간만	-17394
시는거	-17395
시한대	-17396
신으로	-17397
실에서	-17398
실하게	-17399
"2	-17400
9-	-17401
갓흥	-17402
건뭐	-17403
겟다	-17404
격포	-17405
고못	-17406
고보	-17407
국정	-17408
남편	-17409
논스	-17410
니네	-17411
들전	-17412
들텐	-17413
럽빅	-17414
륭하	-17415
르겟	-17416
른거	-17417
리흥	-17418
린적	-17419
막지	-17420
못넣	-17421
못뚫	-17422
박고	-17423
박자	-17424
반박	-17425
반하	-17426
방쑈	-17427
백으	-17428
벽을	-17429
본경	-17430
부른	-17431
부바	-17432
불었	-17433
사소	-17434
손해	-17435
슨일	-17436
신분	-17437
아남	-17438
앙미	-17439
여보	-17440
온몸	-17441
올린	-17442
우까	-17443
웅장	-17444
원일	-17445
원터	-17446
이괜	-17447
이죠	-17448
일이	-17449
자인	-17450
줄요	-17451
지뛰	-17452
지보	-17453
진해	-17454
질뻔	-17455
집념	-17456
찢었	-17457
찬에	-17458
탄햇	-17459
팅까	-17460
편은	-17461
하겠	-17462
한템	-17463
할것	-17464
해지	-17465
했더	-17466
혼란	-17467
▁8:	-17468
▁꺼버	-17469
▁드립	-17470
▁성인	-17471
▁재생	-17472
▁지휘	-17473
▁판정	-17474
▁페넕	-17475
경기보	-17476
긴것도	-17477
도네요	-17478
버지가	-17479
상적인	-17480
심원도	-17481
심으로	-17482
십시다	-17483
싸움도	-17484
쌓으면	-17485
쌤ᄏᄏ	-17486
쏘니다	-17487
쏘니와	-17488
씀드리	-17489
아ᄏᄏ	-17490
아가시	-17491
아니였	-17492
아니죠	-17493
아야지	-17494
아주고	-17495
아주는	-17496
아줘서	-17497
아하고	-17498
아하는	-17499
.~	-17500
24	-17501
GO	-17502
OA	-17503
▁였	-17504
간을	-17505
갔는	-17506
강가	-17507
개만	-17508
거지	-17509
게뛰	-17510
게하	-17511
게한	-17512
고ᅮ	-17513
골결	-17514
공못	-17515
공잡	-17516
기점	-17517
깔나	-17518
나갈	-17519
나고	-17520
나선	-17521
는듯	-17522
는머	-17523
답니	-17524
답은	-17525
데는	-17526
든이	-17527
라구	-17528
료휘	-17529
류하	-17530
리수	-17531
명불	-17532
문성	-17533
문인	-17534
뭐지	-17535
반끝	-17536
분있	-17537
소슛	-17538
속에	-17539
술인	-17540
쉬웠	-17541
스윽	-17542
시야	-17543
아내	-17544
억때	-17545
에비	-17546
옛날	-17547
오길	-17548
왔지	-17549
요구	-17550
운부	-17551
울었	-17552
웠고	-17553
입했	-17554
정은	-17555
준결	-17556
지든	-17557
진으	-17558
짱짱	-17559
찬으	-17560
찰줄	-17561
트는	-17562
트레	-17563
팀선	-17564
파포	-17565
포스	-17566
포인	-17567
필요	-17568
한일	-17569
합류	-17570
해리	-17571
허전	-17572
화하	-17573
확신	-17574
흥인	-17575
:07	-17576
▁갈수	-17577
▁부분	-17578
▁살리	-17579
▁승내	-17580
▁중꺾	-17581
가에서	-17582
간하면	-17583
녔었지	-17584
들어낸	-17585
봤어요	-17586
시너시	-17587
아하지	-17588
악하고	-17589
안되는	-17590
안와서	-17591
안했다	-17592
앉아서	-17593
았나라	-17594
았는데	-17595
았어야	-17596
았지만	-17597
앙현준	-17598
야기가	-17599
04	-17600
3,	-17601
44	-17602
VA	-17603
ᄂ잘	-17604
가도	-17605
간발	-17606
겠어	-17607
겨버	-17608
겨줬	-17609
격형	-17610
결시	-17611
겼으	-17612
겼을	-17613
고싶	-17614
국미	-17615
근본	-17616
내기	-17617
넣든	-17618
니디	-17619
다름	-17620
다봅	-17621
도우	-17622
독은	-17623
두각	-17624
디있	-17625
때린	-17626
략으	-17627
로나	-17628
루이	-17629
말정	-17630
맛깔	-17631
못잡	-17632
물듯	-17633
물은	-17634
볼때	-17635
분명	-17636
생활	-17637
선제	-17638
설중	-17639
수네	-17640
수만	-17641
수없	-17642
슛때	-17643
아ᅡ	-17644
아후	-17645
안때	-17646
안햇	-17647
야된	-17648
어ᄒ	-17649
없어	-17650
연달	-17651
와도	-17652
울부	-17653
울을	-17654
워낙	-17655
워요	-17656
이겼	-17657
자를	-17658
장없	-17659
정직	-17660
제골	-17661
주공	-17662
준경	-17663
쫄렸	-17664
트있	-17665
팅이	-17666
팡플	-17667
편썼	-17668
피지	-17669
햇으	-17670
환등	-17671
후달	-17672
▁다치	-17673
▁불가	-17674
▁수차	-17675
▁않습	-17676
▁우수	-17677
▁조구	-17678
경기하	-17679
계기가	-17680
비하다	-17681
야된다	-17682
야한다	-17683
야했던	-17684
약하고	-17685
어가서	-17686
어나기	-17687
어나서	-17688
어낸게	-17689
어두고	-17690
어리어	-17691
어오르	-17692
어하지	-17693
엄청힘	-17694
없네요	-17695
없는데	-17696
었겠네	-17697
었는가	-17698
에대한	-17699
13	-17700
♡^	-17701
객이	-17702
관객	-17703
기리	-17704
기퍼	-17705
꼴보	-17706
끓어	-17707
나씩	-17708
났습	-17709
뉴진	-17710
도임	-17711
들중	-17712
란말	-17713
러한	-17714
로앞	-17715
만ᅮ	-17716
만쫌	-17717
망함	-17718
멀리	-17719
문전	-17720
미안	-17721
민으	-17722
믿겨	-17723
배우	-17724
본은	-17725
부럽	-17726
분되	-17727
빛나	-17728
빛흥	-17729
사였	-17730
생의	-17731
서여	-17732
선순	-17733
선전	-17734
섹시	-17735
소생	-17736
술도	-17737
시더	-17738
시처	-17739
시한	-17740
신으	-17741
쓰네	-17742
아리	-17743
아준	-17744
아줬	-17745
안믿	-17746
알게	-17747
울나	-17748
울릴	-17749
웃겼	-17750
의성	-17751
이끌	-17752
이당	-17753
저러	-17754
전같	-17755
줄였	-17756
중한	-17757
질문	-17758
차로	-17759
찮은	-17760
축알	-17761
츠리	-17762
커서	-17763
킥저	-17764
타일	-17765
탄뿐	-17766
퍼스	-17767
포씩	-17768
프라	-17769
하신	-17770
한달	-17771
해가	-17772
현장	-17773
흘립	-17774
ᄒᄒ자	-17775
▁넘사	-17776
▁대부	-17777
▁볼수	-17778
▁티켓	-17779
강하게	-17780
규성땜	-17781
대로보	-17782
대선수	-17783
에서결	-17784
여주는	-17785
여하다	-17786
역이고	-17787
영보다	-17788
영우도	-17789
오늘도	-17790
오십쇼	-17791
오오오	-17792
완벽한	-17793
왔지만	-17794
외에서	-17795
욕까지	-17796
용할수	-17797
우까지	-17798
우디전	-17799
47	-17800
51	-17801
MA	-17802
갈리	-17803
갑시	-17804
견고	-17805
고많	-17806
과거	-17807
관한	-17808
끊임	-17809
냥내	-17810
넣치	-17811
놀다	-17812
니지	-17813
다내	-17814
단으	-17815
도전	-17816
됐든	-17817
든면	-17818
떡일	-17819
뛰자	-17820
랬는	-17821
러대	-17822
려오	-17823
머릿	-17824
못보	-17825
민씨	-17826
박이	-17827
반코	-17828
벽민	-17829
벽함	-17830
변칙	-17831
불태	-17832
블랙	-17833
빈데	-17834
사한	-17835
삼촌	-17836
상응	-17837
서나	-17838
셨을	-17839
수단	-17840
슬이	-17841
습은	-17842
승갑	-17843
심해	-17844
싶습	-17845
악마	-17846
안준	-17847
약해	-17848
어뜨	-17849
엔딩	-17850
예전	-17851
오더	-17852
오랜	-17853
오십	-17854
왼발	-17855
웠어	-17856
인사	-17857
작가	-17858
제라	-17859
조해	-17860
지림	-17861
짜라	-17862
첫골	-17863
쳤나	-17864
칙적	-17865
탄밖	-17866
폼미	-17867
하랬	-17868
할선	-17869
해하	-17870
홀하	-17871
ᄏᄏᄒ	-17872
▁눈돌	-17873
▁비견	-17874
▁양사	-17875
▁전설	-17876
니지만	-17877
단인데	-17878
선수라	-17879
선수와	-17880
시하고	-17881
옵니다	-17882
원인데	-17883
원하네	-17884
원했다	-17885
월드클	-17886
위하는	-17887
윙에서	-17888
윙으로	-17889
유권이	-17890
유도했	-17891
으로가	-17892
으로도	-17893
은선수	-17894
을까요	-17895
을때보	-17896
을라고	-17897
음경기	-17898
음출전	-17899
개넣	-17900
건임	-17901
게나	-17902
겨내	-17903
교불	-17904
국회	-17905
귀해	-17906
금처	-17907
나차	-17908
난절	-17909
날까	-17910
날때	-17911
너경	-17912
니구	-17913
니와	-17914
다르	-17915
돜ᄏ	-17916
될만	-17917
들과	-17918
들끼	-17919
로부	-17920
루는	-17921
르다	-17922
말씀	-17923
말있	-17924
매경	-17925
먼산	-17926
먼트	-17927
몸과	-17928
미디	-17929
바라	-17930
번속	-17931
범과	-17932
사감	-17933
생같	-17934
성빼	-17935
세레	-17936
수돜	-17937
수야	-17938
쉬게	-17939
시겠	-17940
실망	-17941
싸해	-17942
쓰의	-17943
쓸데	-17944
씀드	-17945
아지	-17946
어네	-17947
여왕	-17948
오기	-17949
왜캐	-17950
용할	-17951
원들	-17952
윙이	-17953
음을	-17954
의하	-17955
인보	-17956
입다	-17957
자입	-17958
작용	-17959
잘라	-17960
장점	-17961
전보	-17962
절로	-17963
졸여	-17964
주역	-17965
증말	-17966
지휘	-17967
질줄	-17968
컵이	-17969
퀄이	-17970
토너	-17971
팀을	-17972
팀플	-17973
팡은	-17974
표선	-17975
필립	-17976
하넹	-17977
하얗	-17978
핵심	-17979
혈투	-17980
▁김민	-17981
▁마자	-17982
▁보호	-17983
▁쓰거	-17984
국가대	-17985
능력치	-17986
본경기	-17987
아들어	-17988
왔네요	-17989
응원할	-17990
의롭고	-17991
의미한	-17992
이겨서	-17993
이구나	-17994
이기를	-17995
이니까	-17996
이라니	-17997
이야말	-17998
이어서	-17999
en	-18000
es	-18001
pl	-18002
tl	-18003
wo	-18004
ᄌ잘	-18005
가의	-18006
간지	-18007
골까	-18008
국리	-18009
국뽕	-18010
깝지	-18011
깨어	-18012
다구	-18013
도의	-18014
동국	-18015
들때	-18016
때쯤	-18017
라선	-18018
랫동	-18019
럼만	-18020
려요	-18021
려주	-18022
롯하	-18023
리드	-18024
마드	-18025
마취	-18026
맘에	-18027
멍하	-18028
몰리	-18029
몰아	-18030
못된	-18031
부탁	-18032
붙여	-18033
빨로	-18034
선물	-18035
성인	-18036
손빼	-18037
손좀	-18038
실제	-18039
심경	-18040
아넣	-18041
안자	-18042
안찍	-18043
않아	-18044
암걸	-18045
앙대	-18046
에든	-18047
연기	-18048
연하	-18049
운경	-18050
워보	-18051
이은	-18052
일품	-18053
잡채	-18054
잡히	-18055
전으	-18056
젊고	-18057
제처	-18058
졌음	-18059
조적	-18060
첼이	-18061
축선	-18062
취중	-18063
칭하	-18064
킹해	-18065
타플	-18066
탁드	-18067
탈리	-18068
품이	-18069
피함	-18070
한자	-18071
화보	-18072
회보	-18073
히어	-18074
0:1	-18075
▁반전	-18076
▁왜이	-18077
▁줄였	-18078
내주는	-18079
러지던	-18080
레이는	-18081
생에서	-18082
약하는	-18083
은것도	-18084
이까지	-18085
이었네	-18086
이었달	-18087
이트만	-18088
이형의	-18089
이형이	-18090
인건가	-18091
인범은	-18092
인한테	-18093
일동안	-18094
일어서	-18095
임으로	-18096
임이라	-18097
임이었	-18098
임처럼	-18099
19	-18100
갰지	-18101
거머	-18102
공감	-18103
교했	-18104
구들	-18105
국선	-18106
규가	-18107
기와	-18108
께해	-18109
끊어	-18110
끝판	-18111
나은	-18112
네ᅮ	-18113
닥터	-18114
단고	-18115
대만	-18116
뛰시	-18117
럽경	-18118
리서	-18119
린친	-18120
미흡	-18121
발전	-18122
백패	-18123
변경	-18124
부족	-18125
브러	-18126
비교	-18127
뺀것	-18128
쁨보	-18129
사탕	-18130
상했	-18131
석도	-18132
세월	-18133
소속	-18134
승합	-18135
신임	-18136
실이	-18137
쏘능	-18138
안만	-18139
않을	-18140
영감	-18141
우상	-18142
원에	-18143
유기	-18144
음본	-18145
장합	-18146
저를	-18147
적도	-18148
제를	-18149
져가	-18150
조연	-18151
조의	-18152
주대	-18153
직은	-18154
집자	-18155
쪽팔	-18156
찾아	-18157
천금	-18158
체네	-18159
킥부	-18160
트에	-18161
특유	-18162
팡인	-18163
패기	-18164
패턴	-18165
필사	-18166
학교	-18167
한장	-18168
한줌	-18169
흡한	-18170
▁낙차	-18171
▁두리	-18172
▁못미	-18173
▁신장	-18174
▁자질	-18175
갓호주	-18176
구나하	-18177
내선수	-18178
니면서	-18179
디어빠	-18180
범으로	-18181
아아가	-18182
어나게	-18183
용우가	-18184
으셨네	-18185
응원해	-18186
입견이	-18187
입하는	-18188
입하면	-18189
있나요	-18190
있는게	-18191
있는지	-18192
있더라	-18193
있었다	-18194
있었던	-18195
자리는	-18196
자하는	-18197
잘모르	-18198
잘하시	-18199
ng	-18200
ᄇ이	-18201
고우	-18202
고치	-18203
관하	-18204
굿윈	-18205
기들	-18206
기량	-18207
깊은	-18208
까는	-18209
낫고	-18210
느나	-18211
니더	-18212
대됩	-18213
돋음	-18214
때리	-18215
라며	-18216
란엄	-18217
러나	-18218
력의	-18219
리잡	-18220
말만	-18221
망스	-18222
멍때	-18223
못함	-18224
무능	-18225
무에	-18226
물날	-18227
물흘	-18228
민두	-18229
밌을	-18230
바램	-18231
백답	-18232
백할	-18233
벽으	-18234
본보	-18235
분남	-18236
비커	-18237
빠지	-18238
뽑기	-18239
서다	-18240
손이	-18241
슴막	-18242
어이	-18243
억지	-18244
업보	-18245
여줌	-18246
열거	-18247
열세	-18248
온거	-18249
울음	-18250
워야	-18251
유를	-18252
으하	-18253
의지	-18254
이장	-18255
자명	-18256
재만	-18257
잼있	-18258
전때	-18259
전시	-18260
절하	-18261
정할	-18262
제이	-18263
좋네	-18264
좋더	-18265
주보	-18266
주셍	-18267
준있	-18268
지의	-18269
진리	-18270
쪽은	-18271
처절	-18272
쳣따	-18273
트보	-18274
파를	-18275
황도	-18276
회다	-18277
후에	-18278
▁두각	-18279
가막히	-18280
기부터	-18281
다ᅲᅲ	-18282
레이에	-18283
미없이	-18284
서까지	-18285
셨다고	-18286
앙으로	-18287
용기를	-18288
잘했다	-18289
잡을때	-18290
잤는데	-18291
장면때	-18292
장으로	-18293
장이다	-18294
장하시	-18295
장해지	-18296
재밌네	-18297
재산을	-18298
재성이	-18299
ᄒᄋ	-18300
가본	-18301
가않	-18302
갈꺼	-18303
갔으	-18304
개할	-18305
검나	-18306
결코	-18307
곤함	-18308
기거	-18309
기되	-18310
기엔	-18311
기중	-18312
길목	-18313
끝났	-18314
내세	-18315
는사	-18316
단어	-18317
담력	-18318
답한	-18319
데례	-18320
데요	-18321
도피	-18322
돋는	-18323
듀크	-18324
드럽	-18325
딀거	-18326
랐다	-18327
런움	-18328
려운	-18329
를했	-18330
를확	-18331
립습	-18332
마당	-18333
망과	-18334
먹은	-18335
명예	-18336
무작	-18337
물납	-18338
물자	-18339
믿습	-18340
밖없	-18341
방까	-18342
분입	-18343
분탓	-18344
비김	-18345
사라	-18346
서결	-18347
설원	-18348
션으	-18349
수마	-18350
술입	-18351
아는	-18352
안됌	-18353
약하	-18354
영생	-18355
와ᅡ	-18356
와쏘	-18357
용해	-18358
을넣	-18359
을짓	-18360
의미	-18361
임만	-18362
입장	-18363
자린	-18364
장안	-18365
지겨	-18366
체ᄏ	-18367
출를	-18368
컵중	-18369
코미	-18370
탄ᄒ	-18371
파고	-18372
판중	-18373
퍼세	-18374
포지	-18375
해굘	-18376
해봤	-18377
▁so	-18378
▁김성	-18379
▁까내	-18380
▁날두	-18381
▁눈치	-18382
▁부정	-18383
▁세월	-18384
▁저놈	-18385
▁짤리	-18386
▁첫굘	-18387
깊었다	-18388
대로된	-18389
울하네	-18390
잼으로	-18391
저선수	-18392
적이고	-18393
전까지	-18394
전술에	-18395
전에도	-18396
전이라	-18397
전인데	-18398
전해서	-18399
43	-18400
oc	-18401
ze	-18402
ᄏ기	-18403
ᄏ신	-18404
ᄏ진	-18405
가려	-18406
감각	-18407
강상	-18408
개부	-18409
개피	-18410
골안	-18411
골장	-18412
구잘	-18413
근이	-18414
길거	-18415
까운	-18416
끼면	-18417
누군	-18418
다룰	-18419
대신	-18420
대최	-18421
더자	-18422
독님	-18423
둬도	-18424
등과	-18425
디랑	-18426
땅볼	-18427
뚫고	-18428
랄을	-18429
러움	-18430
력관	-18431
력있	-18432
력치	-18433
만감	-18434
면도	-18435
목소	-18436
밌고	-18437
성아	-18438
성의	-18439
셨다	-18440
수요	-18441
수월	-18442
술해	-18443
스등	-18444
스상	-18445
승내	-18446
시봤	-18447
아끼	-18448
어릴	-18449
옷이	-18450
우임	-18451
월하	-18452
을봤	-18453
이없	-18454
임연	-18455
작하	-18456
잘모	-18457
잘통	-18458
잘할	-18459
잡는	-18460
증나	-18461
집속	-18462
짤리	-18463
차넣	-18464
참으	-18465
치곤	-18466
키자	-18467
하도	-18468
할정	-18469
현지	-18470
형님	-18471
혼이	-18472
휘젖	-18473
▁ᄌ잘	-18474
▁극대	-18475
▁느끼	-18476
▁드리	-18477
▁배놔	-18478
▁배컴	-18479
▁저사	-18480
낳네요	-18481
널티유	-18482
라선수	-18483
랬는데	-18484
로스상	-18485
선수다	-18486
수하는	-18487
어나갈	-18488
웅이다	-18489
유하더	-18490
전했고	-18491
점없이	-18492
점한거	-18493
정도면	-18494
정되는	-18495
정력이	-18496
정으로	-18497
정적인	-18498
제그만	-18499
"+	-18500
78	-18501
각조	-18502
개쳐	-18503
개털	-18504
거들	-18505
계는	-18506
[...]
